#version: 0.2 - Trained by `huggingface/tokenizers`
c h
e r
e n
e i
Ġ d
Ġ s
i e
u n
Ġ a
i ch
s t
ei n
Ġ g
Ġ w
e s
a s
Ġ m
i n
a n
Ã ¼
l l
Ġ n
e h
Ġ S
Ġ un
Ġ i
Ã ¤
u t
Ġ b
a r
Ġun d
Ġ h
Ġd ie
ich t
Ġ ein
Ġ z
Ġ k
Ġa u
Ġi st
o n
t e
un g
Ġ f
a l
d er
i g
i t
Ġ A
Ġz u
Ġ v
e m
Ġ D
eh r
a u
Ġn icht
c k
b er
Ġ P
a t
Ã ¶
Ġs ch
Ã¼ r
e l
e t
s ch
Ġ l
Ġ G
a ch
Ġd as
Ġ B
Ġd er
a b
Ġg ut
Ġ K
Ġ F
u r
k t
i r
Ġ L
Ġ ich
Ġ H
r o
Ġ M
Ġ E
l ich
Ġ T
d e
Ġa n
t er
Ġs ehr
Ġ es
d en
g en
r ei
n e
. .
g e
o r
Ġa ber
Ġ W
Ġf Ã¼r
Ġd en
t en
o ch
m m
Ġs o
Ã Ł
Ġg e
Ġ er
er t
Ġ in
an n
Ġ p
ĠS ch
Ġ o
in d
ch t
Ġau ch
Ġv er
ei t
Ġm it
s s
Ġm an
Ġau f
st e
Ġh ab
Ġ I
Ġ t
Ġw ie
an d
Ã¤ t
Ġ V
Ġs ie
Ġau s
Ġb e
Ġd a
Ġs ich
ei der
l e
Ã¶ n
rei s
Ġ N
Ġ r
Ġb ei
b en
p er
Ġw ar
Ġ R
ll e
es ch
Ġh at
i l
s e
Ġs ind
au f
ein e
Ġw ir
ĠP reis
u per
p f
h r
Ġ j
ĠD ie
s er
l s
r a
Ġ Z
i on
w as
in g
i er
ĠV er
Ġn ur
Ġhab e
ie f
Ã¤ n
a m
Ġk l
s en
Ġk ann
i s
ch en
Ġ et
Ġs t
Ġein e
ĠP ro
u m
a ck
ll t
Ġ O
ĠS t
Ġm ir
l t
i sch
st en
Ġn ach
Ġd em
Ġet was
o ll
Ġa ll
r ie
f f
l en
Ġa ls
ĠA n
al it
un kt
ar b
u ch
u alit
en n
i ert
u f
an z
o l
z t
Ġn och
ĠI ch
e d
r e
Ġv on
Ġl eider
en t
Ġw as
Ġa b
ll en
Ġw ei
d u
ualit Ã¤t
te t
Ġsch ne
o mm
Ġ U
D ie
Ġm ein
u ss
ĠE in
Ġm ehr
ie l
ief er
Ġs uper
.. .
r au
unkt ion
Ġ Q
l a
Ġi m
Ġsch Ã¶n
du kt
w ar
u s
ach t
f ach
m al
Ã¼ ber
h n
o m
Ã¼ n
ĠQ ualitÃ¤t
Ġdas s
l ei
Ġein en
pf eh
mm er
Ã¼ ck
o p
i k
z u
h t
w ei
i v
Ġschne ll
f e
Ġwie der
ĠPro dukt
b t
ĠD as
Ġsch on
g er
Ġ Ã¼ber
ĠG ut
g t
e ck
Ġkl ein
s p
h er
z e
Ġ -
rie den
iefer ung
Ġg anz
ch e
i ck
eh en
Ġ (
ei st
p t
em pfeh
an g
Ġp as
Ġw er
z en
Ġo k
Ġ 1
ur ch
Ġs ein
Ã¤ lt
Ġ e
Ġzu m
ĠS p
ĠH and
ĠE r
b ar
g el
Ġzu f
er d
Ġein fach
Ġzuf rieden
n en
eh t
f t
a de
a ll
h l
Ġv or
Ġm ich
ĠL ieferung
Ġ 2
Ġw enn
Ġl ei
en d
a p
r Ã¶
b e
Ġd es
! !
h al
ĠD er
f Ã¼
u ck
Ã¶ r
k lich
Ġ um
ĠG er
Ġ J
ei l
I ch
un d
es ser
a g
b l
a hr
Ġso ll
ing s
Ġv iel
v er
Ġ ent
ĠS ter
ĠL eider
ig e
unktion iert
o t
Ġan der
Ġb in
Ġi mmer
Ġhab en
ig en
e g
Ġbe ste
p ack
ro ÃŁ
et zt
empfeh len
rÃ¶ ÃŁ
Ġg er
Ġwir klich
Ġm uss
erd ings
o s
Ġwir d
Ġ C
a ut
eh m
w ert
m it
k omm
Ġg en
eit ung
eist ung
Ġb is
ĠS ehr
i en
ĠE s
ĠB e
r i
ĠA b
Ġwer den
l as
Ġdie se
Ã¼r de
ĠF Ã¼r
Ġa m
Ġall es
n et
auf en
Ġ 3
Ġdie s
Ġd ann
Ġein em
ung en
at z
Ġg el
or t
Ġg roÃŁ
Ġo der
au s
ĠO r
in de
ier en
Ġk eine
ĠG e
Ġ empfehlen
fe kt
er n
Ġm al
ab e
Ġk ein
Ġbei m
ĠA r
Ġge k
Ã¤ r
ĠI n
ig er
Ġge f
Ġd urch
Ġj ed
Ã¼ lle
w er
ĠA ll
o ff
ĠS ie
Ġsie ht
Ġlei cht
Ġk Ã¶n
bl em
sch en
ĠA ber
ss en
Ġzu r
ĠG esch
t z
Ġgut e
Ġw en
al ten
k e
Ġf unktioniert
h ne
sch l
e u
Ġp er
Ġer war
Ġm eine
Ġr e
Ġb esser
ĠS o
ĠU n
h e
ĠA uf
i bt
Ġw ur
Ġpas st
d em
ĠW as
ge b
ĠD a
ut z
Ġl Ã¤
Ġl ie
ĠS uper
Ġ .
n ung
Ã¶ ne
D as
a gen
Ġs p
Ġein er
s on
n te
Ġd r
s st
auf t
ĠK l
il d
Ġg ibt
a ar
Ġge w
e st
Ġj e
at iv
arb ei
r uck
Ġj etzt
ĠH Ã¼lle
Ġwei ter
komm en
et t
Ġk aufen
zu g
ar t
ro tz
Ġo hne
D er
Ġd e
an ge
Ġs on
p p
Ġw Ã¼rde
S ch
Ġb esch
Ġall erdings
a st
Ġt oll
Ġda mit
Ġh er
Ġwur de
Ġhat te
ab el
Ġg eht
Ġgek auft
on t
arb eitung
ch er
t lich
Ã¤ llt
ĠSter ne
as s
ra gen
Ġbeste llt
gen ehm
ĠT op
i mm
son sten
Ġsch le
Ġjed och
d nung
a d
Ġ 4
icht ig
Ġf inde
k en
Ġm acht
Ġg esch
ei g
ĠGer Ã¤t
ste ll
Ġz wei
g lich
ab il
Ġh Ã¤lt
w eck
el n
Ã¤ u
Ġerwar tet
ĠPro blem
S ehr
ĠOr dnung
i ll
arbei tet
ĠR e
Ġwei l
ĠVer arbeitung
b r
an k
ĠM at
i al
Ġs el
as che
ĠF arb
ch te
in der
Ġ Ã
n is
Ġh ier
o pf
Ġnicht s
m a
Ġh och
al t
ĠG rÃ¶ÃŁ
o lle
Ġun ter
rie ben
Ã¤n ger
ach en
ung s
sch t
ĠZ u
k eit
Ġb en
e ll
Ġ ,
fÃ¼ llt
Ġ c
Ġd ar
Ġw o
l Ã¤
en k
as sen
ĠB uch
eig net
h Ã¤lt
ĠlÃ¤ sst
d ig
f rei
p l
Ġv ie
b rau
.. ..
a llen
as st
lei ch
Ġd och
uf t
ur z
Ġper fekt
Ġg es
Ġver arbeitet
el t
ra kt
Ġan ge
ÃŁ en
un den
a ge
Ġi hn
Ġl ange
ck en
ĠZ weck
ĠZ eit
Ã¤t te
Ġk am
f en
u g
ei gen
ĠE n
Ġwen ig
Ġzur Ã¼ck
ĠHand y
a mm
e gen
es en
p e
pack ung
b st
Ġk omm
Ġh in
Ġt rotz
ĠL eistung
Ġsoll te
rakt isch
Ġer st
f Ã¼r
g es
st ig
Ġw Ã¤
Ġ te
er ial
ĠFarb e
z eit
Ġ 5
a y
ĠB ei
Ġre cht
eh er
ĠD es
Ġgen au
Ġ "
ĠJ ahr
ĠN icht
Ġz ie
ĠG el
or m
b au
ĠB o
ĠT eil
l ung
Ã¼ h
Ġdies es
ief ert
ð Ł
ĠGut e
ĠGrÃ¶ÃŁ e
hal b
sch ie
Ġwar en
s atz
r Ã¤
g esch
a h
ĠN ach
L eistung
Ġst abil
Ġ :
Ġmein er
Ġschle cht
Ġan genehm
der n
ĠSch u
ut e
Ġs agen
Ġge eignet
ĠW ar
r icht
er e
ĠS te
t ik
Ġt op
Ġn eu
te l
Ġp ro
q u
o se
ĠW ir
Ġa lle
Ġv om
ĠM an
k k
w and
ge ben
h en
ĠK auf
Ġe cht
e kt
Ġh Ã¤tte
l er
es s
ste llen
Ġkl eine
Ġdie sen
Ġf est
ĠAll es
ĠMat erial
l ie
Ġander en
Ġk urz
Ġsch wer
Ġv oll
ol ie
Ġmein en
ĠVer packung
Ġ eher
ĠA us
hÃ¤lt nis
s ol
au m
ĠAb zug
at ion
E in
in gen
ei ten
u st
ĠM on
i ssen
ĠVer s
ĠB ild
ĠF il
Ġo b
Ġm Ã¶
l au
Ġk om
Ġr ein
ĠSter n
tik el
ĠAn sonsten
Ġson st
ne lle
Ġj a
pack t
chen d
Ġ eigen
Ġer sten
Ġl ang
r und
Ġsch Ã¶ne
ĠW er
ĠwÃ¤ re
Ġr ichtig
L eider
ab ei
Ġbesch rieben
ĠU hr
ĠM it
Ġg rÃ¶ÃŁ
ĠWas ser
ut t
Ġda her
Ġg eh
ĠK inder
Ġun ser
ĠK abel
ĠGel d
Ġzu s
Ġs ehen
Ã¤ ch
ĠW och
ĠkÃ¶n nte
ĠSch Ã¶n
Ġb er
ĠkÃ¶n nen
ĠB l
Ġgel iefert
Ġben ut
b ung
ĠA kk
ĠL icht
eit s
Ġ1 0
F Ã¼r
Ġb rau
Ġd abei
u ÃŁ
Ġgut es
w end
amm en
ĠL e
schl uss
Ġsel bst
Ġp aar
Ġk ap
ĠB esch
ĠT asche
Ġtrotz dem
la st
Ġi hr
Ã¼ ss
d lich
ro b
Ġok ay
ĠAll erdings
Ġ !
Ġpas sen
Ġals o
sch e
ĠH abe
Ġm achen
Ġk on
Ġdie ser
u er
Ã¶r t
wand frei
m lich
Ġp raktisch
isch en
Ġger ne
Ġun s
ĠM ein
Ġsch w
at en
et z
m ack
Ġhoch wert
it z
Ġd Ã¼n
ĠK opf
Ã¼ t
S uper
a kt
sol ut
gen d
ste llt
imm t
Ġer fÃ¼llt
Ġkap utt
ĠAr tikel
i c
ĠI st
ei cht
k te
w o
Ġden n
ĠA ls
z ie
ei te
Ġje den
ĠA uch
ĠP l
Ġn un
ĠS on
Ġz war
Ġg Ã¼n
Ġh alten
Ġo pt
m en
it iv
la y
f ang
ĠT oll
H abe
Ġg em
Ġein z
ĠSch ade
ed ien
) .
Ġein wandfrei
an t
Ġbe g
us ste
Ġsein en
Ġkomm t
ei le
k l
ar k
ĠN a
Ġeigen tlich
ig n
ĠE ind
at te
in al
b and
Ġander e
Ġf eh
ĠEind ruck
ĠR ei
j a
at t
or den
brau ch
ĠV or
Ġver packt
w ie
ĠL am
Ã¼r lich
an gen
l eitung
Ġ ðŁ
at Ã¼rlich
ar ben
l os
x t
hal ten
f ort
last ik
l ter
u mm
Ġklein en
un der
m e
ĠAkk u
ĠF unktion
st Ã¤n
Ġb es
rei bung
Ġg leich
ĠE m
et te
Ġall em
Ġgut en
Ġl assen
r em
or mal
ĠProblem e
on e
al ter
ing t
Ġl Ã¤nger
ig inal
n er
b o
ĠR Ã¼ck
sp re
a ff
ig es
Ġmein em
wei se
ver hÃ¤ltnis
ĠVers and
ĠÃ ľ
a ÃŁ
ĠD eck
ĠUn d
s wert
ĠF olie
Ġschne lle
sp richt
Ġsich er
ĠGut es
Ġdies em
ar ten
!! !
er v
ĠW enn
Ġwer de
ĠGesch enk
Ġda fÃ¼r
ck er
d r
ĠUn ter
Ġbe kommen
at ur
ĠK ann
Ġl e
ĠM al
Ġgut er
ĠT ag
Ġab solut
h Ã¶r
ĠP lastik
Ġzie mlich
Ã¼ b
ĠgrÃ¶ÃŁ er
as ch
e ch
Ġgef Ã¤llt
Ġkon nte
E s
ĠF all
ro chen
on der
h a
i m
Ġt ragen
ĠGesch mack
ĠD is
Ġ en
l o
Ã¤ h
oll te
qu em
ei ch
Ġ rei
ĠFil m
p lay
ĠF arben
Ġklein er
n it
Ġsch ade
ehm en
Ġm usste
ĠDes ign
Ã¼ ÃŁ
ĠSch utz
ach e
z w
ig keit
Ã¤ uf
v or
Ġg ing
Ġbeste llen
Ġs it
schie den
Ġde ut
ĠSt off
Ġein mal
Ġber eits
at ter
Ġzus ammen
ĠG anz
ĠN ur
Ġbis schen
A n
w eg
Ġte uer
f orm
t Ã¤u
Ġb lei
Ġb ill
stell ung
Ġc a
a den
Ġs eit
a k
ĠH er
ĠW Ã¼rde
sten s
st er
ra ge
eist ert
ĠSp iel
r Ã¼
Ġg ar
ĠB in
ĠdÃ¼n n
d urch
Ġbe d
ĠWoch en
Ġn atÃ¼rlich
Ġvie le
w en
o b
an den
ĠH aar
Ã¤ ÃŁ
i mal
Ġn ormal
Ġaus rei
ĠO pt
s verhÃ¤ltnis
ĠDis play
in e
Ġl aut
un ter
wo hl
w eit
Ġf ast
Ġlie gt
o hn
Ġf unktion
hal t
ĠAr m
Ġr aus
Ġwo hl
Ġbeg eistert
ri ff
am er
f all
ĠP er
Ã¶ t
Ġn ut
ĠC h
lich e
ĠschÃ¶n es
Ġw el
Ġr ie
ĠP asst
ĠÃľ ber
edien ung
Ġ ...
au en
am t
Ġe ben
komm t
Ġkom pl
u cht
ig t
ge stellt
Ġe xt
el ativ
as se
ll ig
ge f
Ġst ark
ĠK r
ap p
Ġn ie
ĠA ut
Ġwei ÃŁ
ĠO k
empfeh lung
Ġge d
ĠWar e
Ġf Ã¼h
ĠGer uch
hÃ¶r er
i ss
Ġh and
ra d
ĠU m
ĠBesch reibung
ĠF re
Ġd ick
Ã¤n der
au er
z on
a hl
ĠLam pe
f te
ll eicht
Ġda zu
ĠN acht
i p
k el
ent lich
ĠB il
ĠW ei
Ġhochwert ig
Ã¶ ff
w egen
ĠF las
rau ben
h one
r in
Ġer f
Ġw ert
Ġm Ã¼
ĠF ot
ur t
Ġent tÃ¤u
o o
Ġ 6
br ingen
Ġd ir
Ġver b
Ġr elativ
ick t
Ġausrei chend
ze ug
och ter
Ġgem acht
Ġger ade
Ġi r
ein t
ĠD e
Ġbe quem
ĠGe brauch
ĠB atter
Ã¤t z
i z
Ġan sonsten
k le
Ġkein en
Ġwir kt
ĠEm pfeh
ĠO K
ĠK n
q ualitÃ¤t
ĠA ma
in n
ie ht
ĠDa her
Ġw eg
Ġf Ã¤llt
ĠI de
Ġst Ã¶rt
s am
ĠT ochter
Ġ: )
Ġh ell
st and
Ġje der
ĠM in
in den
Ġin s
Ġein ige
ĠP unkt
Ġwen iger
zie hen
ze u
ĠKauf empfehlung
ĠSch Ã¶ne
Ġwar m
au ber
ĠMon aten
Ã¤uf er
Ġb zw
ĠAls o
i x
ĠEin z
ĠAma zon
Ġb eh
Ġsch l
ĠT e
ĠOr iginal
Ġl Ã¶
ĠK le
G ut
Ġst eht
ĠGe w
ĠKopf hÃ¶rer
Ġbe st
Ġs te
Ġso fort
ĠVer k
Ġt ut
Ġbes onder
Ġsch ick
sch u
ĠW ie
ĠmÃ¶ chte
ot al
s o
em pf
Ġson dern
au pt
Sch nelle
ic e
Ġh alt
ab en
ĠSch w
Ġdir ekt
ĠH alter
Ġver l
Ġgef allen
h eit
os itiv
Ġw ollte
ĠG las
Ġen g
a te
Ġpro blem
ch ter
Ġd rei
Ã¤ hr
ĠO hr
Ġnoch mal
ĠEin fach
r an
ĠA pp
Ġk aum
ĠB r
isch e
s ack
Ġp reis
Ġ2 0
Ġk n
o st
s el
d ung
g rund
lich en
Ġge st
amer a
ĠA u
Ġbis her
utz ung
ĠL ie
Ġkl ar
W ir
f er
ĠD ruck
ĠÃ ĸ
ĠSch l
u l
Ã¼t zt
r at
ĠNa ja
i de
Ġsch m
ĠH aut
g ar
Ġwei ch
Ġir gend
Ġde fekt
E D
g em
m Ã¤ÃŁ
ĠGut er
eu cht
Ġso l
V er
s ung
ĠS et
ne ll
b el
Ġver wen
Ġdes halb
ĠPl atz
ĠM ag
an ke
ĠM o
ĠBo x
Ġw under
ĠL ade
ĠM ont
i st
s icht
ie len
dig t
ges amt
p en
Ġg ehen
A ll
ĠF unktioniert
ĠL uft
Ġt olle
Ġ empf
un de
t was
Ġw ill
de ck
Ġdeut lich
Ġ ro
ĠL aut
ri ma
Ġsit zt
Ġbe kommt
Ġab geb
Ġbrau cht
Ġbill ig
Ġer ste
Ġvor her
ĠenttÃ¤u scht
ĠVerk Ã¤ufer
icht e
ĠToll es
Ġt otal
ĠVer b
ĠschÃ¶n er
sch ein
ĠSo hn
Ġr ut
ĠAn leitung
b ed
g leich
Ġ10 0
ĠSp aÃŁ
Ġg l
Ġver st
ing er
lei st
Ġihr en
ĠgroÃŁ e
ĠF ern
Ġh e
ĠfÃ¼h lt
- -
ĠAn fang
Ġm ag
ĠG l
ĠDeck el
Ġver schieden
fe st
ĠBe wert
Ġer k
ĠmÃ¶ glich
ĠKl ein
s et
ĠF l
Ġau ss
ĠL iefer
Ġso mit
ĠI m
ĠH a
Ġgen ug
ĠgroÃŁ en
ĠEn t
ĠEr satz
er k
ÃŁ t
las se
ĠMein ung
an der
ĠL ED
r en
All es
p rob
ĠP ass
ĠgÃ¼n st
Ġblei bt
Ġb r
erd em
S B
en der
ar f
Ã¶ llig
ff en
ĠEr war
Ġge brau
ĠIde e
ĠgÃ¼n stig
ĠL Ã¶
ann t
ei den
asch ine
ier ig
ĠArm band
Ġerwar ten
Ġpas s
f ter
r as
er en
ĠA d
ĠT olle
e der
ĠSchu h
es sen
o k
o sen
Ġ rob
ĠSie ht
Ġgew esen
d ass
ĠP f
Ġdr auf
â Ģ
Ġh ei
ĠK amera
Leistung sverhÃ¤ltnis
Ġkompl ett
d ie
s Ã¶n
ĠH ose
Ã¶ glich
ĠG umm
Ġver s
Ã¼ck en
ĠEin e
i mmer
Ġn Ã¤ch
ĠS eite
Ġsch war
Ġso gar
ĠU SB
Ġbesonder s
Ġz w
ien en
ĠT agen
a sten
Ġn e
ĠErwar t
G ute
st off
Ã¶ hn
gel n
ĠSch nelle
ĠSch rauben
Ġst immt
Ġ +
ir m
Ã¤tz lich
ĠD urch
Ã¤n ge
fall s
Ġ or
Ġf al
Ġv Ã¶llig
Ġproblem los
Ġh il
a z
ĳ į
Ġange geben
r it
Ġr icht
ol z
Ġopt isch
g angen
Ġo ft
orden tlich
i o
Ġh o
ĠÃ¼ber zeu
eck t
ĠFlas che
Ã¤n gen
Ġa l
Ã¼ cher
Ġo ben
ind ung
ĠR uck
ĠT age
Ġg et
sch la
ĠF ahr
ed och
ĠT rotz
ĠSon st
u mmer
ĠMont age
Ġs auber
ĠF eh
ĠF orm
Ġt eil
Ġempfehlen swert
Ġw egen
fÃ¼ hl
Ġweiter empfehlen
Ġange kommen
Ġged acht
ĠB en
Ġper sÃ¶n
ĠEn de
v on
ab l
fe stig
Ġdenn och
Ġopt imal
Ã¼b sch
ĠH alt
ualit ativ
ĠK Ã¼
ĠM eine
Ġer halten
fÃ¼ hr
ch ten
Ġaus ge
ĠAr b
s eite
Ġl esen
eck er
ĠS m
ĠEin satz
Ġ 8
lter n
Ġ ordentlich
ĠSch n
rei fen
ĠSt Ã¼ck
A ls
a gt
Ġfeh lt
h ab
el ig
ĠM en
ut ter
ft ig
Ġander s
it ze
schl ie
ĠAuf bau
- )
Ã¤ hn
Ġda durch
Ġob wohl
P reis
g et
i pp
o g
un st
ĠK at
ĠM et
ĠR ad
k om
ĠOpt ik
st all
pf e
ĠZ um
omm en
ĠH Ã¤n
ak et
Ġext rem
ĠSt i
ĠmÃ¼ ssen
ach te
enn en
r Ã¤n
v oll
et ten
ĠlÃ¤ uft
b ei
ĠRuck sack
ĠJ edoch
o ol
ĠS eiten
rei ben
Ġso dass
uf rieden
Ġtoll es
Ġf l
mÃ¤ÃŁ ig
d ruck
h in
ĠO ber
ol g
ver schluss
o gen
Ġa r
ĠG rund
off e
Ġbenut zen
ĠBil der
Ġben Ã¶t
ohn t
at s
ĠAut o
in ge
ĠK on
sch Ã¶n
ĠT eile
ĠSchu he
Ġneu e
Ġdr in
ĠJahr en
Ġbesch Ã¤
Ġvie lleicht
ut en
Ġaus prob
Ġh al
ĠB Ã¼r
stell er
f ten
ĠR ein
Ġrob ust
f ahr
et o
Ġganz e
Ġrie cht
Ġm ont
Ġmit gel
Ġt ro
ĠK eine
ĠZ us
ĠKl ang
Ġ ;
Ġi P
ĠM ank
ĠB is
Ġkomm en
s eln
f in
Ġver wend
Ġeinz ige
ĠHaar e
ĠðŁ ĺ
f lÃ¤
Ġsch eint
ĠT on
ap ter
ĠB and
ĠK an
ĠErwart ungen
â Ĥ
ĠK ind
aff e
âĤ ¬
s ion
u sch
Ġk le
Ġdar auf
bau en
Ġw ack
ĠE twas
la ge
!! !!
ig entlich
Ġver sch
spre chend
ĠpersÃ¶n lich
p asst
Ġge b
E R
ach ten
ĠK unst
ur en
Ã¼n kt
ĠÃ¼ber h
a ber
Ġwur den
Ġbenut zt
Ġs Ã¼ÃŁ
Ġda von
ĠA uss
I st
l Ã¶
er st
ĠDie se
hab ung
N ach
ĠL a
Ã¤n gt
e gt
i d
Ġkl asse
ĠM a
Ġnut zen
ĠHalter ung
k er
Ġf re
ra ft
ĠT o
le gen
lau b
ĠSm art
ĠÃ¼berh aupt
E r
Ġ Ã¶ff
ĠT isch
Ġver spricht
Ġganz en
Ġent spricht
n ah
Ġ 7
Ġschnell er
ĠBei m
ĠBo den
Ġfunktion ieren
ĠMank o
ĠG es
0 0
ĠA uÃŁ
ĠJahr e
wend ung
S t
r Ã¼n
ĠÃ¼ber ras
ĠKr atz
f on
enn t
Ġander es
eg ativ
g eh
ein ander
el e
Ġp ositiv
Ġp rima
bar keit
Ġ /
in ter
Ã¤ch lich
Ġbed ienen
W ar
d et
r ank
ei gt
ĠG eht
ĠHand habung
stÃ¤n dlich
k ung
ĠN ummer
art on
ont akt
ha ft
n ehmen
an genehm
ĠK om
al tet
fÃ¼ llen
lÃ¤ ss
ch mal
ar te
ild et
ĠSchÃ¶n es
Ġd un
Ġb em
au b
ĠH olz
ĠBl u
ĠDes halb
a hn
Ġw eit
Ġjed em
ĠWoch e
ro dukt
ier te
Ġher aus
sch utz
Ġgeh alten
az it
ich er
Ġn a
ĠP aket
Ġan zu
Ġrei cht
Ã¤ glich
ran sp
Ġverwen den
Ġ X
Ġges p
ĠPass form
' s
z ogen
au ch
Ġgew Ã¼n
gef allen
h anden
u chen
er g
Ġn ehmen
ĠG riff
ĠK lei
ĠSch m
ĠV on
ĠZ ufrieden
Sch Ã¶n
Ġvie len
ĠM ot
Ġso weit
Ġschw ierig
at ten
ĠM ar
ack en
Ã¼ss el
ĠAd apter
ro m
Ġan geb
Ġde fin
Ġteil weise
h Ã¼lle
Ġs eine
st Ã¤r
ut el
ar d
ĠB edienung
ri lle
ĠSo und
k eiten
Ġg lei
ĠP u
Ġn erv
B in
b edienung
k o
Ġd icht
Ġsch lie
Ġver m
Ã¼ss e
leist ung
n ten
t eil
ĠDie s
T oll
ĠW and
ĠVer schluss
Ġklein es
schla g
Ġh Ã¼bsch
ack e
uch ten
Ġvor handen
ĠMag net
as e
ĠPer fekt
ĠG roÃŁ
ĠF rau
ĠRe zen
Ġun angenehm
Ġein igen
Ġbesser e
weg s
Ġn ett
au ert
Ġunser e
st et
Ġb ie
ĠR and
ĠS itz
Ġh Ã¶
Ġauf ge
ltern ativ
ĠAuÃŁ erdem
Ġw Ã¤r
ĠGesch ichte
ĠFot o
ei len
ĠG en
ĠH at
) ,
un kte
Ġbei den
ot h
Ġ q
an leitung
ĠT abl
gen au
ger Ã¤t
iss e
ĠEmpfeh len
ĠK ap
ĠM acht
g ig
ch es
Ġf and
Ġl o
ĠF inger
ĠBe stellung
geb aut
b ild
ĠA l
Ġkurz er
Ã¼ ll
Ġr unter
ĠO b
ĠSt unden
sp r
Ġsel ber
as chen
ĠS erv
Ġun ten
Ġl etz
ĠH und
Ã¤n dig
ap ier
Ġrein igen
schu he
k abel
or en
ĠV ie
Ġbe stens
ĠFre und
S ieht
ur o
Ġp l
rie b
ff ekt
b eh
p pt
ie lt
Ġlie ber
ĠBewert ung
f ern
h len
Ġf r
Ġgesch rieben
ĠD ank
ĠB ett
ĠT ra
ind et
Ã¼nkt lich
L ieferung
ĠK affe
ĠEin en
Ġwel che
ĠTrotz dem
Ġge ben
Ġab ge
Ġzw ischen
ĠH aus
ĠRezen sion
Ã¶ pfe
Ġbeh alten
ĠMo de
ĠKunst stoff
f olie
et ter
Ġt un
Ġc m
bed ingt
ĠbeschÃ¤ digt
P asst
ĠK unden
la den
Ġabgeb ildet
Ġverwend et
Ġdefin itiv
Ġ Ã¼
st ag
ĠK lasse
ĠM us
uck er
ĠLe der
Ġein es
.. ...
ĠHer steller
ĠBatter ien
p ar
ie gel
ck t
ĠSte llen
p unkt
r on
Ġm in
Ã¼ck t
Ġkn app
p hone
s gesamt
Ġw ahr
ĠK arton
Ġer h
g ang
Ġsch mal
ĠEr fÃ¼llt
Ã¶r en
Ġerf olg
sch irm
ĠB er
ann end
la ppt
ĠEr geb
r u
ĠK arten
Ġden ke
re ut
Ġwunder bar
ĠÃ¼berzeu gt
f l
Ġ u
ut zt
ig ung
ĠD anke
ĠH e
Ġgef unden
ĠWer k
ĠWei hn
ĠK issen
ĠVer gleich
op p
Ġdes wegen
pack en
ĠðŁ ĳį
nit t
Ã¼ hr
Ġt Ã¤glich
Ġhin ter
Ġbenut ze
ĠS au
ier ung
Ã¼ gel
ĠVerb indung
ĠServ ice
ĠP o
ĠW ind
ĠSch la
Ġq ualitativ
w ir
f Ã¤
Ã¤ lter
ter ess
Ġd an
ĠA lternativ
Ġv ert
ĠD en
ĠH ier
ĠC o
ĠH ab
ĠH Ã¤lt
le x
ĠIn halt
ĠGumm i
ransp ort
nit ten
t asche
Ġ 9
ĠS h
ĠG arten
ast atur
ĠFern bedienung
b esch
Ġh offe
ĠM Ã¤n
ra g
Ġmehr ere
ĠSo cken
flÃ¤ che
uch te
Ġgew Ã¶hn
ĠS omm
Ġb et
ĠW Ã¤
sp iel
Ġmitgel iefer
w ick
Ġg ab
al te
Ġver k
Ġman chmal
Ġbe k
iv e
ĠnÃ¤ch sten
ĠÃ¼berras cht
ĠA m
ĠP ack
ĠSch nell
ĠAn f
ats Ã¤chlich
Ġun bedingt
Ġdar an
al d
ĠF uÃŁ
Ein e
ĠE uro
Ġvor gestellt
ver lÃ¤ss
ĠGe fÃ¼hl
Ġher vor
Ġw es
Ġw Ã¼n
Ġb rei
ĠD uft
ĠF Ã¤
or gen
ĠSt and
Ġlie gen
Als o
eto oth
sch alten
ĠM ann
Ġauf grund
ĠSte ck
er zen
Ġgebrau chen
in k
icht en
Ġjed es
Ġvoll kommen
f Ã¤llt
ĠF azit
Ġst ehen
Ġgef reut
Ġsp Ã¤
stÃ¤n dig
ĠT rage
per atur
ick en
z us
er kt
Ġz er
ĠM ir
rau m
ĠMin uten
ĠArb eit
f el
l icht
it te
ĠK ein
pf en
Ġlei se
d es
ĠLe ben
u e
Ã¼ tz
ĠG eh
ĠK ette
Ġlei chte
ĠKl ar
kl Ã¤r
ĠRei ÃŁ
? ?
Ġf allen
au se
Ã¶ st
ri ft
ĠMon ate
iz iert
ĠF r
ĠT Ã¼r
ĠD am
ĠSp ort
ĠGe b
ĠBatter ie
s etz
Ġ Ã¶
ar m
Ġf inden
et rieb
Ġso wie
Ġge gen
Ġver schen
Ġst Ã¤ndig
ĠÃ¶ff nen
ch bar
al e
ĠD enn
en s
ten s
Ġso llen
oll en
Ġwas chen
ĠU r
ĠFot os
ĠZus ammen
ĠBlu etooth
stÃ¤r ke
h Ã¤nger
it zen
Ġer w
Ġt atsÃ¤chlich
ze pt
ĠgewÃ¼n scht
Ġp Ã¼nktlich
ĠR o
Ġger n
ĠKle be
ĠMet all
ĠbenÃ¶t igt
ck e
Ġhat ten
ĠSt aub
ĠGew icht
ĠKratz er
a x
Die se
Ġerfolg te
d el
ĠH och
ĠV iel
schl Ã¼sse
Ġfal sch
h em
al ender
Ġschw ach
Ġext ra
ĠFeh ler
ĠBen utzung
n icht
Ġ ch
te stet
Ġ Ã¤hn
inde st
Ġhe ute
z immer
al s
ĠT ro
ĠT astatur
ĠfÃ¼r s
ĠDa fÃ¼r
Sch Ã¶ne
F unktioniert
te m
Ġver sp
lo ssen
ein en
ab y
ĠK u
ĠIn sgesamt
Ã¼ÃŁ e
ĠiP hone
ĠSomm er
ĠJ etzt
ah men
ĠSte cker
Ġneu en
ĠWer de
ĠÃĸ ff
Ġor iginal
Ġein ge
uch e
rÃ¤ gt
ĠHalt barkeit
Ġge gangen
ra mm
uch tet
Ġrut scht
Ġm ei
ĠS ache
Ġsch n
ir t
ĠH il
Ġbe z
Ġunter wegs
g ehen
ĠL Ã¤nge
ĠEmpfeh lung
schein lich
ĠAlternativ e
ahr en
fer nen
Ġet c
ĠSon nen
ĠMus ik
o w
sch n
Ġmit t
wei l
eck en
ĠlÃ¶ st
m el
ei m
ĠS il
ss e
Ġgesch ickt
Ã¤u se
ĠToll er
urt stag
Ġirgend wie
ar i
Ġsch arf
mit tel
ĠÃ Ħ
Ġges agt
ĠSt ick
ed ig
eck ern
pp en
Ġricht ige
an te
Ġent schieden
ĠAu gen
edig lich
W ie
p assen
Ġauf zu
Ġausprob iert
Ġ Ã¤r
um pe
Ġ1 2
Ġges ehen
ĠWir kung
Ġhei ÃŁ
ĠÃ¼ br
C H
D a
s ichtig
Ġb lau
ĠB rille
ĠM esser
ĠDeck e
ĠS am
Ġan gesch
ĠSp r
ĠLeistung sverhÃ¤ltnis
Ġfeh len
Ġnut ze
Ġschwar z
m aschine
o sten
Ġsch reiben
ĠW ohn
ĠN Ã¤h
ben d
iv er
ĠGer Ã¤
Ġgel esen
rem e
ĠgÃ¼nst iger
ĠspÃ¤ ter
I n
Ġ end
an s
Ġge testet
eg a
Ġkom p
r acht
Ġw orden
Ġk ur
ĠB edien
Ġver f
e k
ĠH Ã¶
spre chen
O P
lie gen
Ġeben falls
ĠSchl Ã¼ssel
ĠEmpfehlen swert
Ġm eckern
Ġun ge
nah me
Ġlo cker
g rÃ¶ÃŁ
it ter
ĠP raktisch
ĠP unkte
ĠT em
or der
imm en
lÃ¤ ser
ĠSchÃ¶n er
ĠKlei d
ĠErgeb nis
f unktion
isch er
Ein fach
verlÃ¤ss ig
f allen
s ehr
Ġ el
it Ã¤t
Ġan bringen
Ġin teress
Ġsit zen
i le
Ġd achte
Ã¤ l
ĠB el
ab t
ĠF ol
ĠL Ã¤
ro t
ge gen
Ġbe w
Ġunser en
ĠBil dern
Ġd ort
ĠR ahmen
auf e
pt isch
Gut es
ĠwÃ¼n schen
ll er
hal ter
Ġ3 0
P rodukt
p te
s Ã¤tzlich
Ġw ichtig
an ne
it zt
ĠT aschen
Ġo ffen
Ġbe sten
Ġunter schie
Ġzie ht
Ġblei ben
Ġi de
Ġin ner
Ġt rage
ĠSt abil
Ġent fernen
off t
Ġzwei te
Ġschm eckt
Ġal ten
g l
v ent
w a
ĠM aus
ĠBl ick
g Ã¤n
ĠS ol
et zen
Ġeinfach e
off er
Ġ: -)
ĠKle ber
ĠGl Ã¼ck
Ġ &
ĠAn g
pt op
ĠP anz
Ġin nen
ger lich
Ġeinz el
-- --
Ġb l
ĠP apier
du kte
Ġgek lappt
ragen d
Ġle er
ĠMode ll
M ein
S o
b uch
g al
u p
Ġn ix
Ġein iger
ĠT ele
Ġerst mal
Ġwel ches
Ġverschieden e
fest igen
set zen
Ġhil frei
Ġmont ieren
ĠP in
Ġschle chte
Ġpro b
as en
och en
ĠRe gen
Ġges ucht
Ġjeder zeit
d icht
ie le
Ġall en
ĠEm pf
ĠS achen
ĠD r
ĠM Ã¶glich
Ġlie bt
Ġsp annend
Ġdr an
ĠÃ¶ fter
ĠS icher
it ion
ĠSp ann
Ġerk ennen
ĠB aby
gen ommen
Ã¼n st
Ġdr Ã¼cken
ĠSmart phone
ĠwÃ¤r en
Ġdan ach
h and
Ġg ro
Ġau ÃŁ
ier e
Ġgel Ã¶st
ĠGe gen
stall ation
Ġ âĢ
Ġge geben
Ġgew orden
Ġdar f
ĠOpt isch
ĠRein igung
ĠH atte
ĠT OP
ing ucker
am pe
Ġte ur
ĠLiefer zeit
ĠKaffe e
o ten
Ã¤ um
ĠD ing
ĠSt r
Ã¼ck e
ri ll
ont ro
Ġfest stellen
ĠNacht eil
a ft
d as
s au
ĠR eg
ĠIn ter
Ġzwei ten
ĠlÃ¶ sen
ĠKat zen
beh Ã¶r
ĠTem peratur
c e
es onder
ĠG r
ĠJ acke
ĠSte lle
kle ber
ĠVie lleicht
Ġunterschie dlich
m Ã¶glich
u hl
ei ge
ĠD ann
ĠBe festig
Ġbest immt
i ff
Ġsch auen
Ġge passt
Ġmehr mal
Ġlie be
M eine
Ġd Ã¼r
Ġh art
ĠBe weg
ĠUr laub
Ġein stellen
lich er
lich es
ĠGrÃ¶ÃŁ en
Ġlang sam
ĠFahr rad
ĠTele fon
Q ualitÃ¤t
k or
u b
w Ã¤
war e
Ã¼n stig
wei le
aus o
ĠIn nen
Ġins gesamt
N icht
un k
sch ei
ĠN utzung
Leistung s
ĠLam pen
bo gen
ĠTabl et
T op
g eht
u ell
Ġ ..
on s
Ġv ier
et er
ĠN e
Ã¤n dern
Ġst ar
arbei ten
ĠLaut stÃ¤rke
Ġverschieden en
Ġh Ã¤ngen
ĠN eu
Ġneu es
ĠBild schirm
l auf
Ġ ed
icht ung
ĠD auer
ĠB aum
ĠK ontakt
ĠL ei
ĠT ut
schlie ÃŁen
Ã¼ llen
Ġn egativ
ĠS el
au sch
at isch
Ġbe festigen
Ġgesch nitten
ges etzt
Ġgeh abt
Ġhil ft
ĠLa ptop
erg las
Ġversp rochen
d i
ĠK offer
ĠE igentlich
Ġj em
Ġkl ap
all o
Ġje de
gesch ickt
aff t
ĠSpiel zeug
ĠOk ay
kom pl
ĠSti ft
Ġzu verlÃ¤ssig
ĠR ie
ĠSchla f
p ro
ĠB all
ĠN un
ĠGer ne
ĠWas ch
Ġletz ten
ĠSteck d
ĠS icht
ĠK Ã¶r
ĠH in
ĠW inter
Ġge be
gel egt
Ġschle chter
ĠMat te
ĠCh em
Ġauss ieht
ĠReiÃŁ verschluss
f eh
n t
Ġ x
Ġk Ã¼r
ĠH ingucker
be w
Ġgew ohnt
Ġgesch Ã¼tzt
Ġschl imm
Ġna ja
ĠGeb urtstag
T olle
h le
y st
ðŁ ı
spre cher
ĠLÃ¶ cher
Ġar b
Ġtro cken
Toll es
i bel
le b
le bt
Ġnormal en
Ġ; )
Ġhilfrei ch
Ġan s
om it
fe kte
Ġe x
ĠGer Ã¤u
ĠZu stand
ĠMon at
sicht lich
A r
was chen
ĠSt rom
ĠSp Ã¼
bar e
ĠIn stallation
ĠRe ze
ĠMit tel
rÃ¼ her
ĠFlas chen
ĠRad io
ĠT asten
ĠV ide
ĠSt uf
ĠkÃ¶n nten
ler weile
ĠPo wer
ĠDenn och
Ġinner halb
A uf
Ġ empfeh
Ġ !!!
ĠW under
eucht ung
c t
s ste
Ġo ber
Ġver n
Ġfeh l
Ġhand lich
ĠWerk zeug
ĠB eg
sen dung
Ġent halten
pp e
ĠRÃ¼ck seite
Ġbie tet
ĠG lÃ¤ser
ĠH ell
Ġmein es
Ġgen auso
Ġkein er
Ġdurch aus
ĠZu behÃ¶r
bo x
ĠTo uch
M an
b in
eh e
ĠS er
ĠB ad
ĠL Ã¼
hl er
Ġkam en
Ġgebrau cht
* *
h lt
u de
st att
Ġf ein
at erial
ĠK la
ter n
Ġbe f
ĠN o
re chen
ik ro
ĠFunktion en
ĠNÃ¤h te
Ġklap pt
- /
Ġ qu
in kt
Ġn immt
ĠB Ã¼cher
ĠT ransport
Ġet wa
ĠHand schuhe
ation en
gem essen
f il
m esser
in ken
ach sen
ĠF est
ĠM aschine
ĠPro dukte
lau ch
rat zt
s es
Ġl ecker
or y
ĠSch ei
ĠAn wendung
fang s
Ġgeb rochen
Ġdun kel
ĠÃ¼br ig
Ġend lich
Ġh Ã¤ngt
Ġbei de
Ġwas ser
Ġvor ne
Ġre ag
Ġpassen d
Ġschick en
Ġ20 1
ĠSau g
ĠKlar e
H allo
b ie
Ġs ei
Ġzum indest
Ġgen utzt
ĠGeh Ã¤use
Ġide al
H ab
h o
r ut
w ahl
Ġl aufen
ĠM as
la gen
ĠÃ¼ber all
ien st
ĠAr t
Ġtoll er
Ġempf ind
ĠLÃ¶ sung
ĠAnf Ã¤nger
k n
u h
Ġa kt
Ġa lt
ĠG ar
ĠM uss
ger issen
schie d
Ã¤h lt
ĠÃ¤r gerlich
st anden
Ġun kompl
ĠB ed
ĠH ei
ser v
ĠBe ste
ĠPanz erglas
A N
I m
Ġz eit
ĠA B
ik on
Ġc ool
Ġdar Ã¼ber
Ġhin ein
ĠKan ten
Ġwahr scheinlich
U n
w Ã¼r
in a
Ã¼r tel
ĠSch le
arb e
Ġlei chter
Ġsp ielen
ah len
Ġwert ig
ĠBÃ¼r ste
B ei
E igentlich
p r
ei ger
sch rank
ĠI mmer
ĠN etz
Ġ1 5
uck en
Ġhin ten
Ġklar e
Ġanzu bringen
m t
o ssen
v iel
y l
Ġein iges
Ġger issen
pl atte
ĠFil ter
Ġal te
schlag bar
ĠChem ie
Ġempfeh le
g abe
m an
Ġihr e
ĠLaut sprecher
yst em
H at
w ech
Ġm uÃŁ
ĠB esser
ĠF Ã¼ÃŁe
Ġbe festig
ĠAn hÃ¤nger
Ġzie hen
Ġverwen de
b Ã¼r
f le
g ramm
Ġd auer
Ã¼ gig
ll os
at or
ne te
Ġall eine
las s
Ġwen igen
ungs anleitung
ĠWei ter
u d
st abil
Ġh a
ĠB etrieb
ab zug
ĠM ikro
ĠE cken
Ġwar um
ĠC D
ĠUn ser
ĠWas chen
ĠBewert ungen
t ragen
Ġz eigt
Ġan f
Ġer sch
ĠSch rei
ges ehen
zeit ig
Ã¼t ze
kl am
serv ice
S ie
u hr
Ġf rÃ¼her
ĠK alender
ĠL och
ĠH el
Ġr und
Ġst and
Ġst att
um en
ĠAn t
ĠAn z
Ġab zug
wer k
Ġte sten
ĠhÃ¶ her
c m
Ġ ....
Ġsch Ã¼tzt
Ã¶n nte
Ġmehr eren
kom fort
Ġhervor ragend
d a
k auf
Ġw Ã¼r
ĠF ig
ĠE ffekt
be utel
Ã¤r bt
Ġdar in
rat ze
ĠOber flÃ¤che
Ġwack elig
l eider
Ġd ank
an ten
ig em
ĠP C
sch m
ĠM ehr
Ġnach dem
acht s
ĠEr fahr
komm e
Ġzus Ã¤tzlich
ĠAkk us
Ġerh offt
ĠSam sung
ĠReze pte
h Ã¤n
p ol
Ġw ech
den ken
ert ig
stell ungen
ĠRe ch
Ver hÃ¤ltnis
ĠSti fte
h m
Ġs ah
al k
ĠSch lauch
llt ag
Ġste llen
Ġverl oren
a un
s h
Ġer fÃ¼llen
ann en
Ã¤t ze
Ġpass iert
ĠHÃ¤n de
ĠFreund in
sau ger
f las
z ent
Ġ us
Ġd auert
ĠF ir
ĠSch nitt
Ġwir ken
Ġst Ã¤r
etzt eil
rin ge
Ġgesp annt
ĠSel bst
ĠAB ER
d auer
Ġun schlagbar
ber eich
ĠF it
ĠT ragen
am p
rÃ¤ ger
Ã¼t zen
wick lung
n isse
Ġm us
Ã¤ ck
ĠD och
ĠK raft
Ġer klÃ¤r
ĠC reme
ĠDes wegen
gesch enk
ĠKr it
Ġmitgeliefer ten
k raft
z eich
Ġn Ã¤
ĠD ose
ĠP umpe
Ġl aden
ĠB Ã¼gel
Ġan gemessen
ĠR as
Ġ5 0
ĠMen ge
a il
r ig
ie b
Ġg rÃ¼n
Ġf rei
ĠD ar
ĠH Ã¤tte
ĠN Ã¤
per n
ĠAn schluss
her m
Ã¤ch st
ĠPer son
kle bt
Ġabgeb rochen
besch reibung
ĠGerÃ¤ te
grÃ¶ÃŁ e
p el
ĠB eh
ĠZu dem
ip s
ĠÃĸ l
Ġmei sten
ĠBedien ungsanleitung
i a
k zept
ĠP ol
ĠT a
Ġr um
Sch nell
ĠwÃ¤ hr
Ġbr ingt
Ġkle ben
ĠGes icht
SchÃ¶n es
ĠRezension en
g ung
Ġa ut
Ġk osten
Ġaus einander
ĠDie ser
ĠschÃ¶n en
ĠFre ude
ĠEinz iges
ĠDruck er
deck t
h Ã¤ngen
i um
ut lich
Ġf indet
sch ig
ab ile
ĠK am
Ġst Ã¶r
ehm e
ĠBo hr
rund sÃ¤tzlich
au schen
ĠK or
ĠSt ory
ĠBe utel
Ġsicher lich
Ã¶t ig
Ġangeb racht
Ġschlie ÃŁen
Ġeinzel nen
o ck
Ġm erkt
ut zen
Ġk rÃ¤
ĠG Ã¼rtel
ĠL eucht
ter t
Ġin stall
Ġt rÃ¤gt
Ġ4 0
Ã¼ss ig
ĠTe e
ĠGen au
ĠLeben s
i sten
u stig
Ġh Ã¶ren
sch auen
ĠH unde
ĠSch rau
ĠZ ur
ĠmÃ¼ sste
kle ben
ĠKÃ¼ che
bild ung
E N
ĠS omit
Ġein s
ĠK urz
ĠL auf
ĠL eicht
re cht
Ġre gel
ges p
ĠInter net
Ar tikel
g riff
y p
Ġ !!
Ġz Ã¼gig
ĠK omm
ĠL aden
Ġden en
ste cken
ĠI hr
Ã¤t ten
Ġbe komme
ĠR aum
ĠZ wei
Ġent sprechend
brauch bar
ĠgÃ¼nst igen
Ġbefestig t
f Ã¤h
o lt
s or
ĠS ind
at zt
ĠL ang
ĠN etzteil
re ck
ĠKl ett
Ġhand elt
ĠMÃ¤n gel
Ġarb eiten
b ank
ut er
ĠP ositiv
Ã¶ l
Ġsch aut
sch end
ĠT est
Ġin tens
ĠVer hÃ¤ltnis
ol fen
ĠRÃ¼ck en
Ġbed ingt
fÃ¼hr ung
ĠWeihn achts
ĠSil ikon
Ġkur ze
ĠBefestig ung
ĠSpÃ¼ l
Ġ Ã¼b
ĠP at
wei ÃŁ
ĠRÃ¼ck sendung
Ġnormal e
Ġged auert
Ã¤l fte
ĠFol ien
d t
h il
l ampe
Ġz eigen
ĠA bend
au scht
ĠSp iegel
Ġgen ommen
Ã¤u ÃŁ
ĠLade kabel
ĠHa ken
Ġunge eignet
ĠMÃ¶glich keit
wÃ¤ sche
b ald
o hlen
Ġein gesch
ĠK arte
ĠH osen
ðŁ ĳį
rit t
ron en
fÃ¤ llig
H atte
K l
e cht
s ehen
ĠG ed
ĠG rad
ĠT hem
am il
eu er
ĠEinz iger
ost et
Ġausprob ieren
ĠKunden service
ĠPack ung
e ben
Ġ Ã¤uÃŁ
Ġun brauchbar
ĠG rill
ĠF ach
ĠR est
ĠAn geb
ĠOhr en
Ġbem Ã¤n
i der
st ehen
Ġk or
ĠN egativ
ĠZ ahn
Ġum stÃ¤ndlich
ungs bed
ĠgrÃ¶ÃŁ ere
j ekt
z Ã¼
ĠP art
Ã¼r ftig
ĠW Ã¤r
Die ses
Ġgel ungen
Ġstabil er
ĠDies es
Ġpl atz
ĠTra in
ĠHil fe
feh ler
Ġw ollen
Ã¤ ht
al en
ion en
Ġbeste ll
ĠUnter schied
Ġnerv ig
ĠKrit ik
s k
ĠF en
ĠT ipp
ĠEr st
Ġlie ÃŁ
ĠNicht s
ust er
ĠLe ute
ĠCh ina
ĠKap seln
Ġed el
ĠKÃ¶r per
Ġreag iert
Ġus w
r et
ĠA lle
ĠSt uhl
ĠAb solut
ĠDa durch
Ġvoll stÃ¤ndig
Ġdick er
ĠApp le
ĠKÃ¼ hl
n ach
Ġs icht
Ġa kzept
Ġh Ã¤uf
Ġf Ã¼n
ĠM ang
ĠSch rank
il ch
Ġklein ere
ĠHand t
bar en
Ġwunder schÃ¶n
weil ig
ĠwÃ¤hr end
K ann
Ġd rau
Ġd opp
Ġs au
Ġb el
Ġer rei
ĠV ent
ĠQ u
end et
Ġweiter e
ĠAus packen
Ġ; -)
ĠMot or
bew ahr
I N
a ir
z eigt
Ġ Y
al a
el fen
Ġl ediglich
ĠW im
ĠVer wendung
ĠSt ra
re u
ĠZweck e
ĠKn opf
Ġne ben
Ġverschen kt
en kt
ĠT Ã¼
ĠV ort
Ġsoll ten
ĠSter nen
lie gt
Ġbrau che
Ġbrau chbar
Ġle uchtet
ĠKn Ã¶pfe
Ġirgend w
N a
h abe
z er
Ġz weit
ck net
ĠT herm
ste ckt
ĠV ielen
us st
lei cht
Ġbesser es
ĠMen schen
Ġhal b
Ġmont iert
Er fÃ¼llt
ĠLÃ¼ fter
r ich
Ġ 0
Ġ ehr
ĠA lltag
Ġsch ief
de ut
ĠW ecker
ÃŁ e
Ġman gel
Ġt rin
ade llos
ĠMat ratze
Ġnie dr
ĠLade gerÃ¤t
Ġget ragen
ĠFeh l
Ġmin imal
g ert
s etzt
w agen
ie ben
sch nelle
ĠH als
Ġan fangs
Ġda ÃŁ
Ġab zu
pt ik
ĠEr f
las sen
ĠgroÃŁ er
Ġunser em
Ã¤nder t
oo k
Ġgl Ã¼ck
Ġglei chen
ĠBer eich
Ġunkompl iziert
M acht
p d
z ip
Ġm ega
Ġz weck
Ġl os
ĠH Ã¤lfte
ĠT V
ĠW ert
ĠR oll
Ġab ziehen
Ġe gal
ell er
Ġzie he
Ã¼h lt
ĠBel euchtung
ĠHell igkeit
ungsbed Ã¼rftig
W as
o ver
ĠM Ã¤
am en
ĠEin st
Ġent fern
ĠzurÃ¼ck geschickt
ah lt
ĠWeihn achten
Ġch em
Ġjem and
i b
i te
ei cher
Ġg rau
Ġg lau
an ger
ĠS inn
Ġz erk
sch eiden
ĠSch ick
Ġmit tel
ĠAn der
os ition
ĠEinz ig
Ġbest eht
schu h
Ġmitt lerweile
ĠSer ie
ĠVent il
o ben
er weise
Ã¼ m
ar kt
ĠM Ã¼ll
Ġauf passen
ĠSp itze
Ġent sprechen
pp ich
deck ung
ĠBis her
ĠZusammen bau
l ang
ĠS ek
ĠV ari
wei te
fÃ¼ hlt
Ġunser er
Ġglei che
ĠwÃ¼r den
I CH
Ã¼ hl
ĠD usch
ĠP aar
ĠF le
ĠF amil
ge w
le ge
Ġmehr fach
ad set
ĠWir klich
ĠMit te
Ġwack elt
ĠTrage komfort
B is
E twas
Ġn ehme
ut r
ut ze
Ġh Ã¤tten
ĠB au
ir r
ĠR ing
um fang
ĠBe cher
Ġgeh olfen
ĠRei se
ĠCh ar
Ġsol ide
Ġkle bt
ĠÃĦ r
ĠPin sel
" .
o de
Ġ )
Ġi hm
sch Ã¶ne
ĠK ar
ĠEin bau
ĠAuf kleber
richt ung
sol ute
dr Ã¼ckt
Ġle uchten
Ġgro ss
Ġvern Ã¼n
ĠAngeb ot
ĠFen ster
l ieferung
st ation
Ġk inder
ĠP ort
ĠB esonder
ĠE le
Ġt adellos
alit Ã¤t
anz en
ĠJ e
Ġstabil en
ĠSchw Ã¤
Ġauss ehen
ĠHÃ¤n d
Ġnerv t
Ġwes entlich
setz ung
Ġwech seln
W enn
ĠP lay
ĠK ost
Ġan sprechend
Ġbe wer
ĠEin sch
ĠHand gel
rÃ¶ sse
Ġrie chen
ĠDe ut
Ġfre und
ĠMas ke
ĠWim pern
M it
n a
in kel
Ġn utz
ĠS uche
ar en
Ġein zu
Ġf ix
Ġl ag
Ġver g
las en
ĠAus wahl
im er
leist ungs
ĠReg al
p reis
u ll
Ġn Ã¼tz
ĠK Ã¶nnte
ĠL es
ter ne
Ġge kommen
Ġver stÃ¤ndlich
le gt
ĠAn genehm
wert ig
ĠSchutz hÃ¼lle
ul ver
Ġfal sche
ĠFit n
S p
b ungen
i ent
ig ht
sch icken
ĠN atÃ¼rlich
Ġdr ehen
ĠKl eine
ĠSchutz folie
ĠFern s
B e
G anz
M ir
a lle
ei lt
Ġun ver
at er
ĠH inter
ĠT er
Ġin stabil
stellen d
Ġpass genau
k la
l ing
Ġ ?
ĠS or
ĠD V
sch aft
ĠH u
ĠH aupt
ro h
ĠM aÃŁ
Ġkl app
Ġsp ielt
ĠVers ion
Ġverst auen
schlie ÃŁ
Ġangesch lossen
ĠauÃŁ er
f re
ĠF utter
ur de
och er
stell bar
ill ig
rin zip
Ġverl iert
rÃ¤n kt
ĠAuss ehen
ĠPu ll
ĠFÃ¤ cher
flas che
Ã¤ m
Ġau ÃŁen
ĠH D
ra un
ier ten
ĠAut or
ĠenttÃ¤u schend
ĠDe ko
ĠTe ppich
ĠOhr ringe
ĠEinfach e
Ġmus sten
d chen
i tel
k opf
p h
s ich
ei chen
Ġs e
Ġein gebaut
ĠF lÃ¤
ĠE cke
ĠSch alter
ĠN ot
ra f
isch end
ĠNa ht
âĢ ľ
Ġzer b
ĠâĢ ŀ
ontro ller
ĠbemÃ¤n geln
Ġentfern t
G er
W er
m in
n ur
w achsen
z ung
an e
Ġf Ã¼hr
Ġf ertig
ĠP rima
ĠH ause
ert igt
ier er
Ġher um
ĠMar ke
Ġverschen ken
ĠHÃ¶ he
ch n
Ġun be
Ã¤ ge
Ġsch la
ĠW e
Ġver z
Ġt ief
ver packung
ĠBe zug
inde stens
ĠWir d
ĠfÃ¼h len
ĠMin us
Gut er
ĠStuf e
ĠerklÃ¤r t
l esen
Ġw issen
in en
Ġf e
ĠB ass
ĠM Ã¼
Ġver gleich
Ġauf gebaut
Ġst ra
om ent
be kommen
Ġlie ben
Ġson der
Ġschl icht
ĠMa c
Ġmitgeliefer te
Ġerw Ã¤hn
ĠLÃ¤ sst
ĠMang el
b y
b Ã¤nder
Ġ âĤ¬
st Ã¼ck
Ġzu dem
ĠD u
ss er
ĠN och
ĠHandy hÃ¼lle
Ġfunktion ierte
Ġbr ingen
ĠStaub sauger
Ġinteress ant
ĠstÃ¶r end
p raktisch
Ġ Ã¤lter
in er
Ġun g
Ġk alt
Ġf arb
ĠR Ã¤
ĠO hne
wei s
ĠBr ief
Ġvers ucht
Ġschwar ze
Ġricht igen
ĠgewÃ¶hn ungsbedÃ¼rftig
zus ehen
ĠSpann ung
2 0
G e
O ptisch
b ett
g las
i br
Ġb itte
Ġf ahren
ĠEin stellung
Ġeinfach er
ĠAb bildung
Ġtoll en
Ġsel ten
Ġrie s
ĠiP ad
ink s
Ġkomp akt
h ause
i se
k asten
r atz
s a
u be
Ġs ucht
Ġs uchen
ie t
un Ã¤chst
Ġi s
ĠF an
ĠL eg
ĠW eg
Ġso was
Ġaus gel
ĠSo ft
wend ig
Ġhochwert igen
zw ischen
Ġverst ehen
Ġversch w
ĠHe adset
ĠDam it
ĠNo te
Ġaut om
ĠSek unden
Ġ '
Ġs or
st ra
Ġun n
Ġf all
ĠB ade
ĠF e
Ġer g
ste lle
Ġaus zu
Ġbe vor
ĠVer l
uch s
du s
ĠC ase
ĠAuf bewahr
Ġbrau chte
ĠSon ne
ĠWÃ¤ sche
Ġprob iert
Ġempfind lich
S ind
b all
l es
r ein
en den
ei f
Ġs inn
Ġm o
ĠS ollte
Ġb auen
Ġl egen
ĠB rau
ĠK erzen
ĠH Ã¼llen
ĠM utter
ĠT rin
Ġso wohl
Ġer ne
ĠSch on
ĠSch rift
Ġver bogen
Ã¤t ter
br ing
Ã¼h le
Ġpro dukt
riff t
Ġnie dlich
ĠAu ÃŁen
Ġbrei t
schn eiden
bÃ¼r ste
ĠRech nung
ĠglÃ¼ck lich
1 0
h ose
k ann
w ind
ei ls
st ru
Ġm ax
kt ion
ĠM ess
ĠE t
ĠE cht
Ġauf gefallen
ĠKl eider
art ig
ma ÃŁen
ĠPl us
Ġgest altet
ipp en
ĠCo ver
Ġfehl te
ĠstÃ¤r ker
ĠThem a
ĠDV D
k am
k lasse
u i
ĠS u
Ġh Ã¶rt
Ġk usch
Ġl ieferung
ĠF Ã¼ll
ĠM Ã¼tze
ĠE del
rei ch
ĠSch irm
Ġst abile
ĠgroÃŁ es
Ã¶ff net
ĠMag nete
erk ette
Ġpass ieren
rÃ¤n k
Ġdun k
SchÃ¶n er
ĠBeweg ung
fÃ¤h ig
v t
Ġso bald
ief el
Ġgen ial
geb rau
Ġdr Ã¼ckt
ĠnÃ¤ch ste
ĠVort eil
ĠHÃ¤nd ler
H Ã¤lt
g f
k issen
ĠS ystem
Ġk auf
Ġk aufe
ĠP ad
at ch
sch rauben
ĠH aben
ĠM uster
Ġman chen
Ġr uh
om e
ot t
lÃ¤ sst
Ġ: (
aum en
itz er
Ġste cken
ĠBÃ¼r o
Toll er
Ġwes halb
ĠÃĸff nen
ĠSteckd ose
Ġdrau ÃŁen
g ut
r y
en ne
at tet
et ail
sch nitt
Ġl ohnt
Ġl ustig
was ser
Ġst immen
Ġst inkt
um pf
Die ser
mal s
Ġsp Ã¼r
Ġlang leb
ĠKinder n
ĠHa ptik
Ġirgendw ann
ĠFerns eher
G en
h irt
r ing
s Ã¤tze
v est
es se
Ġn ot
ĠS ens
ĠB auch
Ġgut em
ĠF inde
ge fÃ¼hl
cht ung
Ġbe urt
isch es
Ġe w
ĠGesch irr
ĠGanz en
Ġhell er
Ġerk annt
ĠÃĸff nung
wÃ¼r dig
h men
i ste
m achen
n Ã¤
z ess
Ġ qualitÃ¤t
Ġs ke
Ġw eder
Ġm indestens
ĠS ei
ro p
ro ffen
ĠW en
ss ache
Ġall zu
ĠAn bie
ol gt
Ġwei cher
ap pe
Ġgel aden
br acht
Ġhochwert iger
Ġverb esser
ĠðŁĺ Ĭ
Ġteur er
ĠPower bank
ĠFir ma
k un
u lt
Ġd anke
st reifen
Ã¼ se
ĠD inge
ĠG Ã¼nstig
ĠE is
Ġver rut
ra hmen
ĠÃ¼ber t
Ġper fekte
Ġ: -
aff en
Ġverb inden
Ġho hen
eto ur
Ġverm utlich
ĠSh irt
ĠEmpf ang
Ġkeiner lei
Na ja
ĠKost Ã¼m
Ġske ptisch
kun ft
g r
w elt
w eder
ch ern
Ġk ennt
ĠB itte
ĠF uss
ĠH o
Ġge Ã¶ffnet
Ġt au
ĠSt ein
ĠSt Ã¤nder
Ġ1 8
Ġweiter en
ĠRe klam
ĠlÃ¤nger e
ĠVerb esser
Ġmitgel iefert
pd ate
utr al
V on
h ang
h aben
w ort
z z
Ġw itz
ĠS and
ĠF al
Ġan zusehen
ĠR olle
isch t
Ġvor sichtig
ĠJ eder
ri me
ĠNach dem
Ġlang weilig
bo ok
Ġle ben
Ġro t
Ġrut schen
War e
ĠKlei dung
Ġbek am
zus etzen
---- ----
ðŁı »
ĠSchei be
Ġsicht bar
ICH T
bring ung
a wei
c re
k arte
n ehm
s ie
w or
st eht
ĠP ost
ĠB alk
ĠL o
ĠL ediglich
ĠH Ã¶r
ĠT Ã¼cher
ĠSch ne
ĠN ett
ĠSt unde
om eter
Ġweiter hin
tlich e
ĠSchu b
ĠWar um
ĠVers uch
ĠBesch Ã¤
ĠdÃ¼n ner
Ġgleich zeitig
Ġerf order
Ã¤hr t
Ġempf ohlen
ĠHa mmer
ĠWÃ¤ re
Ã¤ck chen
ĠPerson en
leistungs verhÃ¤ltnis
Z u
w ischen
ĠS e
ĠS ender
Ġl ief
ĠF eucht
ĠW etter
Ġge arbeitet
Ġver arbeiten
Ġman che
ĠSt reifen
Ġzufrieden stellend
ĠC ontroller
Ġgek lebt
ĠEn gl
bau m
Ġzus Ã¤tz
Ġgar nicht
ul d
ĠKÃ¼ chen
Ġbrei ter
ĠWohn ung
Ġmangel haft
5 0
f tet
p ad
u ert
er ell
Ġm orgen
Ġl inks
ĠM ilch
ĠT asse
ste cker
ĠV oll
Ġwar ten
ĠRe cht
Ġho he
Ġhal ben
Ġschn eiden
ĠErfahr ung
ĠBesonder s
ischend urch
t s
eh n
Ġf lex
ach tet
ĠM und
Ġver d
re kt
mmer n
sp ar
Ġlei chten
Ġsp r
Ġwo bei
Ġges am
Ġgeh olt
Ġkompl iziert
ĠGew inde
ĠEnt tÃ¤u
ĠMot iv
ĠGroÃŁ en
ĠFinger ab
Ġaufzu bauen
ĠDr eh
zeich net
ĠfÃ¼n f
p rodukt
Ġzu recht
ck nen
Ġsch Ã¼tzen
Ġl angen
ĠL ust
ĠT uch
or n
ĠW o
ol d
ĠQ ualitativ
Ġpas ste
ĠSp eicher
ver schlÃ¼sse
Ġger ing
ĠlÃ¤ dt
ass ung
Ġdar um
ess ert
stand s
ĠMin i
Ġgest Ã¶rt
ĠBox en
Ġgl att
Ġschwar zen
Ġangeb oten
Ġintens iv
k Ã¼n
s elt
eh lt
ĠD ienst
sch nit
ĠF Ã¤llt
ĠL in
ĠM ak
hr en
uf en
bl asen
Ġunter en
ĠEn kel
ĠLe uchte
Ġkon nten
Ġeinz eln
Ġempf inde
Ġfl ach
ĠSchrau be
. )
d acht
i kt
i ft
s inn
u he
v e
er ung
ei det
Ġm m
ĠG urt
ĠB rot
Ġer le
ĠSch lei
sen den
Ġst eif
ick e
fÃ¼ g
ĠSo hle
ech n
ĠPart y
Ġakzept abel
Ġglau be
Ġbeurt eilen
d y
en de
ie s
Ã¼ ften
Ġh elfen
ĠE igen
Ġauf laden
rau bt
all es
ĠAb deckung
rÃ¤ glich
kk u
Ġjeden falls
ĠVor g
dr eht
wen den
halt ung
ĠBett wÃ¤sche
ĠAnz eige
ĠBeh Ã¤lter
m us
Ġd iver
Ġun praktisch
Ġf il
it ten
ĠG et
ĠL ack
ĠE x
ĠW ack
Ġver h
Ġbe wegen
Ġj Ã¤hr
ĠHandy s
Ġrecht s
ĠdÃ¼n ne
ĠRei ch
ĠPunkt abzug
gem ein
Ġsol che
ĠDurch messer
ĠKat ze
ĠKom p
ĠSoft ware
vt l
Ġew ig
ĠBalk on
k ocher
m er
ei sen
Ġh off
it or
Ġzu erst
em men
ĠG em
ĠB Ã¤
ĠF lie
ĠF rage
Ġer setzt
ss p
ĠI P
Ġt ransport
Ġst Ã¶ren
ĠPro gramm
Ġ1 6
Ġsp Ã¤t
Ġwo durch
Ġangenehm er
Ġgeh Ã¶rt
Ġbill iger
Ġwel cher
Ġ6 0
ĠWie der
Ġgl Ã¤n
ĠKlein er
fahr en
gÃ¤n gig
ĠVide o
ĠFitn ess
L AN
Ã ľ
Ġb richt
ĠP a
Ġge waschen
eit ig
pf t
am e
war z
ĠSo weit
ĠAus fÃ¼hrung
ĠweiÃŁ e
geh alten
ĠgewÃ¶hn t
Ġehr lich
ĠHu awei
ĠReklam ation
i f
s ache
an ken
Ġn Ã¶tig
ĠW a
ĠW eile
Ġge stellt
lei chen
Ġent scheiden
Ġzwei mal
ĠEn dlich
Ã¶ff el
Ġhalt bar
ĠFÃ¤ den
ĠauÃŁ erdem
S hirt
b ungs
m o
Ã¼ gend
Ġb ald
icht et
te te
al ax
ĠD aumen
au ern
Ġl es
ĠB rei
Ġan schlieÃŁen
or d
or ben
il der
ĠSt eine
re ch
la de
ĠEr wachsen
Ġander er
ri llen
ast er
ĠLicht erkette
Ġdeut sche
Ġverb aut
ĠPf l
Ġ8 0
ĠMar ken
ĠKu geln
halter ung
fil m
zÃ¼ ge
ĠVentil ator
ĠFle cken
ĠHandgel enk
Ġsonder lich
ĠFeucht igkeit
alax y
P er
d igen
h eits
z um
Ġb o
Ġf air
ĠD osen
ĠB et
ĠF a
ĠW ahl
ĠR ollen
Ã¤n de
ĠProdukt en
Ġ1 4
Ġ2 4
Ġgesch enkt
ĠFil me
ĠTe xt
Ġerk ennt
ĠKan ne
Ġletz te
ĠStand ard
Ġel eg
Ġmehrmal s
ĠdÃ¼r fte
ĠGerÃ¤u sch
ĠVari ante
Ġnutz bar
A us
b indung
Ġ eh
Ġa chten
sch rift
ĠF rei
ĠH ob
Ġan ziehen
Ġge bracht
ĠR ob
ra m
om p
ĠAb st
Ġgel egen
Ġdurch sichtig
ĠAnfang s
ĠLiefer umfang
ĠFrau en
ĠAng st
ĠSteckd osen
wech sel
ĠFig uren
Ġinstall ieren
ĠTrain ing
ĠEinst eiger
k ant
u en
Ġs im
Ġs agt
Ġg reifen
Ġm inder
Ġein gestellt
ĠD aten
ĠD etail
ĠP r
ĠB lasen
ĠK ur
ĠF ast
Ġer hÃ¤lt
and t
oll ten
anz eige
ĠBild qualitÃ¤t
ĠRei sen
ĠgrÃ¶ÃŁer en
ĠLie gt
Ġho len
ĠTon qualitÃ¤t
Ġfre ue
Ġschlie ÃŁt
ĠGerÃ¤u sche
ĠnÃ¤ mlich
Ġregel mÃ¤ÃŁig
ĠSpÃ¼l maschine
ĠWÃ¤r me
ĠnÃ¼tz lich
r asch
st ahl
in nen
ĠP assen
Ã¶ p
ĠG rÃ¶sse
ĠB H
ĠE her
ĠI hn
ĠPreis leistung
Ġall ein
Ġsein er
gel aden
Ġgesch mack
Ġverb unden
ĠÃ¤hn liches
ĠKu gel
ĠStabil itÃ¤t
ĠSicher heit
Ġwasser dicht
ĠReich weite
e lle
f ol
Ã¼ tlich
ĠA ust
ĠP osition
el s
Ġl eistung
ĠG alaxy
ĠF euer
ĠL aufen
ĠH au
ion s
ĠSt iefel
ĠProdukt beschreibung
wer te
ĠzurÃ¼ck schicken
richt en
ingen d
ĠVor sicht
Ġeben so
ĠArb eits
gehen d
ĠGegen satz
ĠFamil ie
Ġautom atisch
ĠTrin k
cre en
P ro
f a
k aufen
l ose
m aterial
z uf
ĠS a
Ã¤ be
Ġk ostet
ĠP rime
ĠG eist
ĠB Ã¼
lich keit
Ã¤t igen
ĠHand lung
ĠIn form
Ġangenehm es
Ġkom isch
ĠTag es
oo le
ĠBr ust
wind igkeit
A b
K am
m p
ie ÃŁen
Ġg rÃ¶
Ġk enne
te uert
at um
ĠF eder
ĠH ig
ĠH off
ĠPreis es
ĠZ Ã¤
ĠKl ing
ast eln
Ġgesch afft
deck e
ĠgÃ¼nst ige
ĠTabl etten
ĠÃ¤hn lich
Ġex akt
Ġdopp elt
Ġtrin ken
ĠEle kt
gebrau ch
G esch
b etrieb
s atzt
t isch
Ġm ann
Ã¼ gen
ĠS k
Ġk rie
Ġv olle
Ġl ose
ĠB Ã¤nder
ĠM acken
ĠW Ã¼r
ĠW LAN
ĠV om
Ġaus get
Ġr au
Ġall er
Ġwei ÃŁen
rÃ¤ z
Ġfest er
ĠRei he
ĠHer z
ĠPass genau
ĠGes amt
ko sten
Ġel ekt
ĠVide os
Un ser
ret en
ĠhÃ¤uf ig
ĠSchwÃ¤ chen
ĠMaÃŁ e
ĠEngl isch
ĠVorg Ã¤nger
? !
A ber
c o
k ontakt
Ġd u
Ġn ass
ehr t
ĠM Ã¶
ĠW itz
Ġver geben
Ġaus packen
ra y
hn ung
ger Ã¤u
ĠSp ass
ĠHand tasche
ĠGe st
ĠDa zu
Ġher unter
Ġerst aun
ĠLe uchten
lo ss
ob il
Ġschm ecken
ĠAuss par
id s
vent uell
ĠSchle chte
ĠKritik punkt
Ġschla fen
ĠAnbie ter
d ose
s and
ie gen
Ġm eist
Ġk g
on es
Ġf ind
Ġsch rei
sch w
Ġda hin
ra v
ra ht
ĠZ immer
ĠPro f
Ġgel iefer
.... ..
Ġeinz ig
Ġvers uchen
ĠX L
spr ach
ĠHoch zeit
Ġbez ahlt
Ġkor rekt
S T
b um
i den
j Ã¤hr
m ent
n d
t ag
ig keiten
Ġzu vor
ĠP rinzip
ĠF unk
ĠT echn
ĠSch aum
Ġver schl
il ber
Ġst yl
ĠAn schlÃ¼sse
ĠAn bringung
ĠC l
Ġbesser en
Ġgesch m
lie b
ĠDe fekt
Ġzw ischendurch
Ġausge packt
ĠVie le
ĠRie cht
ĠBall ons
bin ation
ĠHel m
ĠChar akt
Ġerne ut
F unktion
a ger
d o
d ienst
g ossen
z ahl
un t
ein bar
ĠS al
ĠA kt
em mt
ĠF ans
ĠL it
ge geben
ĠW ech
ĠSch ere
ik er
bt isch
ĠBei spiel
ĠSchu l
dr Ã¼cken
Ġnut zt
Ġnochmal s
ĠFl ug
Ġor dnung
ĠgewÃ¼n sch
ĠMagnet en
ĠtÃ¤glich en
ĠKlebe band
Ġkomp at
statt ung
ĠPat ronen
G rundsÃ¤tzlich
b chen
e y
f r
f arbe
l aufen
¸ ı
ï ¸ı
Ġ â
ĠS w
ĠS Ã¼ÃŁ
ĠB art
ĠB illig
ĠL og
ĠSch au
ĠSch rit
Ã¶r se
Ġgef ehlt
Ġre par
ges sen
Ġte chn
ĠMon itor
ĠmÃ¶ gen
Ġpassen de
ĠVor der
ech an
Ġverl ieren
schein end
ĠOb wohl
Ġfr isch
ĠPol ster
ĠkrÃ¤ ftig
ĠLebens dauer
Ġbewer ten
ĠPull over
ĠWa age
" ,
H aben
Z um
i lle
s eh
w Ã¤r
Ġs ehe
Ġm ach
Ġm Ã¤ÃŁ
ĠB eine
ĠK och
ĠF ing
rei ber
ĠW elt
ĠN ICHT
ĠPreis klasse
Ġschwer er
ic ro
dr ehen
Ġrut sch
ĠPf anne
ĠMet er
ĠSchm uck
ĠAng aben
ĠBed arf
Ġfall s
ĠEdel stahl
Ġlangleb ig
b esonder
e zie
Ġ %
en ke
Ġg rundsÃ¤tzlich
Ġm ass
ig ar
ĠP ool
ĠP ulver
Ġsch einen
sch rau
ĠG rÃ¼n
ĠK Ã¤
ĠH em
ĠH Ã¼bsch
ĠE ben
ĠT r
ĠT itel
Ġan kam
ann ten
ste ck
Ġaus geben
ĠR und
is st
ĠSt re
ĠSt urz
Ġe vtl
ap e
ĠLeistung s
Ã¼h len
rÃ¤ cht
ĠWir kt
zie h
Ġle gt
halt sam
Ġpreis wert
ĠLie be
ĠKon s
ow s
ðŁı ¼
ĠHei z
ĠGed uld
ĠKÃ¼hl schrank
ĠHandt uch
fre und
ĠRÃ¤ der
Ġries ig
T ut
ĠS c
ĠS eit
Ġb lÃ¶
Ġk auft
Ġsch ar
ĠL ecker
ĠT ier
Ġan geht
ĠN ormal
Ġab gesch
ĠU pdate
be cher
ĠJ a
eil ung
ri p
pp ort
ĠNa gel
stÃ¤n de
ĠÃľ bung
aÃŁ t
ĠGebrauch s
Ġget an
lÃ¶ sung
Nach dem
setz bar
Ġprob ieren
Ġsinn voll
M I
f o
Ġun z
ĠP last
ĠB ack
ĠL esen
ĠT rÃ¤ger
Ġaus zusetzen
ĠR om
ĠPreis leistungsverhÃ¤ltnis
ĠZ ucker
ĠSt au
ĠSp ielen
ĠBe quem
ĠAb wicklung
Ġgel egt
schl uÃŁ
ĠlÃ¤nger em
Ġrei chen
ĠLie bl
ĠBÃ¼r sten
Ġversch m
Ġgeb aut
Ġkur zen
mÃ¶glich keiten
ĠUnser e
ĠFig ur
Ġzweit es
ĠErf olg
spar end
K abel
V or
f ig
n och
s uper
s icher
ei tet
st es
Ġm er
in o
Ġun schÃ¶n
Ã¤ den
icht ige
sch nell
Ġl ala
ĠG ibt
ĠB es
ĠB ir
ĠL ad
ĠM Ã¼n
ĠE i
ĠT ief
Ġan genommen
Ġin d
Ġbei ge
ra in
ĠZ oll
Ã¤n glich
om ben
wei sen
Ġe uch
ĠEr satzt
Ġ2 5
ĠGer ade
ĠJ ob
Ġre st
Ġschle chten
Ġfest gestellt
Ġrei bungs
ĠIde al
rat zen
ĠÃ¼berzeu gend
ahn sinn
Ġabge zogen
ĠHin weis
isten z
ĠKlett verschluss
ĠFing ern
3 0
e kte
s Ã¤chlich
t rag
Ġ eignet
ie ls
Ġg r
as er
Ġein deut
sch alt
ĠE xt
ĠW h
Ġin te
Ġbe an
le ch
ĠN ad
ĠSt ange
all em
ĠAb stand
ĠAuf grund
Ġde kor
Ġeigen en
ĠLicht er
Ġbrau chen
Ġpraktisch e
wo hn
Ġdeut sch
ĠAut os
Ġhei ÃŁt
!!!! !!!!
nah men
ĠRo ck
Ġeiniger maÃŁen
ĠStuf en
gesp rochen
Ġzerk ratzt
b rille
w enn
Ġn ich
ĠA chtung
ĠD em
Ġsch afft
ĠK ont
ĠW inkel
Ġge pol
Ġauf bauen
Ġauf tragen
Ġt r
ĠN ie
ĠR es
Ã¤n g
ĠÃ¼ber teuert
uck t
bl ick
Ġent weder
ĠOr g
Ġgesch lossen
inder n
Ġange zeigt
Ġange gossen
Ġihn en
Ġkomm e
Ġerst er
Ġpro m
ĠWasser kocher
kl ein
ĠGeschmack ssache
Ġdick e
ĠSchw ierig
ĠLie ber
ĠAd vent
rÃ¤n ke
ĠSchm utz
Ġaufge geben
lex a
ĠSchrei btisch
ĠkrÃ¤ ft
jekt iv
Ġchem isch
Ġkusch elig
ĠSens or
ĠAust ausch
. ,
b es
m ann
o d
y n
ein druck
Ġund icht
Ġk ratz
ĠD ro
ĠF el
ĠL enk
ĠT opf
de cken
Ġver arbei
Ġaus gefallen
le ben
ĠR ot
is mus
Ġ1 1
ĠSp iele
Ġbeste lle
Ġsp itze
uer ung
zie ht
dr Ã¼cke
Ã¼b sche
Ġerf olgt
Ġfl Ã¼ssig
ĠGriff e
ĠkÃ¼r zer
ct ion
Ġmittel mÃ¤ÃŁig
ĠfÃ¼hr t
Ġ:- (
c c
e e
f ri
g ute
p unkte
Ġun mÃ¶glich
Ġk alte
Ġf roh
ĠD an
ĠG Ã¤
ĠH itze
ĠH ome
ĠM usste
ĠM ega
ĠM oment
ĠE ier
ĠSch ok
Ġt yp
Ġda gegen
Ġkl ob
Ġst ren
um p
ĠAn bringen
lei ter
Ġe chte
ĠJ og
ast rop
bo den
fÃ¼hr t
ĠWind ows
spiel er
ĠSchnell er
ĠTouch s
ĠAnt wort
Ġkompat ibel
ĠKons istenz
b lich
h ei
s eits
er nen
ie gt
st ert
as y
Ġm Ã¼h
ĠS ehen
Ã¤ ss
Ġein gesetzt
Ġk Ã¼nst
Ġf lau
Ġzu hause
ĠD rei
sch a
ur e
ur m
ro st
ĠM el
Ġr eg
um pen
ien e
Ġwen ige
est er
Ġdar unter
Ġange f
ĠGeld beutel
asch inen
ĠSchl uss
Ġrob u
ĠPu zz
ĠSau ger
ĠTro pfen
ĠSchlaf zimmer
ĠWasch maschine
hil fe
ĠMinus punkt
Ġgesam te
Ã¶p sel
Ġinte gr
E nt
H L
b Ã¶rse
c a
k arten
v ert
ie bt
an ce
ĠS end
Ġun besch
Ġb rechen
Ġh aupt
Ġf umm
ĠA hnung
ĠI r
Ġt o
ĠV ert
le fon
ĠN ase
ĠR inge
ĠSt ar
arb eit
ĠÃ¼ber ein
ĠÃ¼ber standen
Ġsein em
ĠGe fÃ¤llt
Ġsp ezie
Ġdr Ã¼ber
Ġunter st
Ġkurz em
ĠUhr en
umm i
ĠlÃ¤nger en
ĠÃľber rasch
Ġwert igen
Ġirgend wo
ĠFl op
ĠLED s
ĠhÃ¶ ch
ĠHaus halt
ĠFr ont
schei be
ĠSchei ben
ĠTherm ometer
Ġkinder leicht
Gen au
ĠPlast ikt
H Ã¼lle
Ġg riff
Ġw ollten
Ġb lo
on d
ĠA bl
ĠD abei
ĠM ich
ĠM icro
ĠT or
Ġbei liegen
ra ut
war ten
Ġum ge
Ġger Ã¤t
ĠBe an
ri m
Ġangenehm e
ess o
ess ion
ĠgrÃ¶ÃŁ e
ĠBesch ichtung
ĠMein er
Ġhochwert ige
ant ie
ĠNa v
Ã¼b el
Ġnormal erweise
app en
eint rÃ¤cht
iz z
inn t
Ġangegeben en
fel d
mel der
ĠGerÃ¤ ten
Ġbew egt
So weit
ĠStr and
Ġstar ke
ĠSaug leistung
Ġersch eint
ĠHinter grund
ĠBeschÃ¤ dig
p rÃ¼
r t
Ġ Ã¤ndern
Ġs etzen
Ġs terne
un kel
Ġein schalten
ber n
ĠF er
ur s
ĠH alten
ro cknet
Ġin vest
Ġver gessen
Ġaus ger
ĠR Ã¤nder
am a
ĠAn d
ĠAn ten
Ġab gefallen
ik ation
wei ls
Ġe chter
Ġvor gesehen
Ġent gegen
wer en
ĠBuch st
Ġvoll er
Ġeigen e
ĠðŁ ĳ
Ġkleiner en
Ġverb essert
Wir klich
bei tet
Ġverwend bar
Ġfre uen
ĠMot ive
ĠSol ar
Ġunterschiedlich e
lauf zeit
ĠTipp s
ĠTÃ¼ te
ĠMÃ¤ dchen
Ġzerb rochen
Ġung laub
ĠHob by
ĠAbst rich
Ġreibungs los
A uch
f utter
m ach
z iert
ĠS D
Ġau st
Ã¶ s
Ã¼r e
ĠB lau
ĠK er
ĠK osten
ĠE d
ĠV ibr
Ġr an
ĠR ut
pf er
ĠEr n
Ġdies mal
ĠAll em
ĠlÃ¤ ÃŁt
Ġdr ingend
Ġje weils
Ġsel ben
ĠSchu lter
ĠMit t
Ġgem Ã¼tlich
Ġhand haben
Ġeng l
Ver arbeitung
ĠÃ¼berzeu gen
ĠHÃ¤n den
Ġscharf kant
sie he
ĠZÃ¤ hne
! )
A m
B ook
W under
h aus
i fte
l i
u ff
an ter
Ġb ele
Ġein setzbar
Ġz unÃ¤chst
Ġf ol
Ġf Ã¤ngt
ig ungs
it ch
ĠD opp
Ġsch altet
el kontakt
ur te
ĠE ing
or gt
ĠR ichtung
am pen
wei ter
ĠSp itzen
Ã¶r ter
Ġger aten
ĠC ool
ĠAb solute
Ġ3 6
Ġerwar te
Sch ade
brau cht
ess el
Ġber ichten
Ġhochwert iges
ĠAkku laufzeit
ĠFunktion alitÃ¤t
hÃ¶r en
An sich
ĠOber teil
ĠGrund sÃ¤tzlich
ĠGroÃŁ e
Ġmei stens
Ġblau e
Ġverf Ã¤rbt
ĠÃ¶fter s
Ġstar ken
Ġakt iv
schm erzen
ĠTa ste
Ġnot wendig
Ġwitz ig
Ġflex ibel
ĠStau raum
Ġeindeut ig
scha ften
h Ã¶
h aar
l ine
o ut
z ig
ei d
Ġs ilber
Ġb raun
Ġh ielt
ĠA lexa
ĠK aufen
ĠF ell
ĠH offe
ĠM ass
ĠM ark
Ġin kl
Ġauf s
Ġt rau
is iert
Ġwei che
ĠEin stellungen
Ġe ventuell
ahr e
Ġgen erell
Ġre klam
ĠKl em
Ġange kÃ¼n
ĠGeld bÃ¶rse
ha fte
ĠAu ge
Ġna he
Ġschmal e
Ġschn eidet
rot t
Ã¼nst iger
ĠBaum arkt
pro blem
Ġober en
ĠÃ¤uÃŁ erst
ĠvernÃ¼n ftig
ĠerwÃ¤hn t
ĠBrei te
ĠblÃ¶ d
E n
f arben
g urt
h ol
i i
i du
m ig
o llt
er z
en ken
Ġs enden
ie g
un ehmen
Ġm ache
Ã¤ te
sch alter
ĠL i
Ġan schauen
ĠSch warz
ĠR isse
ĠSt aff
ent sprechend
iv idu
Ġ1 3
Ġeinfach en
bl att
Ġgel aufen
ĠAuf laden
Ġgew Ã¤hlt
inder t
pl atten
Ġges endet
egen heit
ĠWar m
tel n
Ġschw ier
etz ten
ign al
ĠUm welt
ip pt
Ġne utral
Ġar beitet
id es
Ġpositiv en
ĠAl bum
ĠStick er
ĠWohn zimmer
Ġakt uell
ĠRas ierer
Ġbestell te
stru ktion
Ġmax imal
Ġruh ig
ĠglÃ¤n zen
ĠHig hl
ĠLit er
besonder e
I E
in ke
Ġn ette
Ġk ontakt
Ã¼r ze
Ġl uft
ĠB und
ĠK ids
ir gend
ĠW agen
Ġge brauch
Ġauf geh
ĠN atur
ed u
ĠProdukt es
Ġeinfach es
ag s
ort s
Ġfeh ler
ĠðŁ ¤
ĠNacht rag
Ver packung
deck el
ĠPf lege
ĠbenÃ¶t ige
achten s
Ġoriginal en
Ġbef indet
Schnell er
ĠWeihnachts geschenk
ĠVerbesser ung
Ġerle digt
Ġgepol stert
Ġklob ig
E I
o ÃŁen
en te
ie ÃŁ
Ġw eh
ar n
al so
ĠD ach
ĠSch wer
Ġmit nehmen
Ġaus gesch
ĠN erv
rie dig
ĠEin kauf
lei sch
ĠÃ¼ber legen
sp Ã¼
ick el
fÃ¼ ll
ĠJ o
Ġent sp
br ett
Ã¤h len
Ġausrei chen
ĠUm t
ĠKn ie
Ġbesonder es
Ġsol iden
ĠKom bination
erg ie
Ġsowie so
ĠLei chte
amp oo
ĠvernÃ¼n ft
ĠSu pport
ĠRob ust
ĠWech sel
K eine
s al
z weck
Ń Ĳ
ĠA ir
ĠD inger
ĠP e
sch lei
ĠH al
ĠE ssen
ĠW urde
Ġge fÃ¼hlt
Ġin zwischen
Ġver stellen
Ġauf hÃ¤ngen
ĠZ wischen
ier end
Ã¤n d
ĠEin ige
Ġklein em
Ġvor stellen
Ġger echt
Ġbis lang
ĠGesch ichten
Ġdr unter
Ġbesch weren
ast isch
Ã¼ss igkeit
Ġbill ige
Ġste llt
Ġro sa
Ġdrin nen
ĠMa ke
ĠÃ¶ff net
ĠKlebe streifen
Ġeingesch rÃ¤nkt
ĠPlay er
kla ppen
Ġverrut scht
ĠFal sche
ĠSchne e
Ġmorgen s
Per fekt
ĠTouchs creen
Ġhaupt sÃ¤chlich
W Ã¼rde
g n
ie mlich
Ã¼ che
ĠB ein
ĠF Ã¼
ĠF ragen
ĠM isch
ĠE ltern
ĠT eller
Ġan statt
Ġin form
Ġver w
ĠR Ã¤um
is k
Ġent sprach
Ġleicht es
Ġdr eht
Ġgibt s
Ġweiter es
ĠRe akt
Ġsel be
Ġunter haltsam
ðŁ ĺ
ĠMan chmal
ĠdÃ¼n nen
ĠPl atte
hÃ¶r ern
rÃ¼ m
Ġlaut er
Ġfunktion al
Ġbem erkt
ĠDam en
Einfach e
Ġbew usst
gÃ¤n zung
Ġdauer haft
ĠMikro fon
Ġrund um
ĠErfahr ungen
ĠDeut sch
Ġverg leichen
ĠDu sche
ĠJeder zeit
Ãľ ber
Ġausget auscht
gerÃ¤u sche
riedig end
ĠUmt ausch
B eim
b eln
b Ã¼gel
j e
p umpe
Ã¼ te
Ġn ah
ar e
ĠD i
Ġsch einbar
ĠL ange
ro id
ĠT imer
ĠW or
Ġp rÃ¤z
Ġauf geladen
ĠN acken
ĠAn wend
Ġab nehmen
wei sung
ang abe
Ġent hÃ¤lt
Ã¤r ben
Ġdurch dacht
pp chen
ĠRe zess
.... ....
ĠDisplay s
app y
ĠSchw ach
ĠLade station
Ġrut schig
prob ieren
Ġho her
Ã¼nkt liche
ĠNummer n
ĠMar kt
mel dung
Ġeinzel ne
unk eln
Ġ201 8
Kl ein
Ġvergleich bar
ĠzusÃ¤tz liche
ĠWack elkontakt
Ġeleg ant
: )
O N
h eiten
i ÃŁ
o u
o ss
ch lich
Ġa bend
ein fach
Ġg ingen
as i
Ġein get
Ġf uss
ĠA qu
ĠD icht
at ik
Ã¼r zt
el te
Ġl anger
ro llen
ĠM au
ĠW att
ĠW atch
Ġge bl
Ġge pl
Ġge zogen
Ġbe eintrÃ¤cht
ĠR iss
ĠZ ahlen
is ieren
ĠAn lage
ĠEr achtens
gel d
gel aufen
wer ter
Ġde zent
Ġben utz
Ġdar gestellt
stÃ¤n d
bo ard
ĠUnter seite
ĠUnter haltung
Ġen orm
ĠHaar en
Ġnormal er
Ġgest ern
ĠArb eiten
Ġtro cknen
hand lich
Ġans ich
ho len
kn opf
ĠGar antie
sk alender
ĠHD MI
Ġse par
stra hl
rÃ¤nk ungen
stands los
schnit tlich
ĠFlie sen
ĠmÃ¤ÃŁ ig
ĠGÃ¤ ste
A B
M aterial
O b
b is
m Ã¶
o te
r and
er klÃ¤r
Ġg rob
ĠS amm
Ġun genau
ck ner
ĠP or
ĠP hil
ĠP izz
Ġsch lÃ¤
sch ung
ĠF ort
ĠT ats
ĠT eilen
Ġan scheinend
Ġver urs
Ġr Ã¼ck
Ġgen Ã¼gend
Ġgel ohnt
ĠAuf wand
Ġsp iel
ruck t
Ġerst attet
ĠRei fen
ĠWei ÃŁ
Ġbeh alte
ist isch
Ġerk enn
ren z
ĠErwart ung
Ġfal schen
Ġtro cknet
lÃ¶ sen
Ġfr Ã¼h
fl uss
Ġbez ahlen
ĠBeweg ungs
kor b
ieb ig
ĠKor b
ĠAnder e
ĠAufbewahr ungs
ĠEt ui
Ġerforder lich
Ġgelegen tlich
ĠInform ationen
ĠMÃ¶ bel
ĠTechn ik
omben fest
ĠAnd roid
ĠBuchst aben
U N
h at
m as
Ġs et
Ġa t
ein satz
Ġw in
ĠS zen
ĠS Ã¤ge
Ã¤ digt
Ġein gerissen
Ġf Ã¤hrt
ĠD ir
Ġl ernen
Ġge fÃ¼llt
Ġge drÃ¼ckt
Ġer he
Ġp r
ra de
ĠZ iff
am in
ĠO ut
Ġab solute
war tet
Ġe ffekt
Ġdes sen
Ã¤r ter
ĠGesch windigkeit
Ġsp aren
ĠBuch es
Ġwenig stens
schie ben
ĠBl Ã¤tter
Ġbrau ch
umm el
Ġabsolut er
Ġ20 0
gem acht
teil ung
ĠMÃ¤n ner
wick elt
Ġbek annt
?? ?
arm band
ĠHÃ¶ hen
ĠSol ide
ĠTemperatur en
Ġunterschiedlich en
schei dung
di ent
ĠBeg inn
fil ter
ĠSchle cht
bÃ¼r sten
Ġinstall iert
ode ll
ph ones
ĠMÃ¼ he
Ġdunk ler
ĠPad s
ĠLo cken
Ġhoff entlich
Ġtransport ieren
Ġerstaun lich
Ġind ividu
ĠSchwierig keiten
Ġflau schig
H and
P D
P S
X L
e llen
f ertigt
g reifen
l eh
n ungen
p u
t on
Ġm achte
Ã¤ mm
Ġb lieb
Ġein setzen
Ġein stellbar
Ġzu ges
sch au
Ġl iefer
ĠF ett
ĠT re
ĠW ichtig
Ġer z
Ã¤t t
Ġbe weg
Ġbe denken
ĠSt ativ
ĠAn gel
Ġwei ss
ĠHand schuh
ĠC an
Ġ3 8
br uch
ĠZu kunft
hÃ¤lt n
ĠwÃ¤ hlen
Ġte uren
ĠBl ut
Ġrei ÃŁt
ĠÃľber gang
ĠFl Ã¼ssigkeit
Ġausge st
Ġausge zeichnet
Ġerh Ã¶
ĠMÃ¤n geln
ĠSpr ache
ĠGr unde
Ġfehl ten
Ġqu iet
ĠNÃ¤ gel
ĠHosen tasche
Ġsau gt
ĠEinsch rÃ¤nkungen
ĠTer r
schlieÃŁ end
Ġunn Ã¶tig
ĠBÃ¤ lle
Gesch mack
ĠAdvent skalender
ĠÃľberrasch ung
B o
E IN
N ur
S et
V iel
k Ã¶
l ig
p apier
s ieht
Ġs amm
in ner
Ġun handlich
Ġf iel
ĠP h
ĠP Ã¤ckchen
ĠG raf
ĠH Ã¼
ĠM ix
Ġan st
rei chen
Ġauf get
ĠV it
Ġaus schalten
Ġbe achten
le uchte
ĠR ost
ra x
ĠZ ange
ĠZ igar
Ġnach be
Ġall gemein
sp rÃ¼
Ġvor allem
bl au
ĠgroÃŁ artig
ĠOr t
tz lich
lÃ¤ uft
enk te
utt on
Ġpassen den
ĠKopf hÃ¶rern
ĠVor stellungen
ha hn
im eter
Ġseit lich
ĠdÃ¼nn es
ĠWei se
ĠKn Ã¶
zeu ge
Ġordentlich e
Ġhal be
Ġ9 0
ĠDam pf
Ġmehrmal igem
ĠkÃ¼r zen
ĠBeste ck
wech s
Ġdauer te
Ġbestell ten
ĠNett es
auern d
Ġsim pel
Ġelekt r
Ġprom pt
ĠAnten ne
ĠangekÃ¼n digt
A T
F inde
J a
L Ã¤
U R
U m
s Ã¤
u le
v olle
Ġ =
Ġ on
Ġw usste
Ġn irgend
ĠS l
ĠS itzt
Ġb ein
on en
Ġf orm
ĠG old
ĠF liegen
ĠM e
ĠM ed
ĠT assen
Ġan kommt
Ġge bo
ĠSch loss
Ġver br
Ġauf t
Ġaus g
ĠN amen
Ġr etour
Ġwar me
ĠR Ã¤ndern
ier ter
ĠVer pack
am ing
is play
ger uch
ĠHand ling
gel eg
Ġvor n
Ġger ingen
Ġdr itten
ĠRe zept
ĠzurÃ¼ck senden
Ġerst es
ant wor
wie sen
ĠÃľ bungen
Ġbill igen
Ġhinter lÃ¤sst
Ġbet rifft
ĠSil ber
ĠÃ¼br igen
ĠGeburtstag s
ĠWunder schÃ¶n
pol ster
Ġerrei cht
ĠÃ¤lter e
rein iger
Ġmo dern
Ġdiver se
ĠPfl anzen
omp uter
ĠDetail s
ĠgrÃ¶ sser
ĠHoff nung
ĠKling el
ĠPassgenau igkeit
ĠDan ach
a kte
b et
g rÃ¼n
m erk
y s
Ġm el
in s
Ã¼ ten
ĠS at
ĠS ha
Ġun auf
Ġi den
te st
au glich
at ronen
el ing
et was
ĠB ast
ĠL Ã¶ffel
ĠH eim
ĠE l
Ġan d
Ġp lÃ¶
ĠSch ale
ĠSch Ã¤den
Ġver sen
Ġmit te
Ġaus fallen
ra gt
Ġnach voll
ĠEin mal
lei d
sp ielen
Ġ1 7
Sch m
ĠEn d
Ġkom fort
ĠDisplay schutz
ĠArm bÃ¤nder
gef Ã¤hr
iz ierte
Ġbest Ã¤tigen
ide e
Ġro te
ĠFahr t
ĠKon struktion
ĠÃ¼berras chend
Ġgesp ielt
ĠZufrieden heit
ĠðŁĳį ðŁı»
Ã¼nst ige
Ġfreund lich
Ġeinzu stellen
Ger Ã¤t
ĠAufbewahr ung
ĠMak el
ĠRom an
Ġscharfkant ig
ĠTats ache
ĠGraf ik
A S
F arbe
K lasse
a ste
b ir
b esser
i llen
k g
l in
l an
un ikation
an hÃ¤nger
ĠB or
ir n
ĠW Ã¶rter
ĠSch ein
ĠSch lÃ¤
Ġt eils
Ġsie he
Ġaus fÃ¼hr
ĠPreis wert
sen sor
um in
ack t
ĠSt imm
sp ann
Ġdr um
ad et
Ġte lefon
ĠUhr zeit
Ġschick e
ran s
ĠKom fort
Ġpl us
par atur
ĠErgeb nisse
ĠAnf order
Ġjedes mal
ĠNe ben
ĠBaum w
ĠKla mmern
Ġalt es
ĠStra hler
ĠFehl kauf
ĠÃĦr mel
Ġfarb lich
Ġles bar
ĠCharakt ere
Ġstren g
astrop he
ĠkÃ¼nst lich
ĠSend ung
iÃŁ chen
Ġgebl ieben
Ġerkenn bar
P raktisch
U T
c ei
g aben
k ur
m et
m usch
m pel
o ÃŁ
z ut
Â °
Ġ .....
Ġg eil
Ġg rad
an lage
Ġn en
ĠS ignal
Ġf ett
ĠH art
ĠM orgen
ĠW Ã¼n
ĠSch Ã¤r
Ġver dient
ĠR at
gel iefert
Ġvor bei
wert ung
geb racht
Ġsp annen
Ġher gestellt
Ġgenau er
ĠArtikel beschreibung
lo gen
Ġins besondere
zeu gt
Ver sand
ĠGl Ã¼h
ĠKlein k
ĠFahr zeug
ĠSchn Ã¼r
flÃ¤ chen
ĠsÃ¼ÃŁ e
ĠMa il
00 0
Ġpositiv e
ĠMode lle
iegel t
Ġdan eben
Ġvert eilt
ĠDar um
ĠLeucht kraft
ĠTÃ¼ ten
Ġunbe quem
Ġausgel aufen
Ġverbesser ungs
nehm bar
ĠFingerab druck
ssp uren
Ġinvest ieren
ĠMitt lerweile
ĠHighl ight
ĠbeeintrÃ¤cht igt
cei ver
9 9
I T
O S
S te
m ess
r um
ie ber
un ken
Ġg ol
Ġg ucken
Ġw ann
in ten
Ġun gefÃ¤hr
ung e
ĠA ction
ber eit
ĠP S
at mig
Ġsch ieben
ĠG ing
ĠG ren
ÃŁ lich
Ġp fle
ĠSch ritt
Ã¤t zen
ĠV o
Ġr as
hr t
ĠZ elt
Ġnach ts
uf e
ik el
ĠSp ray
Ġvor der
fÃ¼ gt
Ġkein es
Ã¤r gert
Ġsp ort
son st
enk el
bst il
Ġhin gegen
ĠSchu hen
Ġpro du
ĠPl atten
ĠVersand kosten
ĠDeck en
Ġdick en
Ġbequem er
Ġste ckt
ĠEnt fern
ĠForm en
ĠRein igungs
ĠZus atz
Ġverm eiden
Ġgegen Ã¼ber
Ġober e
Ġqu asi
Ġplatz sparend
ĠLeg g
ĠLiebl ings
En dlich
H Ã¤tte
c l
f s
k eln
m arkt
Ġ ur
ch el
ie ll
un sch
Ġa lter
Ġw ider
Ġm att
Ġb asteln
Ġb ombenfest
Ġh eil
Ġk ochen
Ġk Ã¼hl
ĠD HL
ĠD Ã¼bel
ĠD unkel
au be
Ġsch rauben
ĠK lass
Ġan gesprochen
Ġes sen
Ġso oo
Ġer setzen
Ġin t
ĠSch ild
Ġver arbeitung
Ġver klebt
Ġver fÃ¼g
Ġt iefer
Ġaus geb
ĠN utz
il a
ĠVer d
Ġwei tem
wei ch
ĠÃ¼ber lebt
ick s
ĠEr gÃ¤nzung
Ġger inger
Ġger ochen
ĠC ap
Ġgef ertigt
ĠGesch ick
Ġgew issen
Ã¼h en
ĠNach bar
ĠSchu le
ĠSte mpel
ĠMaterial ien
ĠFil z
ĠWasser hahn
Ġgeh offt
ĠSon y
stÃ¤n der
ĠSchutz glas
ĠNacht licht
ĠEinz el
ĠSchw ester
Ġsol chen
ĠEnt spricht
ĠSchuh grÃ¶ÃŁe
ĠKat er
ĠKlang qualitÃ¤t
ĠMa x
ĠKom pl
Ġbie ten
ĠBel ast
ĠEmpf Ã¤nger
Ġjem anden
ĠFest platte
ĠLes e
ĠFlÃ¤ chen
ĠBrief kasten
ĠNote book
ĠSei fe
ĠSchub laden
Ġblo ÃŁ
Ġunglaub lich
ĠStaff el
Ġabend s
kÃ¶ mm
ĠplÃ¶ tzlich
b us
n immt
n ormal
o le
u der
er s
Ġw or
Ã¼ ssen
Ġb ild
ar re
ĠA cc
ĠD raht
Ġsch lei
Ġl icht
ab iner
ĠK il
ur cht
ĠH ub
ge be
Ġt rag
le der
ls eitig
op pen
ĠÃ¼ber sichtlich
Ġe asy
ĠSie b
ĠAuf sÃ¤tze
ĠKl ingen
ma ÃŁ
Ġges etzt
Ġange zogen
Ġangenehm en
ĠKinder zimmer
ĠlÃ¤nger er
eich nen
Ġbed ient
Ġkompl ette
schu hen
ĠApp s
Ġhe lle
ĠSchn ur
ĠbenÃ¶t ig
ĠSchm erzen
beh Ã¤lter
ĠRo hr
ĠkÃ¼r ze
ĠLeucht mittel
ĠLang zeit
ĠHandt Ã¼cher
Ġniedr ig
ĠLeg o
ĠAkt iv
ĠSchok ol
Ġunbesch Ã¤digt
ĠDopp el
A R
D anke
E S
L L
L eicht
a a
f rage
g s
h aut
m ut
m ehr
n es
u gen
u ern
en z
Ġd eckt
ein igt
Ġm on
Ġn ein
Ġh aar
Ġzu viel
ĠP op
at zen
sch ale
Ġl a
ĠL eine
ĠE imer
ĠT ab
ĠT otal
Ġan standslos
ĠW eich
ĠSch Ã¼tzt
ĠSch weiÃŁ
ĠI sol
Ġr asch
ĠR etour
ĠVer f
ĠVer z
Ġst imm
ĠSt yl
Ġdem entsprechend
len de
ĠAn sicht
rau en
ĠDas s
ger Ã¤te
sp ro
ĠSp annend
Ġent steht
Ġger inge
ĠC am
Ġ3 9
Ġgel d
ĠAuf satz
ĠAuf druck
ont age
ĠWer te
ĠBl umen
Ġbeg innt
Ġbes itzt
Ġen ger
ĠKat astrophe
ĠðŁĺ ī
ĠKan te
Ġ7 0
Ġhinter lassen
ĠTÃ¼r en
ĠHoch wertig
ĠdÃ¼r fen
kn Ã¶pfe
fle kt
ĠKomm unikation
Ġverz ichten
-------- --------
Ġfair en
seh bar
Ġbean standen
rÃ¼m pfe
G rÃ¶ÃŁ
R e
S ehen
a ke
m atte
z unehmen
un nen
st ab
ar a
Ġk abel
Ġf eucht
Ġf Ã¤rbt
it a
em ent
ĠP rax
Ġl eck
ĠG as
ĠG itter
ĠF alten
ĠL u
ĠW C
och t
Ġge steckt
Ġge Ã¤ndert
ĠSch al
Ġver wir
Ġt auschen
Ġt rain
Ġr edu
ĠZ ehen
ĠSt Ã¶r
Ġab ger
ĠEin wandfrei
ĠEin richtung
ik e
Ġent stehen
Ġger Ã¤um
ĠC amp
schl auch
glich en
Ġneu er
ĠKauf preis
Ġvoll en
Ġuns auber
Ġschw itzt
zie her
erv or
ha ken
ĠGanz e
An genehm
ĠHer ren
ĠFre unde
ĠlÃ¶ ste
ĠGew issen
Ġpreis lich
gem Ã¤ÃŁ
mÃ¤ÃŁ ige
ĠMont ag
âĢ Ļ
ĠnÃ¤ch stes
Ġhal te
ĠZus Ã¤tzlich
ĠSchm eckt
Ġnett es
ĠTra cker
ĠReiÃŁ verschlÃ¼sse
ĠMÃ¶glich keiten
Ġletzten dlich
ĠSchrei bstil
ĠÃ¼b lich
ĠMac Book
ĠÃ¼bert rieben
ĠSw itch
freund lich
Ġdekor ativ
yn ch
ĠBean stand
ĠNav i
ĠGlÃ¼h bir
D en
D urch
P ositiv
k amera
l Ã¼ften
m acht
m aschinen
Ġ !!!!
er ei
Ġm l
Ġh Ã¤rter
te lt
it u
it en
Ġl inken
ĠK art
ĠK rÃ¤
ĠK eller
ĠH ut
ĠH alte
ĠM ama
ĠE tik
ĠT iere
rei b
Ġge bogen
ĠSch lie
ĠSch abl
le uchten
ĠR asen
Ġkl ass
um or
ĠAn sprÃ¼
ĠBe stens
ĠAr me
ĠIn teress
ĠSo fa
he ben
ĠAuf tragen
geb ung
geb nis
Ġher kÃ¶mm
ĠVerarbeitung s
Ġc oole
rÃ¤ g
Ġschlecht es
Ġgeh e
ĠPl ane
Ġrei ÃŁen
ĠPer len
ĠfÃ¼h le
ĠIde en
Ġste ll
Ġverl ief
Ġvorher igen
Ġverst ehe
ĠGl itzer
Ġhei ÃŁen
ĠRein igen
azit Ã¤t
ĠSh ampoo
ive au
ĠAng abe
ĠdÃ¼r ftig
ĠRie men
Ġha ften
ĠAutor in
ĠVerl Ã¤nger
ĠGem Ã¼se
ĠErwachsen e
Ġkrie gt
Ġstyl isch
Ġmass iv
ĠDro hne
ĠmÃ¼h sam
Ġangef angen
ĠReakt ion
D es
b i
b ecken
h olz
p art
r one
v ie
y m
Ġ em
Ġg gf
Ã¤ ft
Ġh aut
Ġf ern
Ġv ari
ĠP appe
Ã¼r zen
et en
ach s
ach tel
ĠB rillen
ĠF ein
ĠW el
ĠW eil
Ġden ken
ann te
Ġver gebe
Ġda vor
Ġwar e
pf el
ĠO bst
ĠSt Ã¤r
re ativ
Ã¼n d
sp l
Ġgen Ã¤ht
ĠOr den
ĠIn ner
ĠAuf nahme
ĠAuf nahmen
Ġlie b
Ġwo fÃ¼r
Ġhin aus
gesch mack
Ġschwer gÃ¤ngig
Ġlang em
Ġlang atmig
ĠgrÃ¶ÃŁ te
Ġihr er
kl ar
under t
Ġbes itze
ĠGeschmack sache
An fangs
Ġstark er
Ġbeh eben
bel euchtung
ĠVerb ind
Ġgl atte
ĠbeschÃ¤ ft
ĠTo il
ĠGen ial
spr uch
ĠSchla g
wir kung
Ġvert eilen
Ġverk ratzt
rift ung
ontro ll
Ġvern Ã¤ht
gew Ã¶hn
ĠEnttÃ¤u schung
Ġrepar ieren
trag ung
ĠVibr ation
spÃ¼ ler
ĠprÃ¤z ise
B en
g Ã¤nge
h atte
m es
Ã Ħ
Ġ eig
st ifte
in es
ig ran
ĠA t
ĠD PD
ĠB it
ĠF Ã¼hlt
ĠH ol
ĠT euer
Ġso viel
Ġer inn
Ġr uck
ĠR a
ĠZ war
ĠPro t
ĠSt angen
enn er
Ã¼n ger
ĠQualitÃ¤t s
eist erung
Ã¤lt ig
ver hÃ¤ltn
Ġgel b
ĠGe f
Ġkein em
Ġgek ostet
Ã¤r chen
ĠIn n
Ġgef iel
wer ker
imm el
alt ung
Ġdar aus
ĠWar te
Ġschwer e
Ġselbst erklÃ¤r
ĠRei s
att ung
Ġbest imm
Ġste lle
ĠBr ett
Ġrobust er
ĠAuss age
ĠPu ppe
Ġverk auft
Ã¼tz ung
Ġerw orben
ĠTro ckner
ari um
ĠSpr ach
Ġfehlen de
ĠLÃ¤ uft
ĠBefestig ungs
** **
Ġanf angen
Ġanf Ã¤nglich
ĠRech ner
ĠKar abiner
ĠIhn en
ĠSchau spieler
ĠPhil ips
UN G
ĠCamp ing
K E
R ie
g Ã¼nstig
j acke
l and
o der
Ġ *
ch o
ei ft
Ġs ech
st Ã¼cke
eh l
ĠS ack
Ġf eine
ĠD os
ĠD ien
Ġl ade
ĠK Ã¶n
ĠK Ã¤ufer
ĠF la
ĠM echan
ĠT ank
ĠT raum
gen Ã¤ht
Ġer zie
Ġp ol
ĠSch arn
Ã¤t igt
Ġaus b
ĠN ette
ĠN asen
ĠR ichtig
Ġwir k
ĠPreis lich
ĠVer st
is on
ĠSt Ã¶
ĠSt art
ff er
ol f
re gal
Ã¼n der
ĠProdukt s
ger ung
ft ung
Ġlei ser
ahr scheinlich
ĠC omputer
Ġgel assen
wer fer
eu g
geb urtstag
ĠRe paratur
opf hÃ¶rer
pl atz
Ġges und
ĠTeil weise
ĠKinder wagen
ĠUnter grund
im ent
ĠDe kor
iz er
ĠEinz ige
Ġbeh and
ĠHalter ungen
ĠMo dus
Ġversch ickt
Ġfre ut
ĠKaffe em
Ã¼hr en
Ġbet r
Ġoffen sichtlich
ud io
hÃ¤n de
ĠLauf zeit
ĠGed anken
ĠZahn bÃ¼rste
deut et
ĠSal z
ĠVorder seite
ĠIr gend
mas ke
ĠGeburtstags geschenk
ĠverfÃ¼g bar
ĠkÃ¼rze ster
H e
a ill
k on
k auft
s weise
w inkel
Ġs Ã¤u
st ange
st uhl
Ġw ind
an en
an de
an tel
an schluss
Ġun gen
on na
Ġf arbe
ig it
et isch
ĠG leich
ĠK op
ĠK amer
ĠT h
ĠT ur
Ġan t
Ġge z
ĠV ol
Ġbe fÃ¼llen
ĠN r
ier bar
Ġkl ingt
ĠO n
ĠSt il
anz t
anz ug
re ffen
ĠEr stattung
Ã¶r per
Ġmal en
wer den
wer klich
Ġre al
Ġre chten
ĠAuf hÃ¤n
Ġsp art
ĠGrÃ¶ÃŁ er
ĠEn ergie
Ġrecht zeitig
ĠJahr es
ĠBo ard
rÃ¤ sen
lie der
Ġpraktisch er
akt or
akt iv
ĠRÃ¼ck gabe
ĠGeschmack lich
vor gang
Ġbed ien
Ã¶t ige
Ġnie m
Ġmag net
Ġauss p
ĠEnt scheidung
Ġget r
schlie ÃŁt
Ġar g
Er st
ĠÃ¼ ben
ĠSpr Ã¼h
Ġverf liegt
ĠâĢ ĵ
Ġmehrmal igen
Ġha ftet
flas chen
ĠBohr er
ĠZur Ã¼ck
ĠHals band
Ġfix ieren
ĠFlÃ¤ che
Ġverschw unden
Ġverbesser n
ĠAusspar ungen
Ġgeliefer te
Ġbeige fÃ¼g
Ġfumm elig
ĠðŁĳ Į
Ġengl isch
ĠVerpack ungs
ynch ron
ĠselbsterklÃ¤r end
8 0
a dem
c reme
f it
i ser
l ere
Ġd oll
Ġs ens
Ġg Ã¤be
an gt
an weisung
Ã¼ lt
Ġn etter
Ã¤ hl
Ã¤ bchen
Ġb ere
Ġb iÃŁchen
Ġzu ge
ber eitung
ĠP rei
ĠB rem
ab le
ĠK usch
Ġan spr
Ġan passen
mm e
Ġge zeigt
Ġaus gelegt
Ġr Ã¼ber
Ġwar men
il den
ĠSt d
ĠSt ahl
ĠSt Ã¼hle
ĠAn zug
Ġab geben
Ġschne llen
us ive
lei ste
sp rÃ¼n
be zug
Ġum gehend
aut om
ĠAb n
Ġgek n
Ġ4 4
ĠGerÃ¤t es
ĠZu stellung
ĠWer bung
wend et
Ġkap ut
ĠBesch riftung
Ġeigentlich e
Ġallem al
gef ahr
ĠUm fang
ĠEinz elt
ĠSchw imm
Ã¤hr ung
Ġro ch
erst attung
ĠSmart phones
Ġschlie ÃŁlich
tem peratur
ow n
schn eider
ĠTaschen lampe
up i
ĠHei ÃŁ
griff en
ĠLang leb
reu z
ĠLes er
Ge fÃ¤llt
Ġsor gt
ĠFÃ¼ll ung
Ġverrut schen
Unser e
ĠSchaum stoff
Ġschar fe
ĠPuzz le
ĠMass age
Ġgerecht fertigt
Ġanst ren
ĠZigar etten
Ġnirgend s
ĠÃ¼brigen s
ĠBor sten
ĠSchÃ¤r fe
A kku
W urde
b ad
d atum
f ession
o hne
w anne
z ur
Ġs ub
Ġw ahnsinn
in i
Ã¤ re
Ġf liegen
ĠA lter
ĠD reck
Ġsch reck
Ġsch affen
sch chen
Ġl ust
Ġl og
ĠB ahn
ĠF assung
ĠF leisch
ir e
ĠH y
ĠT ip
Ġan schlieÃŁend
ĠW ander
Ġge g
Ġp aÃŁt
Ġauf ger
Ġbe fÃ¼llt
reis en
ĠN iveau
ack ern
la dung
ger echt
ĠEr ste
Ġum gehen
ver stÃ¤ndlich
Ġger einigt
ern t
abe ll
Ġlie st
Sch on
Ġbesch reiben
Ã¤u schen
Ġunter e
ĠZu hause
ĠEn den
schie de
ĠSte uerung
ĠVor hang
Ġgleich mÃ¤ÃŁig
ĠGeschmack s
ĠLie der
ĠLie ge
ist ole
Ġho hem
ĠSchn alle
ĠZum indest
ĠTon er
ĠAl arm
ĠKunden dienst
fl Ã¼ssig
ĠFÃ¤ lle
?? ??
tem onna
Ġeinge packt
ĠSonnen schutz
eim er
In sgesamt
Ġnegativ en
ĠKla ppe
Ġerrei chen
Bis her
schlieÃŁ lich
ĠHÃ¶r er
ĠFa vor
Ġgeschmack lich
fol ien
ĠGest ank
ĠProf i
ĠgewÃ¼nsch te
Ġverarbei tete
ĠAbstrich en
ĠRut sch
Ġschwier iger
ĠBewegungs melder
Ġeffekt iv
Ġunauf fÃ¤llig
Ġversen det
ĠAnforder ungen
Ġgol den
D E
M o
a zon
d io
h el
p ass
s amer
â ŃĲ
Ã¼ len
ĠS im
Ã¤ cher
ĠA ch
Ġzu gestellt
Ġzu gelegt
ĠD ichtung
ĠP ar
ĠB ier
ĠB ill
ĠB io
Ġder en
ĠK o
ĠK amm
ĠK iste
ĠL G
ĠL ed
ĠE gal
ĠT he
ĠT eig
or e
Ġden kt
Ġer n
Ġp unkt
ĠSch aden
Ġver packung
Ġauf fÃ¤llt
auf nahme
Ġkl emmt
ĠSt ark
Ġum gesetzt
Ġimmer noch
ĠC ont
wert ige
ĠBe denken
ĠAuf lage
ĠKl inge
art ikel
Ã¤u scht
opf t
ĠZu g
stig es
ĠWasser dicht
ĠBl itz
ant iert
Ġbes orgen
ĠFall s
ĠUm setzung
Ġir re
Ġschl ucken
Ġgest oÃŁen
Ġsol ange
Ġro llt
Ġverst aut
Ġverst Ã¤r
ĠgÃ¼nstig es
schla fen
Ġbie gen
Ġu p
Ã¼hr ung
Ġverk n
Ġhervor ragen
ĠSicher heits
mÃ¶glich keit
Ġnegativ e
Ġnegativ es
ĠMittel mÃ¤ÃŁig
Ġbef inden
ĠgrÃ¼n dlich
ĠKomm t
ĠIhr e
Ġklapp te
ĠBade zimmer
ĠzusÃ¤tz lichen
ĠFingerab drÃ¼cke
Ġminder wertig
ĠWÃ¼r fel
ĠAusspar ung
Ġfol gen
Ġreklam iert
Ġsepar at
ĠMe er
Schm eckt
ĠSchokol ade
temonna ie
_ _
g ibt
u se
x x
z eiten
ei er
Ġd oo
Ġd reck
st ein
Ġg rei
Ġun f
Ã¤ ten
Ġz erst
Ġf rieden
ĠD atum
ĠD unkeln
sch altet
Ġl iefert
ĠB lech
ĠK etten
ĠK ey
ĠT rans
Ġan fÃ¤llig
ge zogen
ĠW egen
ĠW ollte
Ġp f
Ġver schlieÃŁen
Ġauf bringen
ĠV Ã¶
ĠR Ã¶
ĠZ iemlich
Ġst inken
Ġab gerissen
ĠEin stell
zu stellen
end es
!! !!!
Ġam azon
schl and
Ġper man
Ġre chte
ĠMat ten
Ġvie lseitig
ĠBo sch
Ġber eit
Ġeinz iges
Ġzusammen gebaut
ĠHer stell
ĠHer bst
ĠPer Ã¼cke
ĠFre unden
Ġhell es
ĠSet s
Ġverst anden
ĠKlein en
ĠKlein es
ĠKlein geld
Ġbr ennt
ĠMen Ã¼
ĠAufbau anleitung
ĠHe ute
ĠðŁĳį ðŁı¼
Ã¤l te
schei ben
ĠBeg eisterung
Ġ201 7
rut schen
wÃ¼r fel
ĠSchrei b
ĠHel fer
ĠNÃ¤ he
Ġkosten los
ĠLebens mittel
ĠIhr en
Ġkor rig
ĠMotor rad
ĠEinst ieg
ĠFamil ien
20 1
ball ons
ĠSei fen
ĠWen ig
ĠHo cker
ĠIP hone
Ġverschl ossen
Ġtechn isch
Ġrest lichen
ĠNad eln
Ġspezie ll
Ġerhe blich
ĠZiff ern
Ġindividu ell
Ġkomfort abel
Ġverbesserungs wÃ¼rdig
ĠGren zen
GrÃ¶ÃŁ e
Ġsech s
E cht
P assen
T asche
U P
V om
V iele
h Ã¤nge
k arton
m obil
o v
o ber
o cken
p rÃ¤
s fÃ¤hig
u len
er ken
ei ter
Ġs ort
st ern
ein gesch
ĠS essel
ut scht
Ġein stecken
Ġz b
ĠA N
ĠD ok
ĠP ech
Ã¼r f
sch Ã¤
ĠG urte
ĠF asch
ro pfen
ĠM ill
ĠT Ã¶
ĠT ick
ĠT Ã¶pfe
Ġan z
Ġan nÃ¤
ĠW unsch
ĠSch Ã¼ssel
cht ig
Ġver braucht
Ġt he
and et
ĠV ier
Ġaus fÃ¤llt
Ġbe eindruck
ĠN utzen
Ġwar te
ief ach
Ġkl ing
Ġkl ang
ĠSt u
ĠSt ab
ĠSt irn
Ġab gesehen
ĠEin stellen
eist er
Ġ1 9
gel t
hal te
Ġent standen
Ġent deckt
Ġger eicht
ĠC on
schl Ã¼ssel
Ġre ch
ĠAuf lÃ¶sung
Ġ4 2
ĠRe gel
Ġange passt
Ġ5 00
gesch ichte
ĠMal e
ech net
Ġseit dem
Ġhand y
ĠNacht eile
Ġverb iegen
ĠSchw anger
ĠGl anz
Ġangegeben e
Ġget roffen
ĠForm at
ĠRad i
Ġfl ott
ĠBilder rahmen
Ġverm ute
Ġblau en
ĠSchlÃ¼ssel anhÃ¤nger
ĠFol ge
ĠBaby s
Ã¤um t
Ġempfind liche
ĠMikro f
ĠJe ans
ĠDeut schland
Ġklapp en
Ġfe sten
ĠerwÃ¤hn en
Ġsor gf
les bar
ĠBrau chbar
Shirt s
ĠHau st
ĠTrink flasche
Ġrutsch fest
schrau ber
ĠHem d
ĠLad ung
ĠErsatzt eil
Ġbele uchtet
Ġtrau rig
ĠMisch ung
ĠAnwend ungen
ĠRezess ionen
Ġerz Ã¤hlt
Ġwahnsinn ig
f unktioniert
f os
f aktor
g le
h ieb
i ma
p ten
p atronen
r end
z ial
ch em
Ġd est
Ġs per
Ġs att
Ġg rade
Ġb iss
Ġh Ã¼lle
Ġk rit
ĠA ro
ĠD iff
ĠD icke
ĠD AB
ber eitet
Ġsch au
et tel
Ġl inke
ĠB al
ĠB ank
ĠF lex
kt en
ĠT un
Ġan ges
Ġer leich
Ġver zogen
Ġver sprechen
Ġauf gerissen
Ġaus lÃ¼ften
Ġbe deckt
Ġbe deutet
le g
ĠN utze
Ġr iss
ĠR os
ĠR ichtige
ĠZ eug
re g
Ġwei chen
ĠU V
sp itzen
her um
ang aben
ĠSp e
ot s
ot os
ĠBe sten
ĠBe kann
ĠSo bald
Ġgeht s
Ġ4 5
amm t
Ġhin zu
Ġ: /
Ġpro fession
ĠMan tel
Ġpraktisch es
kl emmen
ĠUnter st
ĠUnter lage
eich ert
Ġwarm es
Ġschl ank
Ġbest ehen
ĠAu ff
Wir d
ĠPf eile
fÃ¼hr en
voll stÃ¤ndig
ĠRein iger
geh Ã¤use
Ġunangenehm er
Ġunangenehm en
ĠgewÃ¶hn en
Ġbrei te
ue lle
Ġoriginal e
ĠHil ft
ĠSonnen schirm
ĠStr umpf
ontro lle
ĠLei ste
Ġans ehen
ĠBeg leiter
ĠstÃ¤r k
ĠRoll o
Ġfreund lichen
ĠspÃ¼r bar
ĠSchlei f
Ġfil m
Ġfil igran
ĠjÃ¤hr igen
betrieb nahme
jÃ¤hr ige
do or
ĠGebrauchs anweisung
ĠBir nen
ĠJog gen
Ġrobu ste
Ġunterst Ã¼tzt
ĠErn Ã¤hrung
out ube
Ġverurs acht
ĠTerr asse
antwor tet
zut ragen
ĠEntfern ung
Ġstell te
ĠSchwanger schaft
T rotz
b inden
g ing
g roÃŁ
m Ã¼ll
r isch
t eile
Ġ Ã¤ndert
ei de
Ġd et
Ġd os
Ġs etzt
ich e
in tens
ar sam
Ġh Ã¼bsche
Ġk Ã¼
Ġk ratzt
ig in
it t
ĠD ort
ĠP an
ĠP ark
at ische
sch le
sch aut
Ġl ack
Ġl etzt
ĠG rau
ĠG ag
ĠG aming
ĠB utter
ĠK Ã¤lte
ĠF isch
ĠF ant
ĠT Ã¶ne
ter min
or ie
Ġer t
Ġp lastik
Ġp utzen
Ġver bl
Ġver form
Ġver Ã¤ndert
Ġt rifft
Ã¤t sel
Ġda mals
reis e
pf lege
ĠZ w
ĠVer packt
ĠVer schlÃ¼sse
Ġst arten
ĠSt ation
ff ekte
ĠAn kunft
wei ss
Ġwieder um
Ġklein sten
eist et
ĠEr k
gel assen
ot ten
ĠC ro
ĠC up
Ġ3 5
aus wahl
schen ken
schl Ã¤
ĠWar en
ĠMan che
Ġlang es
Ġgem essen
dr eher
ech selt
ha ften
nit tert
Ġrie sen
Ġerf ahren
ĠGebrauch sspuren
ĠBatter iefach
ĠMin ute
zeu gen
ĠBr uch
gem einen
Ġsol ides
ĠBen utz
fÃ¼hr end
ĠKon kur
Ġtro pft
ĠKratz ern
ĠKratz baum
Ġschmal en
ĠCo uch
ue llen
ĠPin z
ĠFest iv
ĠAnz ahl
ĠFir e
ĠÃ¼b el
Ġniedr iger
ĠPull i
Ġerg iebig
ĠGeschirr spÃ¼ler
ĠEis wÃ¼rfel
Ġspr ingt
ĠjÃ¤hr ige
Ġgeliefer ten
ĠSchrit te
fri stig
Ġgriff ig
prÃ¼ ft
mach ung
je den
ĠPor temonnaie
ĠFort setzung
Bo x
ĠVit amin
ĠSat tel
Ġmitte ls
Ġur sprÃ¼n
urcht bar
ĠPrax is
Rie cht
Ġanspr uchs
H D
P l
S D
b ilder
f order
g rau
g arten
h elfen
k op
l ein
l ungen
l inge
m Ã¤
z eichen
Ġd ient
Ġs amt
st Ã¶psel
Ġg re
Ġw icht
Ġm erk
in ne
ĠS itzen
Ġun er
Ã¤ llig
Ã¤ hler
Ġz Ã¤hlt
Ġf lie
Ġf Ã¼hl
ber t
Ġl Ã¼ften
ĠB us
ĠB ik
ĠK rim
ĠL ight
ĠH P
ĠH ard
ĠH ervor
ĠH umor
ĠT ape
ge ber
Ġge Ã¤rgert
Ġman uell
Ġt ransp
Ġbei geleg
Ġj eg
ĠZ it
ĠVer Ã¤nder
sen kel
is h
ĠO der
ĠSt rÃ¼mpfe
ĠAn lieferung
enn ung
Ġab lesbar
Ġwei s
ĠU lt
Ġmein s
ĠEin er
la ppen
Ã¶r bar
ahr ung
Ġander em
Ġimmer hin
Ġgek auf
ĠIn betriebnahme
Ġdurch ge
schl Ã¼ssen
ĠAuf machung
Ġdr itte
Ġgew echselt
ĠRe ceiver
opf en
ma il
ĠZeit punkt
ĠKinder geburtstag
Ġzus amm
ĠBesch enkte
ĠðŁ Ļ
ha ber
lo g
Ã¤h ig
ak u
Ġgar antiert
Ġschm utz
mÃ¤ÃŁ iger
Ġvorher sehbar
Ġgl atten
Ġget auscht
og raf
ĠBis schen
ĠBlu se
ĠX XL
Ġlo ck
ĠAl u
Ġrunter gefallen
ĠOb jektiv
ĠHe bel
ĠGummi band
spiel zeug
Ġwes wegen
ĠFr Ã¼h
Ġ12 0
Ġinteress iert
ĠPanz er
Auf grund
ĠhÃ¶her en
ĠÃ¼b lichen
Ġniedr igen
ĠSor ten
ĠFe dern
ĠEnttÃ¤u scht
Ġbeiliegen den
ĠBeschÃ¤dig ungen
ĠFÃ¼ ÃŁen
Ob wohl
ĠBelast ung
ĠProt ein
Ġniem and
ĠLangleb igkeit
Ġanstren gend
Ġdest o
E ar
G B
L icht
N och
S ol
U S
b it
d s
g ummi
k lappt
m ein
m art
m utlich
o il
p ort
p Ã¤ck
ei fe
Ġs uche
un te
ein stellung
Ã¼ ge
Ã¼ geln
ĠS ur
ĠS atz
Ġb lasen
Ġein satz
Ġz B
Ġk ul
Ġf alten
em pl
em ente
Ġsch alten
sch on
ĠG ro
ĠG rav
ĠB as
ĠB rÃ¼
ĠK asten
ĠK uchen
ĠF allen
ĠF rÃ¼
ĠM P
ĠT es
ĠT yp
Ġan sprechen
Ġan bie
ĠW ein
Ġge p
Ġge achtet
Ġp u
Ġp ink
ĠSch rott
Ġauf zutragen
Ġt ag
Ã¤t tern
Ġaus schlieÃŁlich
ĠR au
ĠZ eiten
Ġst off
Ġab gen
ick er
Ġe chten
gel esen
fÃ¼ gung
ver brauch
ver bindung
ot o
ĠC ent
ĠAb lage
ĠGe stell
ĠIn fo
Ġdurch schnittlich
Ġgew isse
ast et
pe gel
ĠBo dy
Ġrein igt
ĠPl an
Ġbes orgt
aff ung
Ġzusammen bauen
wen de
ĠFre ch
Ã¤tz chen
Ġbisher igen
ĠBox er
Ġro ten
schein en
ĠLÃ¶ s
ĠMen gen
get an
hin ein
ĠAuss erdem
lÃ¶ cher
Ġgesp art
Ġaufge gangen
ĠKap pe
Ġschmal er
Ġvert ragen
ĠÃ¤hn liche
Ġmitt ler
Ġfehlen den
itter t
ĠBlick fang
ĠAnt i
ĠTa fel
Ġintens iver
ĠAbend s
ðŁĳį ðŁĳį
ĠhÃ¤uf iger
Ġsau gen
Ġerrei chbar
ĠY og
ĠÃĦr gerlich
ĠTer min
Ġverschw indet
Ġbo x
ĠMÃ¼n zen
haar e
ĠKlem m
Ġkontakt iert
ĠAqu arium
ĠAngel egenheit
ĠCan on
ĠNachbar n
ĠDien ste
rÃ¤sen t
Ġdoo f
Ġdet aill
1 5
K ein
K Ã¶nnte
R ei
S eit
W ollte
b und
u x
z in
z ieren
Ġd auernd
Ġs tet
Ġa lternativ
ĠS en
ĠS ort
ĠS auber
on g
al er
ĠD at
ber eiten
et tet
Ġl ila
ĠG Ã¼nstiger
ĠB Ã¶
ĠK olle
ĠK Ã¶pfe
ĠK ochen
ĠF ass
ur f
ĠL and
ĠL ippen
ĠH enkel
ĠM Ã¼cken
ĠT au
rei ten
rei chend
Ġge wartet
Ġer sichtlich
Ġp acken
Ġauf fÃ¤llig
ĠR auch
ĠR iegel
ĠR uhe
il ien
ĠZ uf
Ġst umpf
ĠPro zent
um ent
um schlag
ĠO fen
ĠSt iel
Ġnach ge
len den
Ġab f
Ġab warten
Die s
Ġklein ste
sp art
sp ad
sp iels
ĠEr klÃ¤r
Ġviel es
ot ion
ĠBe amer
ĠSo gar
ĠlÃ¤ stig
Ġlie s
Ġlie ÃŁen
Ġsp richt
Ġsp aÃŁ
Ġdr uck
ĠAus schnitt
uer st
ĠFunktion ieren
ĠRÃ¼ck erstattung
Ġdeut liche
atter ien
Ġseit lichen
ak er
ĠHer mes
ĠOpt imal
ĠArm atur
oo gle
Ġbeh oben
empf ind
ĠBr uder
Ġsol ch
Ġverst eht
Ġvers and
az ier
ĠBen utze
rÃ¤n kung
ĠBand age
ĠLa ien
St ick
ĠKom pr
stÃ¤r ker
ĠSound qualitÃ¤t
ĠKap azitÃ¤t
ĠHersteller s
fÃ¤ cher
Ġverk ehrt
Ġmitt ig
Ġmitt lere
ĠBeweg ungen
licher weise
ĠGar age
ĠSchrau b
Ġung Ã¼nstig
ĠBade wanne
ĠSchub lade
ĠSpeicher karte
Ġdiver sen
ĠGet rÃ¤nk
Ġbo hren
ĠgewÃ¼nsch ten
ĠNad el
ĠOrg an
li ffen
ĠRÃ¤um e
ĠSzen en
Ġsamm elt
wechs lung
umin ium
ĠAufhÃ¤n gung
ĠUnterst Ã¼tzung
jeden fall
^ ^
b ack
b ahn
f uÃŁ
g lÃ¤ser
h eim
k eine
k ap
l Ã¤nge
m utter
m odell
n chen
p ulver
s ert
s sten
t o
t sam
u itiv
v en
w ehr
Ġ ****
ch an
er lich
Ġs y
st chen
ĠS UP
Ġun eingesch
Ġb la
Ġein ger
on om
Ġf uer
Ġf rage
Ġf rag
al i
al ien
ĠD Ã¼n
ĠD achte
ĠP al
Ġsch Ã¤r
el ten
sch er
sch reiber
ĠG it
ĠG ad
ĠG PS
ĠB ro
ĠB adem
ĠK reuz
ĠF in
ĠL ook
ĠW ort
Ġp en
ĠSch reiben
Ã¤t tert
il t
pf chen
Ġj ahr
ra glich
ĠZ eichen
ĠVer fÃ¼gung
Ġkl emmen
Ġst unden
ĠPro du
llt Ã¤glich
ĠO ff
Ġnach t
ĠAn hieb
ed es
la d
hn en
wei ÃŁt
ick eln
ĠSp uren
end lich
Ġent nehmen
ĠIn se
ĠAuf gabe
geb rochen
Ġsp rich
Ġbesch ri
ĠRe alitÃ¤t
Ġsel tsam
ungs ver
fen ster
ĠNicht e
Ġstabil es
Ġecht es
ĠKabel s
ĠBl att
Ġjeden fall
me chan
Ġnormal es
Ġwel chen
Ġkompl etten
Ġhand werklich
ĠGew alt
ĠMo del
ĠKlein igkeiten
Ġricht iger
schla gen
Ġsauber e
Ġordentlich en
ĠKon nte
ĠGes prÃ¤
Ġangeb lich
ĠhÃ¶ re
ĠwÃ¤r m
Ġmin i
ĠBer eits
Ã¼hr t
fÃ¤ ll
ĠInhalt sst
ĠTrage gefÃ¼hl
Ġerw ischt
ĠSam en
Ġbl ick
ĠInnen seite
ĠNeu e
bew ahren
ĠKla mmer
fle cken
Ġersch wert
da her
hÃ¤n gig
ĠY ou
ib le
Ġentsprechen de
ĠJe den
Ġkauf te
ĠFuss el
pad s
ĠEnkel in
ĠGet rÃ¤nke
Ġverh indern
Ab solut
ĠPolster ung
ĠKoch buch
Ġrobu sten
ĠEing ang
Ġinkl usive
ĠNerv en
Ġwin zig
Ġausgest attet
ĠMix er
ĠBaumw olle
ĠSchnÃ¼r senkel
ĠDunkel heit
Ġleck ere
ĠAnsprÃ¼ che
ĠsÃ¤u bern
ĠEinzelt eile
ĠFrech heit
B esch
B ild
G eht
H ier
I G
L iefer
P ass
R O
Z ur
b rechen
g itter
h orn
r aten
v al
w Ã¶hn
Ġs an
Ġm aterial
Ġm oment
an dern
eh nt
ĠS Ã¼ÃŁe
ĠS aft
Ġun problem
Ġb ilden
Ġein bauen
Ġz ut
Ġzu mal
Ġzu legen
Ġzu geschickt
ĠP utz
at es
Ã¼r en
et ro
ĠG rÃ¼
ĠG UT
ĠB raun
Ġder zeit
ur laub
ĠL ohnt
ĠL aufe
ĠL etzten
ĠH it
ĠH or
ĠM ult
ĠT reiber
ten t
Ġp ar
Ġp ur
Ġver stellbar
ĠI phone
Ġwie gt
Ġaus ziehen
Ġwar s
ĠR Ã¤tsel
ĠPreis e
pf l
ĠZ ut
Ġst aub
um e
ĠSt y
ol og
lei ben
lei dung
wei f
ger n
sp uren
ĠEr d
ĠEr ster
be ute
Ġdes ign
fÃ¼ t
ĠJ ack
bl Ã¤tter
Ġgen ieÃŁen
ĠAb deck
ĠGesch Ã¤ft
ĠAuf teilung
ruck sack
ĠProblem los
Ġhier mit
ges endet
rÃ¤ der
qu id
kk us
ĠBl ock
Ã¼ss eln
ĠHer aus
gef unden
ĠDe fin
so le
so cken
ĠLie bes
Ġschm erz
Ġwunder schÃ¶ne
ĠLuft ballons
ĠVerkÃ¤ufer s
Ġ100 0
ĠErsatz lieferung
Ġbr ennen
ok us
âĢ ¦
ĠSchn or
Ġdun kle
Ġvorhanden en
ĠHe ft
ĠAlternativ en
ĠspÃ¤ te
ĠGeb urt
ĠÃ¤r gert
ĠgÃ¼nstiger e
ĠwÃ¼nschen swert
Ġstar r
Ġunkompl izierte
ĠBed Ã¼rf
zent r
ĠerklÃ¤r en
ĠnÃ¤ her
ĠBohr ungen
Ġeingesch altet
Ġsau g
gew icht
na pf
Ġdunk len
ĠEx empl
Ġhoff en
mp chen
Ġschrei bt
Ġmach bar
ĠEben so
Ġmer ke
Wunder schÃ¶n
Ġinform ativ
Ġeinget roffen
Ġliefer n
ĠSchein werfer
Ġint uitiv
ĠbenÃ¶tig te
Ġabger und
ĠgerÃ¤um ig
ĠInner en
Ben utze
ĠAbn utzung
ĠVÃ¶ gel
Ġperman ent
ĠHerstell ern
ĠFasch ing
, ...
4 0
F olie
L iegt
M ail
T E
d eln
d osen
i ster
k ungen
u ar
v el
z lich
Ġ ei
Ġ Ã¤
Ġd imm
Ġs ag
un e
Ġa lltÃ¤glich
ich ert
as ie
ĠS E
ĠS oll
ĠS CH
ĠS itu
Ġun w
Ġb rÃ¤
Ġb itter
Ġh akt
Ġh eile
Ġk alten
Ġf ant
Ġf urchtbar
ĠP ap
Ã¼r t
sch ere
ĠB ar
ĠB einen
ĠM f
ĠM ahl
ĠE spr
Ġan ger
ter ung
ne utral
ĠW ahnsinn
Ġer wei
ss ig
Ġwie so
Ġaus halten
Ġbe fÃ¼r
auf wand
ĠZ weit
ing lich
ĠVer schlei
um a
ff e
uch ter
re cken
ent wicklung
sp iele
ĠSp iels
bar er
be ult
Ġum welt
komm end
ri st
Ġgek l
ĠSie he
Ġgesch enk
ĠProblem en
ĠFarb ton
Ġgenau e
ĠGel iefert
ĠNach frage
ess eln
Ġkom bin
Ġbeg innen
ĠVor stellung
atter ie
halt ig
rad io
ĠUm gebung
ul ieren
Ġhe ut
Ġhe bt
ĠGl eit
ĠStÃ¼ck e
Ġkle br
Ġabge gangen
wick eln
ĠFr ucht
Ġch ines
ĠHil fs
ĠStick s
Ġverf logen
Ġinteress ante
ĠLÃ¤ mpchen
Ġwichtig ste
Ġteur e
pro gramm
Ġbef riedigend
ĠmuÃŁ te
ud eln
ĠPart ner
ĠSchick e
ĠEinsch rÃ¤nkung
ĠFitn es
Sp iel
Ã¤m tliche
Ġfe ste
ĠspÃ¼r t
Ġverh indert
ĠErwachsen en
ĠPfl anz
ĠerhÃ¤lt lich
ĠSa ison
ĠSchrit tz
ĠHem den
ĠMÃ¼n z
Ġverarbei te
Ġaust auschen
ĠSamm lung
ĠPizz a
ĠAufbewahrungs box
ĠKlass iker
ĠAro ma
ĠGrav ur
Ġabgen utzt
Q ualitativ
S itzt
T ube
Z uerst
g sam
o oth
Ġd eck
Ġs Ã¼ss
Ġs orgen
Ġa kku
st eine
st eigen
st ift
Ġg umm
ĠS n
Ġi t
Ġh arte
Ġk Ã¼hlt
Ġk ontroll
ĠA s
Ġzu greifen
ĠD art
el icht
el ige
Ġl asse
ĠG ott
ĠB ug
ĠB asteln
ab deckung
ĠK al
ĠK ok
ĠK lappt
ĠF aden
kt ur
ro r
ĠT el
Ġan wenden
ge packt
ĠW isch
mm el
ĠSch achtel
Ġver deckt
Ġauf stellen
Ġauf wendig
ĠV an
ĠV ater
Ġbei des
ĠR icht
ĠR auschen
Ġwir kte
ĠZ iel
Ġkann te
Ġst ramm
ĠPro tag
um pt
ĠSt abile
ĠSt Ã¶psel
iel ten
om b
lei bt
op per
ĠÃ¼ber ragend
ze llen
gel Ã¶st
ĠGer Ã¼che
ĠJ Ã¤hr
ver s
Ġger uchs
ĠIn fos
Ġgef Ã¤hr
ĠSo hlen
he ll
Ġsp arsam
ĠKl am
Ġson stiges
ast a
ad t
eig te
ĠBei de
Ġpro gramm
qu enz
ĠMaterial s
Ġschwer en
men sion
wie der
ĠLam in
umm en
ĠRÃ¼ck meldung
ĠGeschenk idee
Ġrei chlich
An schluss
Ġfunktion sfÃ¤hig
ĠAut om
ĠUm verpackung
schu l
ĠOhr stecker
ĠBr unnen
ĠAu dio
Ġdefekt en
ĠDeckel s
Ġbr ach
ĠpersÃ¶n liche
festig keit
ĠOber flÃ¤chen
ĠKunst leder
ĠAuss en
ĠHaus gebrauch
ĠWerk statt
ĠWÃ¤ schen
alte te
ĠPack ungen
Ġch ic
ĠPraktisch e
Ġbew orben
ĠEmpf inden
ĠSicher ung
Ġteur eren
ĠSaug nÃ¤
sh irt
ĠRas ier
Ġirgendw el
rinzip iell
ĠWo hl
mo dus
ĠFrei zeit
ĠHau be
ĠElekt ron
Ġschrei be
Ġdahin ter
ĠCl ip
Ġrepar iert
ĠKÃ¤ fig
ĠBes uch
ĠOrg inal
ĠkrÃ¤ft iger
Ġnahe zu
gn Ã¼gen
ĠMau spad
strahl ung
ĠKnÃ¶ chel
ĠBast el
musch el
ĠAcc esso
Ġverwir rend
ĠSchabl one
ĠbeschÃ¤ft igt
ĠDekor ation
Ġbehand elt
Ġuneingesch rÃ¤nkt
ĠGad get
Ġmoment an
ĠDefin itiv
ĠProtag on
, ,
, -
1 2
9 0
? )
A L
A lle
B uch
F il
H R
I de
L e
P P
a c
b ein
d isch
f alt
f riedigend
h osen
h Ã¼llen
j ahr
k u
k lass
l ern
m l
n ing
p aket
p umpen
r ichtig
r Ã¼cken
u ste
w ach
ei ÃŁen
Ġs uchte
Ġm essen
Ã¼ glich
Ġun re
Ġk r
Ġk ind
Ġk ippt
on nen
Ġf liegt
ĠA A
em ber
ĠP app
at h
Ġsch rÃ¤g
Ã¼r z
et all
sch arf
sch affung
Ġl auf
ĠG o
ĠG ehen
ĠG rip
ĠB am
ab end
ĠH all
ĠM i
ĠE ur
ĠE IN
de te
Ġan kommen
rei de
rei ÃŁen
or fen
Ġso fern
Ġver ab
Ġver stellt
Ġver Ã¤ndern
Ġmit genommen
Ġman ch
Ġauf jedenfall
ĠI s
Ġbe ob
auf satz
auf Ã¤hig
Ġkl ingen
ĠPro jekt
Ġab lesen
ĠEin nahme
ĠÃ¼ber legt
sp ender
all erdings
Ġlei det
Ġum fang
ver k
Ġger uch
ĠBe stellt
ĠBe urt
ĠOr d
ĠUn iver
ĠAuf gaben
ĠSuper markt
Ġsp rechen
ĠTop p
Ġ4 3
Ġgesch aut
ĠZu erst
rÃ¤ umen
Ã¤ch ern
men ge
ĠUnter schiede
lo sen
lo cken
Ã¤h te
ĠPer fekte
ĠCh ance
Ġbequem e
Ġverl angen
Ġpreis werte
Ġkn iff
ĠSchl aufe
ĠGumm is
Ġvers ehen
Ġor ange
Ġfl Ã¼ss
ĠOber schen
fahr t
ĠKind le
ĠTo aster
ĠPu ppen
ĠAl uminium
ĠSchla fen
wir kt
fÃ¤ lle
ĠWÃ¤ sch
ĠPack et
des halb
ĠTro cken
ĠKu lt
ow e
ĠÃĦ hn
Ġinner en
up per
ĠâĢ ¦
ĠNeu es
ĠSicht schutz
Ġ201 9
rut scht
ĠHei zung
Ġhalb wegs
Ġtrin ke
ĠRoll er
ĠNot fall
ĠPlus punkt
Ġerforder t
ĠEigen schaften
ĠBÃ¼ ch
ĠLog o
Ġschar fen
ĠNormal erweise
Ġunz ufrieden
ĠBir ne
ĠExt ra
Ġtr ennen
Ent spricht
ĠBeschÃ¤dig ung
hÃ¶ he
Ġquiet scht
LÃ¤ sst
Ġon line
besser n
ĠRat geber
ĠLegg ings
Ã¼nd in
Ġsorgf Ã¤ltig
ĠRos a
Ġverform t
ĠKonkur renz
Ġanspruchs voll
spiels weise
ĠYou Tube
Ġunproblem atisch
ĠBedÃ¼rf nisse
7 0
A M
I mmer
a der
b te
b elt
f inden
f assung
g y
g anz
k Ã¤
l ungs
m Ã¤n
s ind
t uch
u ser
Ġ y
ch ig
ch tet
es kop
Ġm issen
Ã¼ l
eh Ã¶r
Ġun Ã¼ber
Ġun vollstÃ¤ndig
Ã¤ lle
Ġb ischen
Ġb ildet
Ġh appy
Ġz ahlen
Ġk m
te uer
Ġf angen
Ġf Ã¼llen
au ss
ĠP ant
ĠP rÃ¼
ĠP ump
sch ade
ĠK EIN
ĠF rieden
ĠF Ã¶hn
ĠL eitung
ĠM ade
ĠM ist
ĠT ed
Ġan geh
Ġan fÃ¼hlt
rei z
rei bungen
ge kommen
ĠW achs
Ġge fÃ¼hl
Ġer lebt
Ġin n
Ġp o
Ġver packen
Ġmit ten
Ġauf genommen
Ġt agen
Ġt asche
Ġt reffen
ĠV is
Ġaus gef
Ġbe ein
ra llen
ĠZ ent
ĠZ eiger
ĠVer wend
ĠSt roh
ĠSt urm
ĠAn ker
ĠAn spruch
ol zen
Ġwas chbar
Ġwei cht
du l
ger ie
ĠÃ¼ber zogen
ĠÃ¼ber sehen
sp ekt
ick elt
ĠEr fÃ¼llen
ĠJ ungs
ver sand
Ġger echnet
os met
wert iges
mit telt
ĠBe fÃ¼llen
ĠAb zÃ¼ge
ĠAb wechslung
Ġ3 00
ĠGe fahr
Ġdurch sicht
off eln
ke y
schl ossen
eu e
Ġdr eh
ill er
Ġhier bei
Ġange ben
age ll
ĠAus stattung
ĠStern abzug
Ġunser es
Ġsehen swert
Ġber uh
etz er
Ġeigentlich en
ĠRei ss
Ġbed ruckt
ĠÃľber blick
Ġnie mals
Ġdick eren
ĠmÃ¼ ssten
ĠDe llen
Ġbest Ã¤tigt
ĠSchw amm
Ġro llen
ĠFl ach
ĠLiefer anten
get asche
ĠðŁĺ ģ
Ġbem essen
aub sauger
ĠhÃ¼bsch es
ĠMagnet verschluss
ĠGroÃŁ er
Ġaufge klebt
ĠGen er
ĠMode llen
ĠSh orts
ĠÃ¤hn lichen
Ġteur ere
ĠReg ale
ĠTelefon ieren
Ġober flÃ¤
ĠBed ingt
Un d
ĠWeiter empfehlung
ĠHel ium
ĠTa ille
ĠGesicht s
ĠWÃ¤r m
Ġplatz iert
ĠTrain ings
ĠfÃ¼n dig
ĠY outube
ĠDusch kopf
ĠfÃ¼hr en
Ġstra hlen
ĠDu schen
ĠFe atur
Ġerg ibt
ĠBrau se
Ġtau gt
ĠLin sen
ĠKomp akt
ĠglÃ¤n zt
ĠFeuer zeug
ĠRund um
Ġabgesch nitten
ĠLenk er
ĠAbl auf
ĠKer ze
ĠschlÃ¤ gt
Ġpr iv
Ġnachbe stellt
Ġtelefon ieren
Ġspannen de
inten do
Ġvorder en
ĠVerf Ã¤r
ĠInteress ant
ĠStÃ¤r ke
ĠOrden tlich
ĠVerbind ungs
ĠVol umen
Ġirre fÃ¼hrend
ĠMill imeter
ĠannÃ¤ her
ĠYog a
ĠSUP ER
mechan ismus
ĠSchrittz Ã¤hler
1 1
A pp
I M
K W
O r
T B
c over
d apter
f Ã¤nger
g rad
k ette
k Ã¶rper
l ack
l ampen
w e
ei fen
Ġd ich
Ġd uf
Ġw omit
Ġm iss
ĠS auer
Ġb unt
Ġh ing
Ġh Ã¤ss
Ġh Ã¤nd
Ġz Ã¤h
Ġk ennen
Ġk reativ
Ġzu gesch
Ġv ia
ĠD Ã¼
ĠD rit
ĠD own
at o
el det
ĠG Ã¼nstige
ĠK Ã¶
ĠL atten
ĠH on
ĠM asse
ĠM acke
ĠE cho
ĠT om
ĠT ri
ĠT eils
rei bt
ge stell
ÃŁ er
Ġer scheinen
Ġver hÃ¤ltnis
Ġauf gestellt
Ġt at
ĠN etter
ĠN intendo
esch Ã¶n
am ent
ĠO l
ĠO ben
ĠSt att
Ġnach kaufen
ĠAn schaffung
Ġwei st
ĠÃ¼ber tragen
ĠÃ¼ber leben
sp h
ĠSp alt
ĠHand el
bar es
be kommt
Ġum s
ĠGer n
Ġent s
ĠC oole
ĠIn tens
schl Ã¤ge
Ġsp ann
Ġgew usst
Sch utz
ad eln
Ġunter scheiden
Ġange p
gesch windigkeit
Ġtop p
qu et
ess elt
ĠFil men
Ġkom ische
ĠKabel b
Ġihr em
Ġschw Ã¤cher
Ġgem erkt
Ġdeut schen
ĠHer stellung
ĠSpiel erei
ĠWochen ende
Ġlaut e
Ġfunktion ell
ĠCh ips
ĠÃľber ras
ĠÃľber setzung
Ġstark em
Ġ6 5
Ġverb indet
ĠKn ick
ĠPunkt zahl
Ġdrei mal
Ã¤hr end
ĠÃĸ sen
Ġweich es
ĠMo di
Ġro sten
schein ungen
ĠFl Ã¼ssig
ĠSchrauben dreher
fÃ¼hr er
ĠSm ooth
ĠKon zept
Ġanzu schauen
Ġanzu wenden
Ġverm isse
Ġmin us
ĠSh op
Ġversp Ã¤
Ġeinge drÃ¼ckt
ĠSonnen brille
weil ige
Ġel astisch
ĠFol gen
Ġwichtig sten
vent il
ĠRie sen
ĠWasch becken
ĠKla pp
Ġsei d
Ġanf Ã¤ngt
zeich nung
ĠZwei fel
sor gung
ĠThem en
Ġhalb es
ĠVari anten
ĠPort m
Ġfix iert
ĠWe b
ĠMund stÃ¼ck
fa ce
ĠBÃ¼ chern
nd l
ĠFlug zeug
Ġâ ĺ
ĠGrÃ¼n den
schalt ung
ĠFel gen
ĠCool es
Ġausreichen de
ĠvernÃ¼nft ige
Ġfuss elt
Ġiden tisch
ĠWÃ¼n schen
Ġprodu ziert
ĠVerarbeitungs qualitÃ¤t
ĠVerlÃ¤nger ung
verhÃ¤ltn iss
Ġungen Ã¼gend
ĠPrei ss
ĠCont ra
ĠBekann ten
ĠStrumpf hose
ĠursprÃ¼n glich
aku um
ĠBoxer sh
ĠOrgan izer
ĠBadem antel
ĠZut aten
ĠTel eskop
ĠElektron ik
ĠBam bus
owe en
agell ack
6 0
E G
H il
K arte
O k
P lay
U hr
b Ã¼cher
d am
f ragen
g ige
h te
k al
k appen
m ungs
o fen
r essen
r Ã¼ckt
t rÃ¤ger
u al
u sche
w atch
Ã ĸ
Ġ >
ei dig
Ġs aÃŁ
Ġs auer
Ġg laub
Ġw ichtige
as ert
Ġm ilch
Ã¼ fter
eh alter
Ġein t
Ġein sch
Ġein gehalten
Ġk u
ĠP en
ĠP Ã¼nktlich
at ratze
ĠL ein
ĠH Ã¼bsche
ĠH Ã¼ndin
ro lle
ĠM ei
ĠE w
ĠE ffekte
ĠT rau
Ġan geliefert
Ġan getan
ge st
ĠW M
ĠW ickel
och te
Ġp Ã¼nktliche
ĠSch eine
ĠSch aut
Ġver dreht
eit igen
reis p
ĠN Ã¼tz
ĠN ame
Ġbei spielsweise
ĠR ose
ĠR elativ
il itÃ¤t
ĠVer grÃ¶ÃŁ
ĠSt Ã¤be
anz Ã¶s
ĠU N
ĠEin s
ik a
Ġ- -
ĠHand lich
ĠHand schuhen
Ġvor m
hal tet
ĠJ u
eil er
Ġent sor
eg ment
ĠIn dukt
ssen sor
ke a
sst ark
ĠKl ick
Ġweiter er
ett chen
art ige
Ġde fekte
Ġher r
Ġher stellen
ĠRe flekt
ĠZeit raum
rÃ¤ ge
ĠNach hinein
Ġmeiner seits
ĠAus lauf
ĠVers uchen
ĠKinder garten
ĠBl in
ĠLe uchtet
Ġkon stru
Ġschw immen
Ã¼t teln
Ġeinwandfrei e
ĠVor hÃ¤nge
wie gend
rem ium
ĠDeck kraft
Ġen de
lo ck
vor hang
wen ig
ĠÃľber tragung
ucht ig
ĠUm schlag
Ġir rit
ĠDe lle
ĠKn all
sam keit
ĠTe x
ĠKle ben
ĠFern glas
Ġhe llen
Ġauss er
ĠPf annen
rit ten
ĠBen utzen
Ġordentlich es
Ġfl op
ĠbenÃ¶t igen
ĠTisch decke
St abil
Ġglei cher
ĠBer Ã¼hrung
ru he
Ġbek annten
Ġbek annte
Ġbez Ã¼glich
ĠSonnen ein
Ġangesch aut
order t
buch se
hand schuhe
Ġgro sse
ĠGegen teil
ĠSchlaf sack
leb nis
ĠNetz werk
fÃ¤h igkeit
zÃ¼ glich
ĠTherm o
ĠFle ck
ĠKar ne
Ġverg il
ĠSor te
Ġstra p
ĠKleider bÃ¼gel
Ġgesam ten
ĠBÃ¤ sse
ĠGerÃ¤usch pegel
ĠPr iv
ĠTief e
ĠKont ra
ĠLenk rad
fri st
stÃ¤nd ige
ĠschlÃ¤ ft
ĠOut door
leh ne
Ġnachvoll ziehen
spann ung
Ste cker
Ġschlei fen
ĠKil o
ĠRetour e
ĠLu pe
ĠToil etten
ĠWarte zeit
ĠDos ierung
Ġaussp rechen
Ġrech nen
ĠPinz ette
ĠBik ini
Ġzusamm enk
ĠTes a
Ġpen et
ĠOff ice
ĠInse kten
ĠInhaltsst offe
ĠLetzten dlich
ĠTed dy
ĠannÃ¤her nd
E M
E m
F ern
F Ã¤llt
K arten
M S
M usste
S terne
T e
b aut
b lech
d ar
f ung
h aube
k a
k ern
l ange
l Ã¶ffel
n der
n Ã¤chst
r ed
t rotz
ei en
ei ert
ie pt
Ġa pp
st ich
Ġg rÃ¼
Ġg ilt
Ġm ar
Ġn o
ĠS Ã¤ckchen
Ġun schÃ¶ne
Ġb rÃ¼
Ġb lass
Ġz ier
Ġz ahl
Ġk at
Ġf it
Ġf arben
Ġf raglich
ĠA pfel
Ġv eg
Ġv ibr
au g
Ã¶ se
el en
Ġl i
Ġl Ã¤nge
ach richtig
ĠB ull
ab wicklung
ĠF un
ĠF akt
ro cken
ĠM er
ĠE UR
ĠE mail
ĠT eich
Ġan g
Ġan hand
ĠW end
ĠW anne
Ġge dreht
Ġauf kleben
Ġt ritt
Ġbe den
Ġda zug
Ġda zwischen
ĠN et
ĠN agellack
ion iert
sen der
ĠO s
Ġall gemeinen
rie sen
la g
us h
zu bauen
wei chen
ĠProdukt ion
ĠÃ¼ber mÃ¤ÃŁig
sp ir
Ġpas sten
ĠSp ar
ĠEr inner
Ġ2 2
Ġent Ã¤uscht
ĠC hr
mit ter
ĠBe st
ĠBe zÃ¼ge
ĠAb weich
aus beute
Ġsp itzen
Ġsp iele
Ġsp iegelt
Sch le
Ġbesch eiden
ad io
Ġ4 8
weck er
Ġhier fÃ¼r
lÃ¤ uf
lÃ¤ gt
ĠBuch se
brau en
.... ...
Ġges ichert
eigen schaften
ĠSchu ltern
ĠKauf e
ĠLe uten
ĠBesch werden
Ġpassen des
Ġpraktisch en
Ġschw ache
etz ung
wo gen
Ġsicher en
dr Ã¼ck
Ġle ge
eich ter
eich ern
ĠHer zen
Ġbed arf
Ġwel chem
Ġged ruckt
ĠUm gang
oo d
ĠEmpfeh le
Ġschl immer
ĠTe elicht
Ġste uern
ĠVerk auf
Ġbesonder e
Ġdirekt en
ate g
Ġproblem atisch
ĠSchl icht
ander s
ren zt
Ġhei ss
Ġor g
ĠFahr en
Ġlesen swert
ĠMen sch
Ġfl ackern
Ġar tikel
ĠðŁĺ ħ
ĠðŁĺ į
ĠTon ne
ĠAuÃŁ er
St off
geh olt
ĠKap sel
Ġabge geben
Ġerfolg reich
ru ppe
ĠWerk zeuge
Ġbet rieben
Ġbet reiben
ĠFr is
ĠÃĸff nungen
Ġbez eichnen
ĠGegen stÃ¤nde
ĠInter esse
ĠKontakt aufnahme
ho lt
Ġzeit nah
ĠDar auf
ĠDar stellung
ĠLauf werk
Ġentsprechen den
ĠHandgel enke
Ġunver sehr
Ã¤m pfen
ĠMac book
Ġmo der
ĠWen iger
ĠRecht sch
ĠPa ste
ĠHoff entlich
ĠWh ite
ĠhÃ¶ch stens
ĠPlastikt Ã¼te
ĠglÃ¤nzen d
ĠWor te
mÃ¶ gen
ĠDir ndl
Ã¤mm en
ĠBlut druck
ĠerhÃ¶ ht
Ġnachvoll zieh
ĠVo gel
ĠGlÃ¼hbir nen
Des ign
Ġerinn ert
Ġreal istisch
Ġbere ut
Ġdreck ig
ĠLight ning
ĠGesprÃ¤ ch
ĠHilfs mittel
ĠMÃ¼nz fach
ĠVan ille
ĠKlam otten
ĠSaugnÃ¤ pfe
ĠSonnenein strahlung
Ġdazug ehÃ¶r
B rau
L an
L ampe
N E
P rima
P rom
d ichte
h Ã¤ngt
l uft
s ystem
t chen
t age
t Ã¼cher
t aschen
w Ã¼rde
z elt
st auglich
Ġg rav
Ġg Ã¤ng
Ġg ummi
Ġm echan
Ġm iser
an c
ĠS eil
ĠS ym
Ġi phone
Ã¤ ppchen
Ġh ielten
icht s
Ġein nehmen
Ġein gelegt
Ġein kaufen
Ġz ahlt
Ġzu schneiden
Ġnicht mal
Ġsch Ã¤
ĠG B
ĠG abel
ĠG ard
ĠB on
ĠL assen
ĠL Ã¤ngen
ĠL ink
ĠM achen
ĠM ate
ĠT ool
ĠW in
ĠW ob
ĠW ahrscheinlich
Ġer zeugt
Ġin dem
Ġp osition
Ġauf bewahr
Ġt eile
Ġt ags
and lung
ĠN ix
ĠN oppen
ĠN ahrung
Ġr unden
ĠR osen
ĠZ wie
ĠVer g
ĠVer arbeitet
ĠVer schenken
ĠVer mutlich
Ġst reiten
ĠPro be
ĠSt inkt
ĠSt reu
ĠSt adt
Ġdem nÃ¤chst
ed back
ent asche
Ġab schalten
Ġab bekommen
Ġab schneiden
la ut
wei st
wei cht
Ġschnell es
fe uchter
ĠProdukt ions
Ġok ey
Ġvor teil
hal me
ot ter
Ġgen annten
Ġgel ingt
ĠIn vest
Ġgef ragt
ĠAuf t
ĠlÃ¤ st
Ġdr ucken
art iges
Ġde zen
Sch uhe
Ġher an
br icht
ĠMat ratzen
ĠBo ot
lie s
lie ben
lie bt
ĠAus reichend
lau bt
Ġbrau chten
dlich e
men te
Ġeinz ur
umm t
Ġbes p
one e
Ġsicher er
dr inglich
Ġabsolut es
ĠgrÃ¶ÃŁer es
lo b
lo ser
form en
ak a
ob wohl
ĠOpt ion
ĠweiÃŁ er
ĠNacht tisch
rin k
Ġverb iegt
iz ierter
Ġschl anke
ĠSchw immen
ĠOhr stÃ¶psel
ĠBr etter
Ġpreis werter
Ġgest unken
ĠDruck qualitÃ¤t
ĠDruck knÃ¶pfe
ĠLuft blasen
ĠLiefer termin
ĠHa ftung
ĠEnt weder
ĠPf erd
âĢ ĺ
ĠGumm ir
ĠGumm ist
stoff e
Ġrobust es
ĠMank os
Ġwack eln
ĠLa ger
Ġdun kl
ĠPu ls
ĠKap utt
spr ache
Ġabge st
ĠHaus schuhe
opp eln
wir kungen
Ġeinge gangen
Ġaufzu bringen
sichtig t
Ġangesch afft
ĠGr Ã¼ÃŁe
ĠGrÃ¶ÃŁen angabe
schei det
ĠLÃ¼ ft
Ġwasser fest
Ġcool es
ĠRas ur
ustig es
ðŁĳį ðŁı»
ĠÃ¤uÃŁ ere
ĠVort eile
Ġzweck mÃ¤ÃŁig
ĠWe ste
Ġstra ff
ĠFÃ¼ll er
ĠLin ie
ĠProgramm e
Ġles e
ĠFrei en
ĠKugel schreiber
Ġeinzig ste
ĠLog ite
Ġunz ur
ĠErsatzt eile
wohn t
!!!!!!!! !!!!!!!!
Ã¤ss ig
Ġvorgesehen en
ĠKlem me
leh nen
Ã¤tt eisen
Geschmack lich
Ġgebo ten
Ġgebo hrt
ĠSchlÃ¤ uche
ĠStimm e
Ġtrag bar
ĠVerz Ã¶
Ġtrain ieren
ĠBeanstand ung
ĠEtik etten
ĠherkÃ¶mm lichen
ĠScharn iere
ĠKaffeem aschine
Ġbetr achtet
ĠbeigefÃ¼g ten
Ġschreck lich
Ġzerst Ã¶rt
ĠExempl ar
ĠEspr esso
ĠKok os
ĠgefÃ¤hr lich
ĠBeurt eilung
ĠOrd ner
Ġentsor gt
ĠWob ei
B esser
D e
G roÃŁ
G ibt
K opfhÃ¶rer
L A
T eil
Z unÃ¤chst
d Ã¼n
f ett
h ung
k ein
k elt
k anne
l och
m uss
p lastik
s werte
t op
w Ã¤hlen
z wei
Ã ©
Ġd ur
Ġd ehn
Ġs u
Ġs Ã¼
Ġs ynchron
Ġw ischen
Ġm atte
Ġm ochte
in te
an sonsten
Ã¤ ter
ar zt
Ġh Ã¶rbar
te chn
Ġf olgt
ig ment
ĠP fe
Ġsch utz
et ui
sch te
Ġl eg
ĠG ramm
ĠG oogle
ach er
ĠB em
ĠK enn
ĠK osmet
ĠF as
ĠF Ã¶n
ĠF ische
ĠL ab
ĠL ekt
ĠH appy
ĠM ust
ĠT att
ĠT ube
rei che
ge gangen
ĠW issen
ĠW aff
mm en
Ġge packt
Ġer gÃ¤n
Ġin ter
ĠSch alt
Ġver steckt
Ġmit halten
Ġauf nehmen
ste uerung
ĠI ST
ĠN udeln
Ġr unde
auf lage
ĠZ auber
ack er
Ġdem nach
ĠAn lass
ĠAn sich
ol gen
re ckt
Ġab gef
Ġab genommen
ĠEin horn
zu empfehlen
Ġschon mal
ze ll
ĠSp l
gel ung
Ġvor kommen
hal tlich
Ã¶r der
bl er
pack te
ĠC ar
ĠAb bruch
Ġ3 2
ĠgroÃŁ em
ĠWas sert
sst udio
ĠKl ima
Ġgew ohn
Ġgew achsen
ast elt
ĠRe de
ungs mittel
pl ung
ĠzurÃ¼ck zu
ĠGel egenheit
ĠSte ll
qu elle
Ġkurz es
ĠAus gang
Ġlang samer
ĠKabel n
Ġber Ã¼ck
Ġopt ische
umm e
Ġbill iges
Ġnormal em
ĠÃľber schrift
ĠGew Ã¶hn
ĠGew Ã¼rz
ĠAu di
ĠAnleitung en
ĠFl ip
arf um
ĠSchn ick
ĠSchn Ã¤ppchen
ipp e
ĠÃ¼berras chen
ĠKom bi
Ġbem erk
ĠSitz flÃ¤che
ĠðŁĳį ðŁĳįðŁĳį
ĠDen ke
Ġbet rÃ¤gt
Ġbek lagen
Ġzer legen
ĠÃ¶ l
arm in
ĠHil frei
ĠÃĦ nder
ĠAugen brauen
ĠSchlÃ¼ssel bund
gl Ã¼ck
ĠÃ¶fter en
ĠGr uÃŁ
Ġschlechter e
feh len
ĠReze pten
ĠFest platten
ĠSchle chter
Ġ15 0
ĠgrÃ¼n en
ĠKam in
ĠKomm ent
ib ilitÃ¤t
Ġglau ben
ĠAnder s
ĠAnder en
ĠMÃ¼ll eimer
Ġbewer tet
ĠAngenehm er
ĠHaupt sache
ĠWe llen
ĠÃ¤lter en
gut es
Ġlustig es
ĠVerbesser ungs
ĠFal sch
ĠIP ad
Ġsim p
ĠTages licht
jÃ¤hr igen
ĠWh isk
vert reib
Ġbeiliegen de
ĠFer se
Ġbein haltet
Ġiden t
ĠHeim werker
Ġredu ziert
Ġeig nen
ĠKamer as
Ġgetr ennt
ĠFavor it
Ġkorrig ieren
Ġsper rig
ĠDiff user
Ġgre ll
ĠHard ware
Ġgekauf ten
Ġstet s
ĠBug gy
ĠHall oween
ĠPortm onee
Ġvergil bt
Ġunversehr t
Ġtags Ã¼ber
B l
G el
G ek
L ei
L ade
N un
O R
b rochen
b Ã¤ndern
c ase
e o
f ast
i zen
j en
j edoch
k ennt
k arre
n ommen
o os
p istole
r uf
r ungen
t oll
v ol
v ant
w Ã¤hlt
z ufrieden
ch st
er ien
en ov
Ġd ecken
Ġs itz
Ġs tern
st Ã¼tze
Ġm en
Ġm ark
Ġm isst
Ġm ake
Ġm etall
Ã¼ ht
eh in
ĠS SD
ut et
Ġb las
ar ren
Ġz eigte
Ġau ssen
Ġf anden
ĠA lt
ĠA dr
au cht
ĠP arfum
el be
sch warz
ĠB lÃ¤
ĠK abell
ro ck
ĠM B
ĠM and
ĠM Ã¼hle
ĠE p
Ġan k
Ġan einander
Ġan gesetzt
Ġge fÃ¼t
ann er
ĠSch wie
Ġver glichen
Ġauf hÃ¶ren
ĠI kea
Ġaus hÃ¤lt
Ġaus waschen
Ġbe arbeitet
ĠN ass
hr er
ĠDie sen
ĠZ ettel
ĠVer sp
Ġst r
Ġst Ã¤nd
ĠO ne
ĠSt eht
Ġnach zu
len det
Ġab t
Ġmehr er
iefer n
ĠQ ualit
hn ehin
lei che
zu stand
ĠÃ¼ber s
ĠGut schrift
eck e
gel enk
ver l
ver schluÃŁ
ĠC rem
las che
Ġgel iebt
ĠIn s
Ġgef ressen
wer fen
ĠUn s
imm ert
Ġ4 00
stell te
Ġunter halten
Ġc ase
Ġverarbeitet es
ĠZeit vertreib
ĠGel enk
schie det
ĠNach richten
Ġfest halten
ust r
Ġgeh Ã¶ren
Ġselbst verstÃ¤ndlich
ĠBesch reibungen
ic s
kl emmt
ĠVor her
umm is
stÃ¤n den
bo ter
Ġrei bt
Ġzusammen ge
ĠHer r
Ġdick es
Ġbeh au
ĠOriginal e
ĠOriginal en
Ġproblem e
ĠBr enn
gem atte
ĠFl ur
ĠLiefer ant
prob iert
ĠDurch schnitt
druck t
Ġar m
ĠðŁĺ Ģ
Ġgeb unden
ĠMa ÃŁen
ĠTisch platte
Ġ7 5
ĠGes und
Ġgesp eichert
ko hol
ĠTabl ett
Ġfr ischen
ĠKarton s
Ġu hr
Ġhinter en
Ġleichte m
ĠRo uter
ĠRo boter
hem d
ĠgÃ¼nstiger en
Ġbl inken
Ġgro ssen
sau gen
ĠBall on
Ġtrocken e
ĠCD s
ĠKor k
ĠKor del
griff e
ĠSpÃ¼l maschinen
ĠÃ¤uÃŁ eren
ider stand
enkt en
Ġchem ischen
ĠÃĦr ger
Ġunver stÃ¤ndlich
ĠSor ge
Ġzerb rech
ĠNoch mal
ratz er
ĠÃ¼bert roffen
ĠStein chen
Ġverd ammt
schnit te
ĠSteckdosen leiste
ĠElekt ro
Ġkrie gen
wÃ¤r mer
schrau be
ĠEben falls
ĠStre cken
ĠLiebl ing
Ġverschm erzen
fig ur
sicher ung
schalt uhr
ĠExt rem
ĠKont akte
Ġtyp isch
ĠTor ten
weiter en
weiter ung
ĠLi quid
Ġausgesch altet
ĠRÃ¤um en
Ġgepl ant
stÃ¤nd nis
ĠOut fit
Ġausgeb lichen
nes ium
ĠGewissen s
Ġbestimm ten
Ġausb aufÃ¤hig
ĠIrgend wie
Ġbedien bar
Ġverbl asst
ĠKrim i
ĠVerÃ¤nder ung
Ġblasen frei
Ġalternativ e
Ġ**** *
Ġblick dicht
ĠJeden falls
ĠGrÃ¼ ÃŁen
ĠPflanz e
Ġkontroll ieren
Ġbeob achten
ĠBÃ¼ch lein
ĠunÃ¼ber sichtlich
ĠhÃ¤nd eln
Ġangep riesen
quet scht
ĠverspÃ¤ tet
ĠBoxersh orts
mungs aktiv
ĠVergrÃ¶ÃŁ erung
ĠLogite ch
Ġbemerk bar
) )
A l
A dapter
C h
G ing
G Ã¼nstig
I D
I R
I e
K urz
M on
M ehr
P lastik
a kku
b ur
c ara
e ffekt
g urte
k appe
k raut
n ummer
p asta
r es
s u
u ller
Ġs h
Ġs Ã¤mtliche
Ġm obil
Ã¼ llt
Ġn ull
ĠS upi
ĠS inne
Ġun iver
Ġb uch
Ġb aby
Ġb Ã¼geln
ar ent
Ġh Ã¤llt
Ġh arten
Ġein ra
Ġein legen
Ġk Ã¼hlen
Ġf as
Ġf esseln
Ġv llt
ĠD o
ĠD Ã¼se
ĠP on
Ġsch eu
Ġsch iebt
sch Ã¤um
Ġl ager
ĠG lieder
ĠG armin
ĠB utton
ab weisen
ĠK isten
ĠK Ã¼hlt
ĠF or
ĠF alle
ĠF ummel
ir me
ĠH erd
ĠE ck
or ien
ĠW aden
ĠW ischer
ĠW Ã¤hrend
Ġer mÃ¶
ĠSch aft
Ġver schieben
Ġver beult
Ġauf w
Ġauf fallen
Ġauf liegt
Ġt eilen
and i
ĠV W
Ġaus geht
Ġbe achtet
Ġr ate
il dern
Ġj etz
Ġj Ã¼nger
ra te
ĠVer brauch
ĠVer gangen
ĠVer schluÃŁ
sen de
ĠSt ich
Ġnach helfen
Ġab waschen
Ġab spielen
ĠEin schalten
la ken
zu bekommen
ĠGut schein
sp aren
ang el
ĠSp rÃ¼
ĠEr de
be g
ĠGer ichte
ĠJ an
ĠBe stellen
Ġgek Ã¼rzt
Ã¤r m
Ġdurch gelesen
wer g
wer de
wer ten
Ġre geln
ĠSo wohl
Ġlie bl
Ġsp itz
Ġgew iss
est ern
ett es
Ġbesch reibung
Ġ4 1
Ġ4 6
Ġhier zu
ungs zweck
Ġc o
dig ung
pl atzt
Ġperfekt en
ĠzurÃ¼ck geben
ĠHandy halterung
Ġhin weg
Ġhin bekommen
ĠAus fl
ĠStern chen
Ġber eitet
ĠLicht farbe
ĠLicht ausbeute
Ġuns icher
Ġeinz igen
ĠVor rat
ĠAkku leistung
ĠDis co
vor richtung
Ġsit ze
Ġzusammen zubauen
wen der
ob ile
ĠPer sÃ¶n
Ã¶t igen
ĠÃľber sicht
Ġschl ichte
ĠTe am
ĠKle bt
Ġschick er
ĠEinfach er
Ġkn all
ĠmÃ¶glich st
ĠFl u
Ġauss ah
ĠArmband es
Ġvers andt
Ġne utr
ĠSchrauben zieher
ĠMontage anleitung
ĠBen achrichtig
Ġausge gangen
ĠRad fahren
ĠSti ften
voll er
ĠsÃ¼ÃŁ es
Ġanzu ziehen
Ġangeb r
ĠMus kel
fl usst
ĠStand by
setz er
ĠUr teil
ĠheiÃŁ e
grÃ¶ÃŁ en
Ġinteress anter
ĠSol ider
ĠTablet s
ĠLei ter
Ġarb eite
Ġtrocken en
Ġfein er
Ġqu er
Ġ201 6
Un ter
pr es
umen te
Ã¶l bt
ĠTest s
ĠPat rone
ĠZahn bÃ¼rsten
ĠKÃ¼hl ung
Ġbel ast
Was ser
ĠMÃ¤ del
ĠSchick es
ĠReise fÃ¼hrer
Ġerg onom
Ġbevor zu
ĠSens oren
ĠFuss eln
Ġtransport iert
zum achen
ĠFeuer wehr
Ġgeschm eckt
Ġgeschm eidig
ï¸ı âŃĲ
wÃ¤r ts
Ġintegr ierte
Ġunterst Ã¼tzen
Ġausger eift
ĠAbstrich e
Ġaktiv iert
Ġreklam ieren
Ġaufgeh Ã¤ngt
ĠPe eling
Ġnah m
Hand y
ĠHÃ¼ fte
ĠausfÃ¼hr lich
ĠKleink inder
mess ung
mess ungen
ĠIsol ier
spro blem
He ute
igit al
Ġgekn ickt
ĠTrans mitter
ĠZiffern blatt
schÃ¤ mt
Ġbeeindruck t
Ġerleich tert
intens iv
Ġmerk wÃ¼rdig
Ġbeigeleg ten
Ġmittler en
Ġdetaill iert
ĠalltÃ¤glich en
ĠFitnes sstudio
wieder gabe
Ġverab schiedet
ĠLatten rost
ĠWM F
reisp rech
Ġkonstru iert
ĠKarne val
ĠgrÃ¼ ne
ĠProduktions fehler
ĠInvest ition
Ġeinzur ichten
ĠLÃ¼ft ungs
ĠWhisk y
Gek auft
ĠVergangen heit
: -)
B r
L aut
M ontage
S on
V ielen
W ei
Z iemlich
b zw
c rem
f ie
f ert
g Ã¤ngen
g licht
i h
k reis
k inder
l etzt
m eine
m essen
m atten
s zeit
w elle
x l
y g
z gl
ei zt
Ġd ein
st re
st iegen
st ropfen
Ġm Ã¤
Ã¼ gt
Ã¼ ftet
Ġn em
ĠS T
ĠS AT
Ġun gleich
Ã¤ ckt
ut age
Ġb aut
Ġein druck
Ġzu gleich
Ġzu verlÃ¤ss
Ġzu kÃ¼n
ĠP il
ĠP ed
ĠP la
ĠP remium
Ã¶ ÃŁt
Ġsch uld
Ġl achen
ĠG eil
ĠB rÃ¤
ĠB ecken
ab bel
ĠK g
ĠK it
ur n
ĠL ehr
ĠL ow
ro ll
ro cknen
ĠM obil
ĠT at
ĠT rÃ¤n
ĠW ild
ĠW eite
Ġer satz
ĠSch war
Ġo hnehin
Ġver lei
Ġver fÃ¼gt
Ġver mittelt
ss ystem
Ġauf gebracht
Ġhab t
Ġsich ere
sen ten
is ation
Ġet liche
ĠAn satz
ol er
ol ge
ed it
ĠU tens
Die sen
fe ste
ĠÃ¼ber w
Ġ- >
Ġe kl
ĠSp ir
ft ige
Ġvor aus
Ġvor gegeben
Ġlei sten
rÃ¶ selt
hal ber
Ġum get
Ġum sehen
ĠJ ungen
ver sorgung
Ġent f
Ġent wickelt
ĠSter eo
ot ograf
mit tag
ri d
Ġ3 7
Ġgel e
Ġgel blich
ĠAr tik
ĠAr men
Ã¤r te
Ġgef altet
Ġdurch s
ĠAll gemein
ĠAuf bringen
geb o
utz utage
Ġsp Ã¼len
ĠKl eint
Ġgew Ã¤hr
Sch aut
Ġbesch lÃ¤gt
ragen de
br ennen
ĠFarb wechsel
ĠFarb auswahl
enk issen
Ġange wendet
eigen tlich
ĠWer den
Ġbeschrieben en
ĠKinder hÃ¤nde
ĠBl Ã¶
ĠBl Ã¼ten
Ġkon zentr
etz te
Ġgem ein
Ġgem eldet
Ġeinz iger
ĠNa pf
ĠAkku schrauber
ĠUnter teil
lo ad
Ġerf r
kle be
ĠPunkt en
Ġverl Ã¤nger
Ġproblem lose
ĠLie gen
ĠÃĸ se
ĠMo d
Ġgl itz
ĠFahr er
ĠHalt ung
ĠSchn eide
ipp el
ĠHÃ¤n gematte
ĠKind heit
Ġdarauf hin
ĠTo uren
Ġanzu schlieÃŁen
ĠSchm etter
Ġverm uten
Ġfr ische
ĠDank eschÃ¶n
Ġerh ielt
ru ktur
ĠtÃ¤glich er
Ġvert rÃ¤glich
ĠGummi zug
ĠAnf rage
Ġbrei ten
ĠFehler meldung
Ġangesch rieben
ĠHÃ¶ schen
Ġide e
ĠSol ides
Ġbl Ã¤ttert
Mein er
hand el
ĠHin weise
ĠWunder bar
ĠBeg eistert
ĠMas ken
ĠPanzerglas folie
wech seln
werk zeug
Ġus b
ĠGenau igkeit
ĠWeihnachts baum
Ġplatz ieren
ĠStra ÃŁen
ĠErf indung
Ġgrau en
ĠDusch vorhang
ĠAngenehm es
ĠauÃŁer gewÃ¶hn
ĠFlÃ¤ schchen
Ġverschw inden
ĠFe edback
Ġauszu probieren
rein igung
ĠBrau cht
ĠMess ung
ĠBewegung ssensor
Ġtau glich
ĠSand alen
ĠMak ita
ĠKur ze
els Ã¼b
ĠInform ation
ĠElekt r
Ġelekt ron
Ġâ ŃĲ
Ġverschm iert
Ġkratz ig
ĠDro gerie
ĠEinkauf s
ĠRezess ion
ĠLocken stab
Ġaufget ragen
Ġnachbe stellen
Ġelektr ische
ĠWÃ¼n sche
Ġras ieren
Ġkeines falls
Ġsport lich
ĠBeanstand ungen
ĠGlÃ¼hbir ne
ĠSchlie ÃŁen
part y
ĠBit s
Ġlog isch
Ġgrei ft
Ġdos ieren
ĠPark ett
ĠBenutz er
ĠZuf all
ĠPal ette
ĠwÃ¤rm stens
ĠHor ror
Ġfant astisch
ĠVerschlei ÃŁ
Ġprogramm ieren
ĠLamin at
ĠProtagon isten
ĠOberschen kel
ĠoberflÃ¤ chlich
ĠPreiss egment
ĠLein wand
ĠOs ram
ateg orie
ĠPfe ffer
ĠgefÃ¼t tert
ĠSchwie ger
ĠermÃ¶ glicht
% .
A Z
H ose
K n
K le
K omm
L E
N acht
S itz
U F
V ie
a f
a in
b ten
b raun
d anke
d essen
d Ã¼se
h etisch
i an
i me
k alender
k leid
m Ã¼
m ir
o ter
o ckt
r ant
s itz
t rakt
w urf
y e
z eiger
z Ã¼gig
er blatt
Ġd ram
Ġd isplay
Ġs ur
Ġs ter
Ġa cht
Ġw ochen
es p
an er
Ã¼ s
Ã¼ chern
Ġn ennen
ĠS ne
ĠS Ã¤u
Ġun gesch
Ġb le
Ġh arm
Ġz erd
Ġk och
Ġk raft
Ġk ippen
Ġk ratzen
on ic
Ġf le
Ġf ing
Ġf ahre
Ġf Ã¤rben
it y
ĠA c
ĠA bt
ĠA pr
ĠA ktion
ĠA PP
Ġzu zu
ĠD ingen
ĠD ock
ĠP rin
Ã¶ sen
Ã¶ tet
Ġsch uhe
Ġl andet
ĠG E
ĠG ang
ach ter
ĠB ag
ĠK a
ĠK ass
ĠK alt
ĠK ino
ĠK aka
ĠF Ã¤chern
ĠL age
ĠL ob
ĠL Ã¤tzchen
ĠH an
ĠM ehl
ĠT hr
Ġan legen
or dnung
ĠW es
ĠW em
ĠW ow
ĠW olf
Ġso und
ĠSch ie
ĠSch Ã¤
ĠSch icht
ĠSch arf
ĠSch atten
ĠSch ieber
Ġo f
Ġver ein
Ġver kleben
Ġauf setzen
Ġt age
ĠV olle
ĠV Ã¶llig
ĠV akuum
Ġaus gesprochen
Ġbe frei
ĠN ein
auf el
ĠZ unÃ¤chst
ier ungen
Ġst Ã¼ck
ĠPro m
ĠO ffen
ĠAn al
ĠAn ziehen
ĠAn merk
anz erglas
war m
iv en
ĠProdukt f
sp annen
Ġwer d
ĠSp igen
Ġ2 7
Ġ2 8
fÃ¼ m
fÃ¼ gen
ag net
Ġger Ã¤u
ĠBe ster
ĠBe ule
ĠAb hilfe
net z
Ġ3 4
Ġgel eistet
ĠGe kauft
Ġgef esselt
Ġleicht gÃ¤ngig
ke te
schl oss
ĠKl emmen
Ġgew alt
Ġgew ollt
Ġbesch wert
Ġgesch ul
Ġgesch raubt
ĠzurÃ¼ck gesendet
ĠGel b
rÃ¤ gen
rÃ¤ hte
ĠFil ament
ĠBl ack
Ġschw Ã¤ch
ic o
ĠPl ug
Ġbeg renzt
kl ing
ĠFunktion s
Ġbes itzen
ĠVersand t
erv e
Ġrei ben
ĠStoff es
Ġblei be
ĠweiÃŁ es
Ġdick ere
ĠDe fekte
iz ieren
ĠTe es
Ġverl angt
ĠEinfach es
ran st
Ġirgend was
mÃ¤ÃŁ igen
ĠMag nesium
All erdings
Ġempf and
ĠGl Ã¤tteisen
ĠFl Ã¼gel
die se
Ġvers orgt
rit te
ftig ung
ĠAuss etzer
ĠTo ur
War en
Ġbem erken
Ġglei tet
Ġnerv en
schlag geben
Ġbie gsam
ĠSitz kissen
Ġaufge blasen
ĠwÃ¤r mer
ĠKap itel
ĠFinger spitzen
Ġabge deckt
ĠWind eln
wir d
wir ken
Ġvert rauen
Ġbet Ã¤tigen
ĠGeh Ã¶r
ĠFr ische
ĠGewicht s
Ġend et
Ġunge wÃ¶hn
ĠReinigung st
ĠInnen futter
Ġex terne
ĠGlÃ¤ser n
Ġreag ieren
ĠSaug napf
ĠImmer hin
Ġverwende te
ĠhÃ¶her e
Ġwech selt
ĠFit bit
ĠKraft aufwand
ĠBÃ¼gel eisen
ĠNÃ¤ chte
Ã¤chst es
ĠBeh andlung
Ġeins eitig
gesp ielt
ĠKomm ode
Kl eine
Ġneben einander
ĠAlltag s
pd ates
ĠChar ge
Ġbewer te
Ġnutz los
Be stellt
ater ne
Ger uch
Ġfe uchten
ĠBrief umschlag
ĠVerl ust
ĠKleider schrank
ĠAnbie tern
ĠSe x
ĠWetter station
ehn lich
ĠWieder hol
ĠPa kete
ĠPr esse
Ġerstaun t
ĠProf is
ĠSchau kel
Ġbean spr
Ġumge stiegen
Ġkontakt ieren
Ġfehler haft
ĠvernÃ¼nft igen
ĠHal ogen
ĠTre ppen
Ġbeweg lich
sÃ¤ cke
Ġretour n
ĠSha ker
ĠGrafik karte
musch eln
Ġfett ig
ĠLegg ins
ĠLangzeit test
mut ung
Ġstimm ig
ĠEtik ett
ĠWel pen
ĠHol zt
ĠMechan ismus
Ġerzie lt
Ġerzie len
ĠKo hle
Ġern st
ĠAN C
ĠHaust Ã¼r
ĠFestiv al
Ġkul ant
Ġanbie ten
ĠSort iment
Ġsan ft
ĠAccesso ire
Ġbeein flusst
ĠDrit tel
ĠDown load
ĠEw igkeit
ĠTex te
Ġnachvollzieh bar
Ġank amen
ĠMÃ¤del s
Ġumget auscht
. !
3 8
B er
H a
H alten
L ange
M uss
N ette
O ptik
R ay
T V
T otal
V oll
Z wei
a gel
b al
f assen
g Ã¼nstige
l et
m Ã¤ssig
o om
r ung
r Ã¼ck
z ange
er ne
en e
Ġd ienen
Ġd auern
Ġs w
Ġs enk
un ten
Ġa lltag
st eiger
st ufen
ein chen
Ġw achsen
Ġm Ã¤n
Ġn er
Ġn et
Ġn assen
ĠS Ã¤
ĠS umme
Ġun stabil
Ġun klar
Ã¤ us
Ġh ak
Ġh undert
Ġein richten
Ġz art
Ġz auber
Ġk opf
te ller
Ġf Ã¤nde
ig h
ĠA V
Ġzu bereitet
ĠD ick
au gt
ĠP rÃ¤
ĠP rÃ¤sent
Ã¶ gert
Ġsch enken
sch aden
ĠG ame
ĠB i
ĠB ie
ĠB rÃ¶
ĠK rie
ĠK rÃ¼
ĠK unde
ĠK rallen
ĠF o
ĠF rÃ¤
ĠF ix
ĠF reisprech
ĠL Ã¶t
ĠL ite
ĠH ar
ĠT ransp
ĠT aster
ĠT inte
de st
or ten
ĠW olle
ĠW eder
Ġge prÃ¼ft
Ġp rÃ¼
ĠSch eint
ĠSch ienen
ĠSch alen
ĠSch iene
ĠSch immel
Ġver bauen
Ġver legt
Ġauf ziehen
Ġauf einander
Ġauf fÃ¤ll
Ġt on
Ġt rÃ¼
Ġaus gesetzt
le kt
ĠN ice
ĠR em
auf nahmen
ra iner
ĠZ aun
Ã¤n digen
sen k
ĠO ver
ĠSt ill
ĠAn schluÃŁ
Ġab machen
Ġmein te
Ġsuper schnell
op t
ik an
Ġwieder ver
ger ne
ĠÃ¼ber sch
ĠSp ur
ĠEr g
ĠEr leich
ĠEr halt
Ġzuf Ã¤llig
Ġzufrieden stellen
Ġum t
Ġent schlossen
ot or
Ġger utscht
Ġwirklich e
ĠBe festigen
ĠBe friedigend
ĠAb schluss
ĠAb nehmen
ĠAb bild
ĠFÃ¼r s
Ġgel be
aus fall
ĠOr ange
ĠGe fr
ĠIn st
iger e
Ġgef orm
Ġdurch einander
ĠUn kraut
ĠAuf hÃ¤ngen
ĠAuf ladung
ĠlÃ¤ d
Ġsp eichern
Ġgew orfen
ad el
ĠRe ste
Ġc reme
Ġwo anders
hÃ¤lt nisse
Ġperfekt es
ges ucht
ĠDes weiteren
ĠBo gen
rÃ¤ ume
richt et
Ġneu g
ĠWir k
ĠAus schalten
ĠVers uche
Ġrichtig es
Ġber eue
ic er
Ġgem ischt
Ġbeg lei
ĠRÃ¼ck stÃ¤nde
spre ch
ĠMal en
ĠPlastik verpackung
ha fter
ĠStoff e
An leitung
Ġfunktion ierten
Ġraus nehmen
ucht ung
ĠKr one
ĠKr edit
ĠGeruch s
ip per
Ã¶ff ner
Ġweg schm
Ġins o
Ġschl uss
Gut en
Ġbesonder en
Ġschick es
ĠOhr hÃ¶rer
Ġpreis gÃ¼nstig
Ġgest alten
ĠDruck knopf
ĠSchl itz
Ver bindung
ĠLade vorgang
ĠLuft polster
Ġempf inden
ĠSohn es
Ġhe ftig
ĠKlein igkeit
ĠEnt fernen
erk leid
ĠArmband uhr
ĠpersÃ¶n lichen
Ġausge wÃ¤hlt
Ġfl ache
Ġkle be
ĠLa une
lÃ¤ss ig
Ġgesp rungen
ĠSound bar
ĠPerfekt es
Ġunangenehm e
ĠGen erell
iegel ung
fl Ã¼ss
Ã¼hr ungs
ĠVerbindung sst
Ġ9 9
ĠSomm erkleid
ĠStand fuÃŁ
ĠZusammen fassung
schn ack
ante lung
ĠWohn wagen
ĠWohn mobil
ĠPunkte abzug
ischer weise
ĠEmpf ind
ĠStr ick
Ġstar tet
ĠLaptop s
ĠKoffer raum
pro be
Ġfein es
ĠWeiter en
ĠwÃ¼r d
Ġsah en
ĠnÃ¤ hen
ĠKlett verschlÃ¼sse
ĠPositiv e
jekt ive
Ġgelungen es
Ġdopp elte
ĠStra hl
rich en
ĠDeut sche
kla pp
ĠWe ge
ĠMÃ¼ s
Ġinteressant es
ĠSekunden kleber
ĠAuÃŁen bereich
gebrau cht
ĠShirt s
Ġ18 0
ĠKleidung sst
ĠLack ierung
ord net
ĠHig h
Ġzuvor kommend
ĠSchul d
rain ing
Ġgr us
wohn te
ĠkrÃ¤ft ige
mach er
ĠDir ekt
pu sten
Ġbedenken los
Ġquiet schen
wechs lungs
ĠBaumw oll
normal en
---------------- ----------------
Ġklass ischen
ĠKop plung
ĠJahres zeit
autom atik
Mo dus
ĠverstÃ¤r kt
ĠEinstell mÃ¶glichkeiten
forder ung
ĠfÃ¼hl te
ĠSur face
Ġeinsatz bereit
ĠErklÃ¤r ung
ĠGit arre
Ġbeschri ftet
ungsver mÃ¶gen
ĠSchnor chel
ĠspÃ¤te stens
Ġerwei tern
ĠbefÃ¼r chte
Ġklebr ig
Ġirgendwel che
Ġinn ere
ĠVerfÃ¤r bungen
Ġspann ender
Ġaufbewahr t
Ġdehn bar
ĠJan uar
Ġbelast bar
Ġgeschul det
+ +
2 5
A C
A h
E ffekt
K T
M al
O L
R ob
U SB
a he
b rech
d ungen
e ge
f aser
g uss
g laub
h urt
k ul
k anten
m i
m asch
n st
n atÃ¼rlich
p osition
p assung
r ick
t yp
w ann
Ġ ???
ch eln
Ġs er
Ġa s
st ung
st isch
st ark
Ġw e
Ã¼ chter
Ġn Ã¶tige
ĠS ein
ĠS ir
Ġun zu
Ġun glÃ¼ck
Ã¤ d
ut sch
Ġb acken
Ġb unte
Ġz eichnen
Ġf ach
it schig
it Ã¤ten
ĠA st
ĠA ug
ehr en
au bt
ck ig
ĠP ix
at sch
el ess
sch Ã¤r
sch reiben
ĠG Ã¼r
ĠG ast
ĠG imm
ĠG rillen
ĠB T
ĠB aut
ĠK un
ĠK Ã¼h
ĠK ontrolle
ĠF ack
ĠF eier
ĠF okus
ĠL AN
ĠL aser
ĠL appen
ĠL eichter
ĠH mm
ĠH ue
ro hr
ĠM iss
ĠE ar
Ġan fang
Ġan gesehen
ge pÃ¤ck
or te
ĠW ol
ĠW eck
ĠW ill
ĠW lan
ĠW iderstand
Ġden k
Ġge fÃ¼hrt
Ġver p
Ġver stecken
Ġver lassen
Ġauf gesch
Ġauf bewahren
ĠI pad
Ġt reten
Ġwie viel
Ġr eine
Ġbei gelegt
ĠR eicht
ser scheinungen
ra ll
ĠVer stÃ¤ndnis
am ik
is ha
um enk
ack ert
ĠSt einen
Ġall erg
re am
Ġab wischen
ĠU S
ĠU pdates
ĠEin lagen
ĠEin sÃ¤tze
mal en
ik al
ĠÃ¼ber stehen
ĠÃ¼ber steht
ĠÃ¼ber prÃ¼
ĠÃ¼ber flÃ¼ssig
sp reis
sp ort
sp rodukt
Ġwer fen
ĠSp an
hal m
fÃ¼ hlen
uck sack
ĠJ edes
ver stellung
Ġent schied
ĠC om
mit t
Ġgen annt
ĠBe stell
ĠOr igin
ĠGe p
Ã¤r en
Ã¤r ten
ĠIn g
ĠIn zwischen
Ġgef ahren
schl os
Ġerwar t
geb r
Ġweiter zuempfehlen
Ġhin stellen
Ġte st
ĠBo se
Ġvoll sten
lau be
Ġkom ischen
Ġsonst ige
ĠgrÃ¶ÃŁ ten
rob oter
ĠMein em
Ã¼t chen
zie he
Ġopt ischen
ĠUnter t
ĠgrÃ¶ÃŁer er
Ġzusammen bau
ob el
unter lage
ĠÃľber zug
gef asst
Ġhand elsÃ¼b
Ã¶ff nung
ĠTe sten
ĠOriginal verpackung
Ġklar er
ĠDruck stellen
Ġempf angen
ĠLaut stÃ¤r
Ġverst opft
Ġzw ingend
Ġget rocknet
Ġoptimal en
ĠSchn eiden
ĠSchn uller
schlie ssen
rÃ¤n ken
ĠKon sole
Ġgeb astelt
lÃ¶ ser
ĠLa ken
id as
ĠSmart watch
lÃ¤ss lich
ĠZufrieden stellend
ĠPerfekt er
ĠGroÃŁ es
ĠRezen senten
Ġletz ter
Ġpl an
fl ix
ĠtÃ¤glich e
stÃ¤ndig keit
ĠDam e
Ġeinge steckt
weil igen
ĠSpr itz
ĠNÃ¤h maschine
Ġoffen bar
Ġide ale
Ġprob iere
oten t
ĠNe bel
ĠNe ffen
ĠHin sicht
ĠMittel maÃŁ
ĠMas cara
ĠBesser ung
Ġha ve
ĠBetrieb s
Ġersch rocken
sh aube
ĠDar Ã¼ber
ĠDrucker patronen
ĠRÃ¼cken schmerzen
ĠRÃ¼cken lehne
ðŁĳį ðŁı¼
ĠZahn pasta
ĠQu ad
Ġbrauchbar e
ĠFehl ern
ĠRoll os
ĠverstÃ¤ndlich e
Sp annend
Ġklapp ert
ĠNot izen
Ġautom atische
stra hler
ĠBade anzug
Ġkusch el
ĠspÃ¼r en
ĠSe e
produkt en
ssp iel
ĠBet r
ĠFa ke
ĠPassen d
ĠKling elt
ĠGest altung
ĠCl ips
Ġmer ken
Ġdekor ieren
Ġdeutsch er
astrop hal
hei mlich
ĠMel o
Ġintegr iert
vert eilung
ĠStar ter
Ġaktiv ieren
Ġsilber ne
Ġluft ig
ĠAnwend ungs
Ġgepl atzt
ĠSzen e
Ġzuges agt
Ġzuges andt
ĠSl im
lin sen
ĠKleink ind
ĠNutz er
ĠDoppel pack
ĠStÃ¶r ungen
ĠKrÃ¤ uter
vie lleicht
spl atte
ĠToil ette
ĠanfÃ¤nglich en
ĠFla mme
ĠOn line
Ġsub jektiv
ĠStark er
__ __
Ġletzt es
ĠTape te
Ġtransp aren
Ġschmutz ig
ĠBas is
ĠFass ungsvermÃ¶gen
Liefer zeit
ĠMult i
Ġabgerund et
Ġdimm bar
ĠSitu ationen
ĠbrÃ¤ uchte
ĠMf g
ĠGleit gel
Ġpo wer
ĠReiss verschluss
ĠGener ation
Ġents orgen
Play er
ĠBlin ker
ĠbrÃ¼ chig
ĠRechtsch reib
Prom pte
ĠgÃ¤ng igen
ĠWassert ank
ĠHilfrei ch
abweisen d
Ġungleich mÃ¤ÃŁig
ĠSchmetter linge
Vie lleicht
Ġinso fern
ĠMÃ¼s li
- ,
4 2
B atterien
D ruck
E T
H er
H och
T o
a llt
e p
f liegen
f leisch
h et
k ind
k Ã¼hl
l iefern
m on
m ung
p o
s eiten
s gemÃ¤ÃŁ
w s
w el
z es
Ġ <
Ġ ^^
Ġd ing
Ġd ato
Ġs age
Ġs eiten
Ġs mart
ie p
ie ÃŁt
st em
st oÃŁ
st ufe
st Ã¤bchen
Ġg rund
Ġg rÃ¶sse
es h
Ġn ummer
Ġn etten
ĠS y
ĠS ing
ĠS aun
Ġun eben
Ġun scharf
Ġun heimlich
Ġb lieben
Ġb zgl
ar me
Ġein gelaufen
Ġz un
Ġk ipp
Ġk opfhÃ¶rer
Ġk Ã¤mmen
Ġau gen
Ġf or
Ġf ragen
ĠA kzept
Ġzu st
Ġzu ck
Ġv ol
ĠD imm
ber ry
ĠP ink
ĠP ause
ĠP aÃŁt
Ġsch o
Ġsch ei
Ġl Ã¤ng
ĠG re
ĠG olf
ĠK aum
ĠK reativ
ĠF air
ĠL ast
ĠL asche
ĠH Ã¤
ro ller
ĠM ach
ĠE qu
ĠE ventuell
ĠT inten
Ġan halten
Ġan stelle
ge eignet
or ad
or etisch
ĠW ald
ÃŁ end
Ġge pf
ert if
Ġp s
Ġo ff
Ġver liebt
Ġauf gemacht
Ġauf dringlich
Ġt rÃ¤ge
Ġaus gehen
Ġaus gehalten
Ġaus wÃ¤hlen
Ġbe antwortet
ĠN O
ĠN eig
ĠN Ã¤chstes
Ġbei ds
hr azit
ĠZ ieht
ĠVer gnÃ¼gen
ĠVer hÃ¤ltnisse
Ġst reifen
Ġst ufen
ĠPro zess
ĠSt Ã¼rze
ĠAn lauf
iert es
uf el
anz Ã¼nder
ol a
re kte
ent eil
Ġab k
Ġwei ten
ĠEin setzen
ĠEin richten
op s
Ġwieder holt
ĠÃ¼ber einander
ĠÃ¼ber wiegend
Ġok e
ĠHand griff
gel eicht
erd ing
Ġvor ab
Ġlei ert
rÃ¶ h
be et
fÃ¼ hle
fÃ¼ ÃŁe
Ã¶r m
Ġum so
ĠJ acken
ĠJ ump
ver b
Ġent wickeln
ot he
ot rotz
Ġger ichtet
ĠC a
ĠC le
ĠC arb
ĠC re
wert iger
ien te
ĠAb drÃ¼cke
ĠAb messungen
ĠAb senk
Ġgel andet
ĠgroÃŁ zÃ¼gig
ĠGe eignet
ĠGe braucht
abe lle
Ġdurch hÃ¤lt
Ġdurch gÃ¤ngig
ĠSo ck
ĠSo fort
Ġsp rÃ¶
Ġsp ass
Ġsp annt
eig ten
ĠGerÃ¤t s
Ġzwei ter
br ingt
Ġc rem
Ġdar stellen
pl us
pl ittert
ĠZeit schaltuhr
richt er
ĠWir eless
lie gend
Ġkurz fristig
Ġvoll em
ĠAus nahme
ĠAus lieferung
Ein wandfrei
ĠmÃ¶ chten
Ġselbst stÃ¤ndig
ĠKopf kissen
ĠPl at
Ġeinz us
ĠVor bereitung
ĠUnter leg
eich net
Ġrei ch
An sonsten
ĠCh in
gef lÃ¤
ĠFre ue
ĠDe o
ĠDe z
Ġhell blau
Ġschl amp
Ġste ck
schu b
so fern
ĠLie b
Ġschm erzen
Ġweich em
Ġsol ches
ĠLuft fe
Ġro stet
leist et
Ġhe utzutage
Ġoft mals
ĠFeh lende
Ġoptimal e
ĠEinsatz zweck
ĠSchn eider
rÃ¤n kte
ĠOber weite
ĠbeschÃ¤ dig
affe e
Ġversch oben
ER T
lÃ¶ st
ele vant
Ġbem alen
Ġna ht
ard ose
Ġvorhanden e
Ġbie gt
ĠKap u
Ġpl att
ĠTra ck
ĠKarten fÃ¤cher
Ġhinter her
Ġvert rÃ¤gt
ĠCo de
Ġbek ann
ĠFuÃŁ ball
ĠwÃ¼n scht
ĠStand festigkeit
setz ten
ĠZusammen bauen
Ġerw Ã¤r
ĠTro cknen
schn eidet
ĠÃĦ ste
ĠSam stag
ĠSpann bett
Ġteur es
Ġliebe voll
ĠInnen raum
ĠNe ffe
ĠDauer betrieb
ĠDauer einsatz
ĠSchlaf anzug
pro dukte
ĠKÃ¶r bchen
nt ag
Ġx xx
Ar m
ĠSer um
ĠBad eh
ĠSaug kraft
ĠGar n
ĠBed ing
ĠBesser es
Ġstellen weise
ĠFir men
herm ometer
ohlen sÃ¤
zÃ¼ gen
ĠKritik punkte
ĠNichts dest
ĠKÃ¶rper grÃ¶ÃŁe
Ġdrau ssen
Ġabzu warten
Ġleuchten d
ĠnÃ¼tz liches
Ġunver schÃ¤mt
Ġeingebaut e
ĠMutter n
Ġ:- ).
ĠSchne cken
ĠLin se
ĠGesamt eindruck
ĠSÃ¼ÃŁ es
ĠKÃ¤ stchen
ĠBack ofen
ĠNie dlich
ĠRes erve
ĠSchok o
Wunder schÃ¶ne
problem e
Ġvergleichbar es
ĠMau l
ĠSamm ler
Ġat trakt
Ġwin z
ĠerhÃ¶ hen
onen ten
Ġmel det
ĠFingerabdruck sensor
mut stropfen
Ġlieb sten
ĠKÃ¶n nten
Ġlust ige
ĠHy g
Ġgolden en
Ġunf lex
ober flÃ¤che
Ġsort iert
Ġanz eigen
Ġkling elt
ĠStu di
Ġert rÃ¤glich
Ġwicht igen
Ġdurchge fÃ¼hrt
Sol ide
ĠBÃ¶ den
ĠKolle gen
verk ehr
ĠUniver sal
ĠVerwend ungszweck
ĠWÃ¤rm flasche
ĠÃľberras chend
Hil ft
ĠChr ist
Schle chte
Ġmiser abel
ĠBon us
Ġsimp le
Ġzerbrech lich
Ġfas zin
ĠTrÃ¤n en
ĠArtik eln
Ġdram atisch
Ġble chern
ĠThr iller
ĠprÃ¼ fen
ĠAug ust
ĠÃ¼berprÃ¼ fen
ĠGep Ã¤ckt
" -
D ank
D isplay
F arben
K on
K inder
L ICH
N ettes
P hone
P aket
S Ã¼ÃŁ
a fel
b eine
b illig
c s
c orn
g uter
g rÃ¶sse
g Ã¼nstiger
i mente
k s
m eln
m pol
m ontage
n ern
o c
o be
o ster
p s
p aar
s Ã¤ge
v is
w under
â Ļ
Ġ ).
ei chend
Ġs upi
ie hen
ie pen
ie geln
Ġa g
st rom
ein mal
ein stellungen
ein richtung
Ġg Ã¤n
Ġw andern
Ġm ild
Ġm ix
in chen
an o
ĠS ucht
Ġi sst
Ġh olz
Ġh yg
Ġein f
Ġein fallen
Ġein schlafen
Ġz ehn
Ġk ocht
on iert
te lefon
ung er
Ġf olie
ĠA M
ĠA ben
ĠA tem
ĠD in
ĠD AN
ĠP s
Ġsch u
Ġsch lagen
el emente
et s
sch icht
sch ild
Ġl anden
ĠG L
ĠG rÃ¶
ĠB an
ĠB Ã¤n
ĠB Ã¼n
ĠB acken
ĠB rill
ĠB ud
ĠB leibt
ab len
ĠK ragen
ĠF alt
ĠF irm
ir l
ir ca
ĠL ay
ĠH Ã¤uschen
ĠM agen
ĠM ine
ĠM TB
ĠE hr
Ġan gem
rei ches
Ġer wer
Ġp ack
ĠSch Ã¼sseln
Ġauf machen
Ġhab s
Ġaus gesucht
Ġbe arbeiten
Ġbe zieht
Ġda heim
Ġsich ern
le eren
le gung
ĠN ah
ĠN ull
ĠR enn
ĠR ed
lle y
pf anne
Ġj unge
ls en
ĠZ er
ĠZ eich
ĠZ ahl
ĠZ Ã¤hn
ĠZ unge
am ster
Ġkl agen
Ġst ab
Ġst olz
ack elt
ĠO ma
ĠSt at
ĠSt Ã¶rt
ĠSt Ã¤bchen
ĠAn schlag
re gen
Ġvon einander
ent fern
Ġab ru
Ġab hÃ¤ngig
la fen
op tik
op apier
ik o
ĠÃ¼ber setzt
Ġganz es
eist ern
ĠSp ot
ĠEr weiterung
Ġvor sicht
Ġvor gebo
ĠLieferung en
Ġlei den
be stellung
Ġum stellen
Ġum setzen
ĠC as
ĠC ur
ĠC or
wert igen
ĠBe stellungen
aus schnitt
ieren de
Ġkein ster
ĠAr ten
ĠGesch mÃ¤
Ġre gen
Ġre flekt
ĠUn bedingt
ĠAuf schrift
Ġsp ont
Ġsp orad
arbei ter
ĠTop per
stell baren
ĠZu verlÃ¤ss
ĠGel enke
ĠNach fol
ĠAus druck
ĠAus probieren
Ġeigen es
Ġlang w
Ã¤ch sh
Ġber Ã¼hrt
wend bar
Ġselbst Ã¤ndig
ĠBesch enkten
Ġschw itzen
Super schnelle
ĠPl Ã¼
ĠSon gs
Ġopt im
Ġgem eint
Ġbeg ann
Ġbeg eistern
ĠVor red
stÃ¤n ge
ĠRÃ¼ck sende
dr eh
ĠUnter hosen
Ġle eren
Ġen gen
ĠFilm s
ĠSpiel er
ĠdÃ¼nn em
ĠKr anken
Ġerf reu
Ġwert iger
Ġwert iges
oo ter
ĠKn ochen
Ġwarm weiÃŁ
Ġkn icken
ost Ã¼m
Ġgest altete
ĠSchl aufen
ĠSchl ieren
ĠLade zeit
Ġvorher ige
ok ia
die s
Ġausge wogen
get eilt
ĠMet ern
ĠOber seite
Ġ; -/
ĠBand es
ĠKan Ã¤
Ġwack lig
ĠLa v
lÃ¤ss e
Ġheraus gefunden
ĠX S
Ġfr essen
Ġfr isst
Ġfr anzÃ¶s
ĠTra mpol
Ġwunderbar es
Ġu lt
Ġerw achsen
ĠTro mmel
ĠTro lley
Ġmei ste
Ġbez wei
ĠSonnen licht
passen d
ĠNÃ¤h ten
ek anne
Ġunge wohnt
funktion en
Ġoffen e
Ġschlechte ste
ĠStr ich
ĠTemperatur anzeige
ĠInnen leben
unk elt
Ġed ler
Ġarb eit
ĠNo v
ĠNetz stecker
Ġha mmer
ĠzusÃ¤tzlich es
Ġaut o
Ġkosten lose
Ġintens ive
Ġakzept iert
ĠQu ali
ĠFehl anzeige
Ġlos legen
Ġzerk nittert
ĠWirklich keit
ĠKar affe
ĠEle g
ĠSchwÃ¤ che
ĠPlay mobil
ĠSor ry
ĠauÃŁer halb
ph on
Ġeingebaut en
Ġvergleich sweise
iet ten
ĠMess becher
Ġkauf empfehlung
ĠBeschÃ¤ ftigung
Ġspr ingen
ĠEnttÃ¤u schend
ĠLust ige
mo sph
ĠBet on
ĠHob el
zuf Ã¼gen
mp ath
Ġausget rocknet
Ġverschl ungen
ĠWech seln
ĠSeit dem
Ġverschm utzt
Ġgeschlossen en
klein er
klein ern
Ġtyp ischen
Ġreg ulieren
ĠðŁĳ İ
Ġbraun e
ĠðŁ¤ Ķ
sal at
ĠDicht ungs
rand ung
ĠTre ppe
Ġaufget reten
LÃ¤ uft
Ġbein ahe
grÃ¼n den
Ġvorder e
Ġwor an
ĠPop corn
ĠVerbind ungen
Ġerinn ern
ĠRa cl
Ġbestimm te
Ġwirk ungs
Ġwirk sam
Ġpf legen
ĠRÃ¶ hr
ĠBal sam
Ġprofession ell
Ġlack iert
ĠZw ischendurch
Ġtransp arent
Ġjeg liche
ĠUlt ra
Ġnacht rÃ¤glich
ĠSty le
weif eln
ĠHeraus forderung
ĠLiebes geschichte
Ġsag te
ĠSE HR
Ġheut igen
Ide al
Ġkniff lig
ĠFeatur e
ĠSauer ei
ĠverhÃ¤ltnis mÃ¤ÃŁig
Ġâĺ º
asert uch
Ġmilch ig
ĠUN D
ĠKnall er
ĠWend ungen
Ġunzur eichend
ĠLekt Ã¼re
ĠSchnick schnack
ĠKabell Ã¤nge
ĠstÃ¤nd ige
ĠGesund heit
schÃ¤um er
Ġlager n
Ġergonom isch
ĠKleint eile
ĠgewÃ¤hr leistet
ĠSne aker
ĠKaka o
kling el
Ġumt auschen
Ġneug ierig
glaub lich
ĠMelo die
ĠRechtschreib fehler
Ġschlamp ig
ĠKapu ze
ĠNichtsdest otrotz
ĠGepÃ¤ckt rÃ¤ger
! ?
) :
A uss
A chtung
A DE
C D
F i
F ans
I r
J etzt
K om
K amera
N ote
O hne
P Ã¼nktliche
R A
T astatur
T aste
W Ã¤re
Z war
Z igar
b re
b liche
b Ã¤lle
d isplay
e be
f one
f olg
g in
g ra
g Ã¼lt
g ummis
k uchen
k iste
m ass
n iss
r ier
s werter
w urde
w Ã¤nde
y b
y son
er a
er in
ei che
Ġd olle
Ġd immen
Ġd etail
Ġd isk
un i
un z
Ġa chtet
st Ã¼
ein schlÃ¼sse
Ġg o
Ġg lob
Ġw a
Ġw uchtig
as ste
Ġm au
Ġm ischen
Ġm ies
ll ustr
Ġn atur
Ġn asse
Ġn ice
Ġn eigt
eh nen
ĠS Ã¼
ĠS ah
ut ung
Ġb as
Ġb rÃ¶
ar ke
Ġh app
Ġein gef
Ġein ander
Ġein fÃ¼llen
Ġz ocken
Ġk unden
Ġk Ã¤lter
Ġk Ã¤mpfen
Ġf assen
ĠA p
Ġzu bereiten
Ġzu letzt
au gen
au ÃŁer
ĠP fer
ĠP oren
ĠP istole
ĠP uma
at schen
Ã¶ ten
Ġsch rau
Ġsch aden
Ã¼r ste
Ġl ernt
ĠG in
ĠG ips
ĠB I
ĠB ase
ab hÃ¤ngig
ĠK ir
ĠK alk
ĠF and
ĠL Ã¤rm
ĠM em
ĠM Ã¤rchen
ĠT aufe
ĠT urm
Ġan liegt
rei f
rei ÃŁt
ne ben
ĠW al
och e
Ġge zw
Ġer spart
Ġin cl
Ġauf bau
Ġauf passt
Ġauf blasen
Ġauf weist
Ġauf gebraucht
ĠI t
Ġt Ã¼r
Ġt Ã¤uschen
Ã¤t ung
Ã¤t zt
Ġbe klebt
Ġda m
le uchtung
ĠN ik
ĠN immt
ĠN Ã¼sse
ĠN ippel
ĠN okia
Ġr and
per ren
auf bau
auf kleber
Ġwir ft
Ġj ust
Ġj og
ĠZ ipp
ĠVer sender
am per
Ġkl eid
Ġst ick
Ġnach geliefert
ĠAn im
re ste
re ff
Ġab st
Ġab decken
Ġab gelaufen
ĠschÃ¶n em
acht ung
fach e
Ã¼n scht
ger e
ĠÃ¼ber arbeitet
ĠÃ¼ber prÃ¼ft
ang em
zen sion
Ġ1 10
ĠSp ardose
ĠHand buch
Ġvor zu
Ġvor erst
Ġ2 3
Ġ2 50
end s
uck s
bl ock
ver halten
Ġbin den
Ġger ettet
ĠC lo
ĠBe arbeitung
ĠAb schalten
las chen
ĠGe fallen
ĠGe pÃ¤ck
ĠGe stÃ¤nge
Ġdurch gehalten
off el
ĠSo d
ĠSo was
geb unden
geb nisse
art y
Ġde ko
br and
br unnen
ungs kabel
ungs mÃ¶glichkeiten
ĠZu viel
rakt ik
ĠHandy tasche
amm elt
Ġhin ge
Ġhin wegs
ĠNach denken
ĠSte uer
ler nen
ess or
Ġfest zustellen
ĠWasser druck
ĠKabel bruch
wend ige
last er
ĠArtikel s
ĠRei be
ĠRei hen
alter ung
erv t
erv ice
ĠUnter nehmen
nit te
nit ter
Ã¤uf e
Ġbed ruck
ĠÃľber zeugt
ĠNacht s
Ġerf reut
ĠKn oten
ĠlÃ¶ s
ĠWie so
so ft
ran sen
ĠBr at
Ġkn ack
ĠLie d
Ġsol ider
Ġsol ala
ĠLade buchse
ĠLuft be
Ġdeutlich er
Ġhe ben
ĠmÃ¶glich en
Ġauss uchen
ĠHa hn
Ġvers agt
Ġsauber er
Preis leistung
bei m
schÃ¶n er
fahr er
ĠMa in
Er satz
Er fÃ¼llen
War um
Ġbem Ã¼ht
Ġheraus nehmen
Ġlo ben
ĠTra fo
Ġhinter e
ĠwÃ¼n sche
zus p
des wegen
ĠFr itz
ĠTÃ¼r e
ĠHoch wertiges
ĠSpr ung
ĠPraktisch er
ĠStabil er
ĠSol ala
ĠPin seln
Ġschlechte m
ĠSpann ungs
ĠGegen stand
ĠStr ess
ĠdÃ¼r ften
ĠUrlaub s
ĠLei se
Ġjem als
ĠHin sehen
ĠBad esch
Ġwasser dichte
bie gen
ho de
ĠGar der
ĠMikro welle
Ġanf assen
Ġrund herum
Ġ.... ..
schm uck
ĠstÃ¶r te
ĠIhr er
ĠZwei te
Kl ang
Ġsicht bare
Ġneben bei
ĠTherm ost
ĠMÃ¤ ppchen
Ġzerk n
Ġeinzu bauen
ĠFerns eh
Be stellung
Ġangeschlossen en
fre ude
Ã¤m pft
Wer de
Ġverz ichtet
Ġtief e
Ġschlicht es
Ġunn atÃ¼rlich
ĠSchrift zug
Ġtau gen
ĠBrot dose
ilder t
ĠBet racht
ĠgrÃ¶ ss
Ġordnung sgemÃ¤ÃŁ
ĠStre cke
ĠEi weiÃŁ
ĠRes ult
ĠJog ging
Ġintegr ierten
Ġunbesch adet
Ġspezie lle
Ġumge k
ĠFer sen
ĠKer amik
Ġ36 0
ĠVerbesserung sp
ĠSchwach punkt
Ġfuss eln
ĠAqu ar
Ġbenutz bar
renz wertig
ĠWichtig ste
Ã¤tt chen
Ġsamm eln
ĠBast ler
ĠStimm ung
ĠVerd am
ĠStyl isch
ĠSchabl onen
ĠReis verschluss
ĠScharn ier
Ġant wor
ĠbeigefÃ¼g te
ĠBrem s
hel fer
ĠBill ige
Ġsort ieren
ĠTÃ¶ pfchen
ĠMikrof aser
Ġbiss l
ĠstÃ¤rk eren
ĠkÃ¼ hler
ĠFrÃ¼ hl
ĠRau chen
ĠLÃ¶s ungen
ĠschÃ¤r fer
Ġstunden lang
Pass form
ĠKal orien
ĠRicht ungen
ĠÃĦhn liches
ĠDÃ¼ fte
ĠTom aten
ĠKabelb inder
Ġirrit iert
ĠPriv at
Fern bedienung
ĠDarauf hin
ĠNahrung ser
ĠVerzÃ¶ gerung
ĠWaff eln
jen igen
Ġblas ser
ĠAdr esse
bur ger
ĠFummel ei
andi os
ĠDisco unter
ï¸ıâŃĲ ï¸ıâŃĲ
Ġgemein sam
ĠApr il
ĠDock ing
Ġgewalt ig
ĠGehÃ¶r schutz
ĠWiederhol ungen
Ġalltag stauglich
ĠAbbild ungen
ĠGefr ier
Ġgeform t
Ġwegschm eiÃŁen
ĠDez ember
Ã¤chsh aus
ĠRacl ette
Ir gend
Ġhinwegs ehen
! ).
. :
1 8
B illig
C K
D em
D am
K ap
L ED
P U
P rinzipiell
R echt
S CH
S aug
T rage
a et
b s
b em
b le
b esen
b utton
d uft
d raht
f lex
f ans
f locken
h Ã¤tte
i bler
k annt
k Ã¶pfe
l ige
m angel
n Ã¤ck
n adeln
p in
r ang
t auglich
v ide
v iele
w ay
w etter
x y
Ġ eck
Ġ reisen
į âĻ
Ŀ ¤
en en
en ten
Ġs l
Ġs m
Ġs al
st art
ein heit
Ġg inge
Ġw ach
Ġw etter
Ġm Ã¼ÃŁ
in ess
in form
an fÃ¤nger
Ã¼ pfen
Ã¼ hler
Ġn Ã¼tzt
eh entlich
ĠS O
ĠS Ã¶
ĠS le
ĠS ub
Ġun passend
Ã¤ mmer
Ã¤ schchen
Ġb unten
ar l
ar ge
ar tet
Ġund e
Ġh u
Ġh aus
Ġz Ã¤hlen
Ġk amm
Ġk ant
Ġk ette
on ne
Ġf au
Ġf ort
Ġf otograf
Ġf rÃ¶h
al ent
it tel
ĠA lo
ĠA LL
ĠD E
ĠD immer
ĠD arm
ĠP i
ĠP ick
ĠP ip
ĠP hone
ĠP rÃ¤z
ĠP ickel
Ġsch Ã¤tze
Ġsch Ã¼tteln
sch Ã¼t
Ġl enken
ĠG lo
ĠB esen
ĠB unt
ĠK L
ĠK reis
ĠK atz
ĠK Ã¤r
ĠK ul
ĠK ocher
ĠF u
ĠF ull
ĠF ugen
ur st
ĠL umen
ĠH atten
ĠM F
ĠM ie
ĠM il
ĠM om
ĠM essen
ĠM aschinen
ĠE ssig
ĠT atsÃ¤chlich
Ġan schalten
Ġan stÃ¤ndig
Ġan zeigt
rei be
ĠW eit
ĠW atte
ĠW alk
ĠW Ã¤nde
ĠfÃ¼r chter
Ġge antwortet
Ġer geben
Ġer stellen
Ġp or
Ġp rÃ¤sent
Ġp rinzipiell
Ġver schÃ¶n
Ġver grÃ¶ÃŁ
Ġmit einander
ĠI KE
Ġt v
Ġt raum
Ġwie ge
ĠV in
ĠV olt
Ġaus schlaggeben
le ger
ĠN u
ĠN ack
ĠR is
il dete
Ġj ahren
ra cker
ĠZ werg
ĠVer stell
ĠVer wende
is ierung
Ġst Ã¤ndigen
ĠSt rip
ĠSt oÃŁ
Ġnach arbeiten
Ġnach denken
Ġnach haltig
Ġnach bessern
ĠAn schlieÃŁen
ĠAn bindung
ol ben
Ġab geht
Ġab brechen
Ġab geholt
omm es
ĠU neben
Ġmein ung
ĠEin le
... ,
la ger
Ã¼n f
ik ationen
ĠProdukt bild
sp itze
Ġ( !)
Ã¤lt nis
ĠSp azier
ĠHand gepÃ¤ck
Ġvor kommt
be stellt
be quem
ĠJ uni
ver schlÃ¼ssen
Ġander weit
eg al
Ġgen ervt
ĠBe fÃ¼r
ri ssen
ĠAb ziehen
ĠAb gesehen
ĠAb fluss
Ġgel ang
Ġgel ernt
aus atz
ĠGe fÃ¼hle
abe llos
ke gel
Ġerwar tete
Ġbesser er
ĠUn i
ĠDa von
zug ehen
Sch ick
Ġbesch enkte
ad s
Ġgesch liffen
Ã¤u ser
ĠRe c
Ġunter halb
Ġunter bringen
ungs gefahr
Ġc irca
Ġwo zu
ĠEn gel
pe kt
Ġhin sichtlich
ĠwÃ¤ scht
ĠBei des
ĠNach richt
Ġ: -/
lie be
ĠAus fÃ¼hr
Ein ige
ĠBild es
Ġrein passt
Ġber aten
ĠLicht erk
dlich en
Ġpassen der
ĠKopf schmerzen
ĠKopf haut
ĠPl att
ĠSon g
ĠSon der
ant eil
ĠRei set
ĠVor ne
wie s
ĠFunktion al
ĠRÃ¼ck licht
im o
ĠDis k
form ance
ĠSpiel raum
ĠArm lehnen
ĠCh rom
ĠUm zug
ĠUm bau
ĠFre quenz
oo ls
ĠKn o
ĠlÃ¶ sten
ĠGew Ã¼rze
Ġverl etzt
ĠGlas es
ĠOhr muscheln
ĠDruck bild
Ġirgend ein
sicht igen
ĠVerb inden
bed ing
bed arf
Ġgl atter
ĠFern sehen
ĠHa arb
ĠAd idas
ĠPf eife
âĢ įâĻ
Ġvers aut
Ġausge geben
ĠSchn allen
ĠAufbau en
ĠMet al
ĠbeschÃ¤ digen
Ġmont age
ĠBis lang
ĠLa gerung
ĠÃ¶ff nete
nah m
St icks
ĠX box
Ġschlie ssen
ĠWand halterung
ĠhÃ¶ he
ĠhÃ¶ hen
ĠFoto al
Ġq m
spr Ã¼hen
ĠServ ietten
Ġfr ischer
ĠTra g
ĠTra getasche
Ġwahr e
ru b
fl Ã¼gel
opp elt
Ġvert rau
uchte te
ĠStand ort
ĠTrage gurt
ĠKein er
ĠSport tasche
ĠZusammen stellung
ĠKlebe kraft
ĠViel falt
Ġeinge arbeitet
eim t
Ġaufzu hÃ¤ngen
CH T
Ġkomp akte
Ġverf ehlt
ĠLÃ¤ dt
Ġbew Ã¤hrt
wa age
Ġbl itz
Ġbl inkt
Ġgro be
di mension
ĠRie ker
ct or
ĠFest igkeit
Ġakt ual
ĠBesser e
ĠWeiter empfehlen
ĠMehr fach
Ġmus st
ĠBÃ¼gel brett
Ġfrei en
ĠBohr en
ĠLeicht es
ĠInternet radio
Ġ!! !!!
ĠHosen trÃ¤ger
ĠbemÃ¤n gelt
ĠNegativ es
ĠwunderschÃ¶n er
Ġdopp els
ĠStra ÃŁe
ĠWert igkeit
Ġgrau e
ĠAnder es
ĠSek unde
ĠPaar e
ĠPort s
Be quem
Ã¤m pfer
Ġzerb rÃ¶selt
Ġschla pp
ĠMinus punkte
ĠMÃ¼ sste
ĠVerl etz
les er
ĠTrin ken
Ġdunk eln
Ġgenial e
Ġruh igen
Gen erell
ĠEis k
schnit tliche
ĠProgramm ierung
Ġ16 0
ĠPa v
ĠFeuchtigkeit s
Ġgelegen tliche
ĠKur bel
Ġleistung s
Pro blem
ĠBÃ¼ geln
ĠSk i
ĠSk ala
Ġdu schen
Ġtechn ische
ĠKÃ¤ se
zieh ung
schnell er
ĠTief gang
ĠDem entsprechend
Ġprom pte
bes itzer
od s
od ien
ĠJog hurt
ĠFront kamera
ĠTor te
ĠNav ig
Ġvorgesehen e
ĠEd ition
Ġschwier ige
Ġfehler frei
fÃ¼ll te
Ġentsp annt
Ġentsp annen
ĠRobust heit
ĠHal b
Ġinform iert
ðŁĺ Ĭ
oss il
ĠZiff erblatt
ĠSchlecht es
Ġ= )
ĠMed ia
Ġverbr ennt
ĠRezept buch
antwor ten
Ġmel den
ĠSha ke
Ġpfle gt
Ġpfle geleicht
Ġredu zieren
ĠOrden tliche
ĠRa v
ĠSprach qualitÃ¤t
ĠMechan ik
ĠVerst auen
ĠTur n
Ġmagnet isch
Ġzuge klebt
ĠFavor iten
ĠPar fÃ¼m
ĠverstÃ¤r ken
ĠDok umente
ĠFant asie
ĠCup s
Ġwicht iger
ĠBus iness
empfind lich
Ġgekl emmt
Ġgeruchs neutral
klass ig
Ġunre al
ĠPrÃ¼ fung
ĠZent imeter
Ġdurchsicht ige
Ġduf tet
ĠIntens itÃ¤t
Ġku schl
ĠNÃ¼tz lich
ĠJu gend
Ġpenet rant
Em pf
Ġkat astrophal
Ġang ucken
ĠErinner ung
ĠAbweich ungen
ĠGard inen
Ġposition ieren
Ġdur fte
ĠergÃ¤n zen
ĠSpl itter
ĠPersÃ¶n lich
Ġneutr ale
ĠUtens ilien
Ġerfr ischend
ĠverlÃ¤nger n
otent ial
ĠProzess or
ĠUnterleg scheiben
ĠLieb haber
Ġbekann tlich
Ġunflex ibel
Ġerwer ben
ĠZÃ¤hn en
ĠGeschmÃ¤ cker
ĠTrampol in
Ġgezw ungen
ĠIKE A
ĠNack enkissen
, ..
2 00
9 5
A A
A ut
B and
F E
F orm
H atten
K auf
L ampen
M M
M ann
M ega
R ein
T echn
U p
a ce
a ct
b Ã¶
b rei
b ildern
c ar
c am
d ann
d achte
h es
h och
h ent
i at
i us
k Ã¶r
k ante
k offer
l y
l em
m atratze
o dus
p per
p age
p aÃŁ
p ool
r anzen
s wasser
s Ã¤tzen
s eife
t es
u schen
z Ã¤hl
Ġ reis
er ie
er fÃ¼llt
er ium
er ikan
ie den
Ġa kk
ich en
st imm
Ġg rat
Ġw em
Ġw and
in t
in stall
Ã¼ sste
Ã¼ gige
ĠS ynchron
Ġb omb
Ġh ose
Ġh ingucker
icht bar
Ġein g
Ġein gehen
Ġk o
Ġk oppeln
Ġk itschig
te ll
Ġf ahr
Ġf asst
Ġf einen
ĠA k
ĠA schen
ĠD ra
ĠD rink
ĠD rÃ¤hte
ĠP illen
ĠP RO
at a
el ang
el os
el iner
sch eine
sch ette
Ġl ed
Ġl agen
Ġl ohn
ĠG elt
ĠG ras
ĠB E
ĠB Ã¤nde
ab ine
ĠK Ã¼r
ĠK asse
ĠK ipp
ĠK ek
ĠK reide
ĠF ri
ĠF ertig
ĠF ord
ĠF rost
ĠF ossil
ir disch
ĠL ila
ĠL aterne
ĠH eil
ĠH acken
ĠM Ã¤r
ĠE D
ĠE U
ĠE ig
ĠE ss
ĠE vtl
ĠT u
ĠT rakt
Ġan al
Ġan gelegt
Ġan schrauben
Ġan schau
rei tet
ne u
ne y
ge zeichnet
ĠW ick
ĠW ell
ĠW ertig
mm et
Ġp umpen
ĠSch all
ĠSch immer
Ġver schluss
Ġver zer
Ġauf gelÃ¶st
ĠI R
Ġt ickt
ĠV eg
le un
ĠN uss
ĠN ike
Ġr auf
Ġr aten
per iment
ĠR el
ĠR um
ĠR aus
il ikon
ĠPreis en
was chbar
ĠVer stÃ¤rker
ief e
Ġst rom
ĠPro b
ĠPro fil
ĠSt Ã¼tz
rie men
ĠAn sÃ¤tze
ĠAn wender
ĠAn passung
Ġab lÃ¶sen
du sche
Ġmein t
ĠEin es
ĠEin weg
ĠEin heit
ĠEin fluss
om i
Ã¼n dung
lei sten
Ġschon end
ĠÃ¼ber sicht
ick y
Ġvor bild
Ġ2 1
Ġlei de
be steck
be wohn
be wertung
uck reiz
bl Ã¤
bl auch
bl Ã¤ttern
Ġent laden
eg ler
ĠAb fall
Ġam Ã¼s
Ġ3 000
Ġgel ben
ieren den
ĠGe gend
ĠAr zt
ĠIn sofern
Ġdurch gehend
Ġdurch fÃ¼hren
schl aufe
Ġre den
Ġre cher
ĠUn ten
ĠAuf kleben
geb lich
Ġlie ge
ĠKl o
est Ã¤nder
Ġje weiligen
Ġson sten
Sch w
Sch rauben
ont iert
tlich en
Ġschle ppen
ad apter
ichtig keit
Ġgesch lafen
stell ten
ĠMat t
Ġunter scheidet
Ġunter irdisch
ĠZu steller
ĠZu verlÃ¤ssig
ĠZu bereitung
ell schaft
Ġdar stellt
pl Ã¤tze
pl ane
brau cher
ĠEn g
pe ater
Ġ5 5
ĠGel Ã¤nde
gesch enke
ah le
richt ungen
Ġkurz weilig
ĠAus fall
ĠAus land
ĠAus schnitte
Ein mal
lau ben
ĠWer kt
ĠWer mutstropfen
ĠUhr werk
ĠMit esser
ĠMit geb
ĠMit arbeiter
ĠgrÃ¶ÃŁ en
Ġzus ehen
Ġber ausch
ĠBl Ã¤ttern
Ġkon st
ĠMein en
Ġschw itz
akt ion
gend es
ic t
ĠSon ic
ĠSon ntag
ant wort
ĠVor feld
ĠVor freude
bo te
ĠRÃ¼ck sprache
ĠUnter haltsam
ĠPlastik mÃ¼ll
Ã¼b eln
Ã¤h ten
Ġkleiner es
ĠSchutz folien
schieden e
Ġausrei cht
Ġlaut en
ĠÃľber h
ucht igkeit
Ġhand eln
rad or
rin t
Ġdir ekte
ĠTe ufel
Ġbest anden
Ã¤hr en
ĠOhr muschel
ĠBr ingt
Ġkn ist
sel ig
ĠÃĸ le
ĠÃĸ fter
ĠHaut bild
mÃ¤ÃŁ iges
Ver k
Ġwunder voll
ĠLade gerÃ¤te
ĠMont ags
ist or
Ġempf unden
ĠVerb inder
ĠLiefer datum
ĠEnt wicklung
ierig keiten
ok er
Ġhei zt
Ġvers uche
rit zt
ĠFahr zeuge
ĠEnde ffekt
Ġausge zogen
ĠSchn eid
ĠHÃ¤n gt
ĠKon figur
schÃ¶n es
Ġversch raubt
ĠAuss agen
erst attet
Ġpositiv es
Ġbem er
Ġweit aus
ĠPaket dienst
Ġanzu legen
ĠX ia
ĠMar vel
Ġnerv ige
Ġschlie sst
ĠWand uhr
Ġaufge druckt
ĠwÃ¤r mt
ĠGen uss
Ġlo cken
ĠAl te
ĠAl kohol
Ġabge platzt
ĠMus keln
ĠHe ad
ĠPo ster
ĠSh isha
Ġverk aufen
zus agen
Ġzer legt
Ġzer rissen
ĠTÃ¼r chen
ĠBatterie wechsel
ĠKlebe folie
Ġfalsch es
Ġaufzu laden
Ġangesch raubt
ĠSpr uch
Ġverf Ã¤rben
Ġunterschie d
gÃ¤n g
dicht et
ĠDr ehen
ĠReg ler
Ġhart nÃ¤ck
wÃ¤ sser
ĠKontakt linsen
ĠWasch gang
ĠkÃ¼r z
Ġex pl
ĠSpÃ¼ le
ĠKla ppen
ĠTransport box
Ġ201 5
Ġempfind licher
ĠBeste lle
pr ess
anten ne
ĠzusÃ¤tzlich er
Ġwech sel
Ġstellen d
zent ig
Ġunschlagbar en
ĠNÃ¤ sse
Ġkosten frei
ĠÃ¤uÃŁ erlich
ĠTrain er
ĠErst aun
Ġabzu lesen
Ġchem ische
Ġentsprechen der
Bis schen
ĠBau weise
ĠPort ionen
kla mmern
ĠSor gf
ĠNot iz
Ġvergleich bare
Ġschlicht weg
ĠRÃ¤ dern
sa fter
ĠSchon er
ĠFÃ¼ll menge
gr ess
cre ens
ĠHÃ¶r bÃ¼cher
ĠSchlei fe
ĠSchlei fen
rÃ¤glich keit
ĠKomp onenten
ĠWieder gabe
ord nen
zum indest
ĠBet rag
andt uch
Gesch enk
gerÃ¤u sch
schw ierigkeiten
ĠCharakt er
ĠSal at
gegeben er
ĠSchul ranzen
steck dose
ĠGebrauchs anleitung
Ġmer klich
ĠEi sen
ĠTief en
ĠmÃ¼h elos
ĠPlastikt eil
ĠBean spruch
Ġausger eicht
ĠEd it
farben e
ĠStaff eln
Ġaufgeh oben
ĠNerv ig
fÃ¼ll ung
ĠJo urn
Ġverw Ã¶hn
ĠSchwach stelle
ĠDicht ungen
ĠPizz asch
Ġverurs achen
Ġat men
Ġat mungsaktiv
Ġzuges endet
Ġelektr ischen
Ġverbr annt
Ġauft reten
merk sam
Ġand auernd
ĠDisplayschutz folie
ĠNutz ungs
ĠAktiv itÃ¤ten
ĠbeschÃ¤ft igen
ĠGef ummel
ĠKarabiner haken
Ġlade kabel
ĠStÃ¶ cke
Ġbetr achten
Erst mal
ĠVerpackungs mÃ¼ll
ĠKusch elt
Ġkaput te
ĠWander ungen
Ġgolden e
ĠMenÃ¼ fÃ¼hrung
ĠRadi os
Ġerleich tern
ĠFestiv als
ĠFrÃ¼h stÃ¼ck
schon er
ĠFrÃ¼ chte
Ġpu zz
ĠKompr ession
Besch reibung
tent eils
Ġschmerz haft
Ġanger ufen
Ġverarbeite ter
ĠJÃ¤hr ige
Ġunre gel
ĠEur op
Or iginal
ĠhÃ¤ss lich
ĠHon or
ĠSmooth ie
ventil ator
ĠKontra st
lÃ¤uf ig
Ġvorteil haft
Ġdunkl es
techn ik
ĠKenn zeichen
ĠLab rador
ĠBlÃ¤ schen
ĠVersp Ã¤tung
su it
ĠKÃ¼hlt asche
sproblem e
Son st
ĠzukÃ¼n ftig
ĠKass ette
ĠProm pte
ĠAnmerk ung
ĠungewÃ¶hn lich
Ġhak elig
ĠHar ry
ĠErleich terung
Ġunzu verlÃ¤ssig
ĠunglÃ¼ck lich
ĠOrigin alt
Ġvol umin
ĠKreativ itÃ¤t
Ġgepf legt
Ġbeids eitig
ĠJump suit
ĠsprÃ¶ de
Ġeinzus etzen
ĠLuftfe uchtigkeit
Arm band
ĠStudi um
Ġhyg ien
ĠFirm ware
Ġspont an
Ġbezwei fle
mosph Ã¤re
Ġglob ig
Ġhapp ig
Ġhinge wiesen
ĠgrÃ¶ss ere
ĠFrÃ¼hl ing
ĠAlo e
Ġanderweit ig
ĠBefÃ¼r chtung
ĠLichterk etten
ĠAschen becher
ĠGelt ung
Ġberausch end
ĠXia omi
ĠBeanspruch ung
. (
. -
: (
B L
B utton
B atterie
D rei
G E
I I
N ormal
P C
P Ã¼nktlich
S E
S el
T asten
U pdate
W erk
a v
b edien
b acken
c om
d ien
f i
f an
g ie
g rill
g Ã¼rtel
h h
h ones
i sen
k es
k et
k ippen
k leidung
n el
o tet
p umpt
p berry
s Ã¤u
s los
s datum
t ro
u ÃŁen
z ert
Ġ _
Ġ ten
Ġ umm
Ġ ehe
Ġd Ã¼
Ġs Ã¤
Ġs eite
ie ÃŁe
st eil
st age
st ieg
Ġg ib
Ġw lan
Ġw ickeln
Ġm i
Ġm ind
Ġm odell
an kt
Ã¼ ben
eh ne
ĠS uchen
ĠS orgen
Ġi sol
Ġb Ã¼n
Ġb ass
Ġh ol
Ġh ast
Ġh Ã¤lfte
Ġein stellt
Ġein genÃ¤ht
Ġein wirken
Ġz eichnet
Ġk abell
te e
Ġf Ã¶r
ĠA fter
ĠD el
ĠD ist
ĠD IN
ĠD IE
ĠD yson
ĠD Ã¤mmer
au st
ĠP ier
ĠP utzen
ĠP otter
ĠP igment
ĠP ommes
Ġsch ein
Ġsch rott
Ã¼r sten
el m
et ze
sch wer
sch irme
Ġl t
Ġl au
Ġl eistet
ĠG ab
ĠG amer
ĠG ran
ĠG rat
ĠB ur
ĠB lende
ĠB ausatz
Ġder maÃŁen
ĠF M
ĠF lossen
ĠL Ã¼cken
ĠL ustig
ĠH unden
ĠM ul
ĠM iele
ĠM eister
ĠE S
ĠT auch
Ġan gel
Ġan zieht
rei cher
ĠW urz
mm antelung
ÃŁ el
Ġge quetscht
Ġer schlieÃŁt
Ġer zeugen
Ġin einander
Ġin haltlich
Ġp h
Ġp ort
ĠSch nitte
ind ungen
Ġver ring
Ġver rÃ¼ckt
Ġver richtet
eit ige
Ġman geln
Ġauf recht
ĠI hm
Ġt icken
Ġt ippen
Ġt uen
Ã¤t tet
Ġaus st
Ġaus gerissen
Ġaus laufen
Ġbe ziehen
Ġbe stÃ¤ndig
Ġbe antworten
ĠN Ã¤ch
per len
ĠR enner
ĠZ U
ĠZ ipper
ĠVer ab
ĠVer stÃ¤r
ĠVer schiedene
Ġst icht
ĠO key
ĠSt all
ĠSt ock
ĠSt opper
Ġnach her
Ġnach ziehen
ĠAn lÃ¤sse
anz er
Ġab d
Ġab ges
Ġab gelÃ¶st
Ġab wechslungs
du st
ĠU HD
ĠEin teilung
... !
fach es
Ã¼ber tragung
om be
om atte
Ã¼n den
Ġdass elbe
lei ÃŁ
lei chte
iv es
Ġwieder holen
ĠÃ¼ber lege
ĠÃ¼ber schau
ĠGut en
sp iegel
ze lle
ick te
Ġe kel
Ġe uro
Ġzum achen
ĠSp ender
ĠHand wÃ¤sche
ĠHand habe
ft igen
Ġvor stellt
Ġvor nehmen
Ġlei d
be weg
Ġum zusetzen
Ġum sonst
Ġum steigen
ĠJ ul
ĠJ uckreiz
ag a
ag te
Ġent decken
Ġger aden
ĠC O
Ġgen Ã¼gt
ĠAb druck
Ġam erikan
ĠAr g
Ã¤r t
Ã¤r tet
wer tet
ĠkÃ¶n ne
ĠkÃ¶n nt
ĠGesch Ã¤
ĠUn fall
ĠAuf hÃ¤nger
Ġsp l
Ġdr uckt
Ġweiter ver
Sch l
Ġbesch ichtet
Ġtoll em
Ġher z
ont ieren
Ġgesch oben
Ġgesch affen
ĠRe zes
Ġwo llt
lÃ¤ dt
Ġperfekt er
Ġges unde
ĠzurÃ¼ck greifen
amm lung
Ġhin Ã¼ber
ĠBo ok
gesch raubt
gesch ritten
ĠSchu lt
ĠWar ten
lie d
Ġvoll ends
Ein en
ĠVers ehen
ĠMit ten
ĠWasser fest
ĠKabel salat
ĠLicht verhÃ¤ltn
ĠLicht kegel
Ġschw immt
kl ingen
los es
ĠFunktion sweise
Ġbes eitigen
ĠlÃ¤nger es
bo hrer
ĠRÃ¼ck nahme
ĠRÃ¼ck versand
ĠVersand verpackung
ĠUnter wegs
ĠUnter wasser
ĠUnter brech
Ġle bt
Ã¤uf ern
ĠStoff en
Ġseit liche
ster reich
ucht isch
Ġstark es
ĠFot ograf
Ã¤tz ung
iz ont
ĠKn icke
Ġweg werfen
so hle
ĠSchw ier
ran kt
ĠApp l
Ġgest ochen
ĠAu x
Wir kt
fer ung
ĠLuft einschlÃ¼sse
Ġabgeb ildete
ĠSpaÃŁ faktor
ĠErsatz gerÃ¤t
Ġbr achte
Ġbr ummt
ĠgÃ¼nstig ste
ĠLÃ¶ sen
ĠPf licht
Ġhei sst
die ser
Ġvers ehentlich
Ġor igin
Ġricht en
Ġho lt
ĠStÃ¼ck chen
schlie ÃŁe
unst stoff
ĠKon d
uten s
ĠKan inchen
âĤ¬ .
Ġkle ber
Ġfre u
geh olfen
ĠhÃ¼bsch er
Ġaufge passt
ĠFreund es
Ġabgebildet en
ĠLeder hÃ¼lle
Ġwahr en
Ġerh itzt
Ġhinter einander
wir klich
ĠHier fÃ¼r
Ġ9 5
wick ler
Ġverk Ã¤ufer
ĠFuÃŁ boden
ĠFuÃŁ matte
ĠSteck ern
ĠFr isch
ĠTÃ¼r k
ĠKlebe pads
Ġfalsch er
Ġlocker er
ĠRahmen s
Ġoffen en
gÃ¤n z
ĠRegen schirm
ĠDr achen
Ã¤um e
Ġunterschiedlich er
ĠGrÃ¶ÃŁen angaben
ĠNeu ware
Ġed les
ĠLei sten
ĠLaptop tasche
Ġversprochen e
feh lern
bew usst
ðŁı ½
ĠStrom kabel
ĠStrom versorgung
ĠWunder schÃ¶ne
ĠNo ise
Ġdunkel blau
Ġsei en
ho f
Ġakt uellen
ĠWeiter hin
sh Ã¤nder
ĠKam pf
ĠHunde bett
ĠSchrau ber
ĠSilikon hÃ¼lle
Ġeingesch weiÃŁt
Ġkor rekte
ĠQu iet
Ġniedr ige
Ġchem ischer
ib len
Ġzerk ratzen
ĠBau cht
ĠBau art
ĠPort o
ĠEinsch alt
na ja
Ġverg isst
ĠTer asse
ĠHaupt dar
ph ase
ĠRÃ¤ uch
Ge w
Ge fallen
Ġries ige
Ġsor ry
Ġunn Ã¶tige
Ġsinn volle
ĠDVD s
rop or
Ġhochwertiger es
ĠGÃ¼nstig es
ĠHo he
Ġwitz ige
Ġwitz iges
ĠPost karten
ĠVoll kommen
Ġintensiv en
ĠEigen gewicht
Ġhaltbar er
ĠErwachsen er
Ġ14 0
ĠRob uste
Ġminder t
Ã¶p seln
fol ge
mp eln
ĠZÃ¤ hler
ĠÃ¤hnlich em
ST E
lieb haber
fr ieren
Ġtechn ischen
ĠSc anner
ĠFingern Ã¤
ĠWh ats
ĠKont o
ĠFel d
Ġtyp ische
hei ser
hei zen
Ġflau sch
ĠMel odien
Ġspezie llen
ĠhÃ¶ch ster
ĠMicro soft
Ġinvest iert
uff ig
Ġbele uchten
ĠEing abe
hÃ¶ hung
Ġaufgeh Ã¶rt
ĠNacken schmerzen
ou se
ĠKnÃ¶ pfen
ĠEl emente
ĠNeben wirkungen
Praktisch e
Ġgeil es
ĠDecken leuchte
Ġsooo o
ĠKompl ett
normal e
Ġtrag isch
ĠbenÃ¶tig ten
aa a
Ġmon at
ĠKart offeln
ĠAnsprÃ¼ chen
ĠherkÃ¶mm liche
Ġem otion
ĠAt mosphÃ¤re
ĠKÃ¶n nen
ĠTh om
Ġgetr unken
ĠSprÃ¼h kopf
Ġkaput ten
ĠHeiÃŁ klebe
ĠZigaretten anzÃ¼nder
ĠHy pe
âŃĲ âŃĲ
ĠKey board
201 8
Ġkling eln
ĠPan as
Ġletzt lich
Pl us
Ġlock ern
ĠFrÃ¼h jahr
ĠRauch melder
Ġeinger ichtet
Ġfrag wÃ¼rdig
Ġbeschri ften
Pass genau
ĠSty ropor
Ġabgerund eten
ĠSCH ADE
ĠSpiels paÃŁ
Ġkombin ieren
ĠAutom atik
ĠAA A
ĠProjekt or
ĠStroh halm
Ġberuh igt
Ġstrahlen d
Ġzugesch nitten
ĠFlÃ¼ssig keiten
dam it
Ġstrap azier
Ġbeden kt
ĠTeelicht er
ĠdazugehÃ¶r igen
ĠKosmet ik
ĠÃĦnder ung
Ġident if
Ġfesseln d
ĠSprÃ¼ che
pres st
ĠSAT A
ĠBlÃ¶ d
Ġglitz ert
Komm t
ĠBag ger
Ġbefrei t
ĠgerÃ¤u schlos
ĠFingerspitzen gefÃ¼hl
ĠBrÃ¶ tchen
ĠWirk samkeit
ĠEmpfind lichkeit
ĠPix el
ĠGimm ick
gebr annt
ĠUntert itel
geflÃ¤ che
ĠgÃ¤n zlich
ĠBÃ¼n dchen
Ġabru pt
ĠAp othe
ĠGarder obe
ĠResult at
ĠVerdam pfer
ĠfÃ¼rchter lich
ĠKno blauch
ĠFotoal bum
Ġblitz schnell
ĠPav ill
Ġgrat is
Ġvorbild lich
Ġrecher ch
ĠSorgf alt
ĠJourn al
ĠLichtverhÃ¤ltn issen
ĠHauptdar steller
) !
4 4
C ool
D ER
F l
F an
F ID
G Ã¼nstiger
H aar
H NE
J eder
M ade
N atÃ¼rlich
N egativ
N utze
O W
O pt
P ort
P atronen
R E
R ichtig
R elativ
S h
T un
T on
W itz
Z eit
a iner
b an
c en
d ay
f or
f lie
f eile
f ertig
g rade
h on
i oren
j etzt
k ettchen
l Ã¼fter
m ix
o ur
p a
p ut
p utz
r ess
r umpf
s b
s um
u etooth
v ier
w n
w ein
w issen
w ahrscheinlich
â ĺ
Ġ Ã¤nder
ch net
ei z
Ġs eht
Ġs achen
Ġs ache
Ġg old
Ġg rillen
Ġg renzwertig
Ġw Ã¶
Ġw ild
Ġm y
Ġm ot
in iert
in stallation
Ġn Ã¶tigen
eh ouse
ĠS P
ĠS IM
Ġun geschickt
Ġi gn
Ġb ar
Ġb and
Ġb sp
ar ter
Ġh ob
Ġein geh
Ġk ont
Ġk Ã¶rper
te kt
te ten
Ġf ur
Ġf ielen
Ġf eder
Ġf Ã¼llt
ig ur
Ġzu geben
ĠD S
ĠD igital
ck chen
ĠP Ã¼nktliche
Ã¶ sser
Ġsch immert
et it
sch ienen
Ġl as
Ġl asst
Ġl ampe
ĠG u
ĠG ur
ĠG rei
ĠG ri
ĠG ym
ach teln
ĠB ig
ĠB len
ĠB zw
ĠB aden
ĠB Ã¤ndern
ĠB ord
ĠB unte
ĠK F
ĠF B
ĠF ang
ĠF lau
ĠF lo
ĠF Ã¼sse
ĠF rÃ¼her
ĠF Ã¶rm
ĠF Ã¼nf
ur ay
ĠL etzt
ĠL Ã¤nger
ĠL ine
ĠL ernen
ĠL KW
ĠH as
ĠH orn
ĠH Ã¤rte
ro l
ro se
ro ren
ĠM os
ĠM appe
ĠT Ã¤t
ĠT ja
ĠT ische
ĠT ausch
ĠT ruhe
de ko
Ġan sch
Ġan satz
Ġan kleben
den a
or a
ĠW i
ĠW ahr
ĠW eckt
ĠW Ã¶l
ĠW ii
mm ert
Ġso o
Ġso cken
Ġso das
Ġin dukt
Ġp ast
ĠSch lo
ĠSch aufel
Ġo l
Ġver passt
Ġver legen
Ġmit zunehmen
Ġmit geteilt
Ġauf geht
Ġt ip
ĠV ollt
Ġaus lei
Ġaus lauf
Ġaus gesehen
Ġaus richten
Ġaus packte
Ġbe ster
Ġbe weisen
le chter
ĠN ehme
Ġr asche
Ġr astet
per son
ĠR uss
ĠR unde
ĠR ub
ĠR ift
ĠR FID
Ġhat t
il er
ĠPreis nach
ĠPreis leistungs
Ġj ung
ĠZ eh
ĠZ eitung
ĠZ angen
ĠVer a
Ã¤n nchen
am es
Ġst eil
Ġst Ã¼rzen
ĠO ft
ĠSt eh
ĠSt immen
Ġnach gelassen
oll er
ff iz
ĠAn schauen
ĠAn blick
ĠAn ruf
enn a
enn heiser
ed ition
Ġab sch
Ġab gelegt
Ġab nehm
Ġab gemacht
Ġab raten
Ġab bricht
ĠU p
ĠU mmantelung
ĠEin b
ĠEin band
ĠQ i
ĠQ uer
war t
us pr
Ã¼n det
op pt
zu ck
iv itÃ¤t
sp aÃŁ
sp ray
Ġ- --
ĠSp rit
ĠEr schÃ¼t
gel iefer
Ġvor weg
Ġ2 6
Ġ2 9
be zÃ¼glich
hal s
Ã¶r mig
ĠGer man
ĠJ ung
ĠJ BL
ag on
ag ert
ings el
Ġviel f
Ġviel ver
ver nicht
ver gnÃ¼gen
Ġent z
Ġent stand
Ġent spr
Ġander st
Ġger ollt
ĠBe w
ĠAb bau
Ġgel Ã¶
ĠGe ar
Ġmal e
ĠIn spir
Ġgef asst
Ġgef Ã¤rbt
Ġdurch weg
wer f
ĠAll ro
ĠGesch enke
ĠUn ge
he ber
ĠAuf lagen
ĠAuf sÃ¤tzen
Ġsp Ã¼l
sst ufen
Ġgew Ã¶lbt
Ġde aktiv
Ġgesch w
Ġzwei fel
ill ips
ĠRe peater
br ingsel
ĠZu leitung
ĠZu sendung
ĠZu griff
Ġc oo
Ġwo her
enk ind
frei heit
brau se
ĠEn der
ĠwÃ¤ chst
ĠBei spiele
Ġrecht fertigt
Ġgenau en
ĠBo ck
gesch irr
ĠNach lieferung
ĠNach geschmack
Ġstabil ere
ĠSte g
Ġneu em
qu ids
ĠMaterial fehler
Ġschwer ere
Ġschwer fÃ¤llig
ĠAus b
ĠAus gepackt
ĠVers iegelung
Ġrein ge
Ġrein stecken
ĠWer be
ĠMit tag
ĠgrÃ¶ÃŁ tenteils
ĠWasser flasche
ĠKinder sitz
ĠSchÃ¶n heits
ĠLicht quelle
Ġschw amm
Ġeinwandfrei em
ĠVor allem
bo le
ĠUnter lagen
ĠMal buch
ha ve
nit ur
ĠDesign s
Ġzusammen stecken
rÃ¼ hren
rÃ¼ stung
durch messer
durch lÃ¤ssig
Ġbed acht
Ġlaut es
unter schied
halt igkeit
halt barkeit
Ġraus zu
Ġraus kommt
Ġraus ziehen
ĠCh ines
ĠÃľber wach
Ġkompl izierter
Ġdick em
Ġerf olgen
ĠFot opapier
Ġverb indung
Ġverb leiben
ĠDe k
ĠAma z
Ġweg zu
ĠGew Ã¤chshaus
ĠSchw itzen
Ġverl aufen
ĠGlas flaschen
ĠOhr ring
Ġ20 00
Ġkn acken
sel ben
ĠSchl Ã¼sseln
ul iert
ide os
Ġschm ieren
Ver wende
ĠPlatz sparend
ĠMag az
ĠMont ieren
Ġtotal er
ĠmÃ¶glich e
ĠFl uter
Ġauss erdem
ĠEnt gegen
ander t
ĠLÃ¶ chern
schla f
Ġsauber es
Ġausge fÃ¼hrt
Ġordentlich er
Preis lich
ĠZum al
ĠRucksack s
Ġar t
ĠKon zert
fahr ung
ĠBand agen
!!!! !!
Ġgeb ildet
ĠBlu e
Ġheraus ziehen
ko hle
Ġunangenehm es
ĠAl gen
spr ing
Ġverwendet en
Ã¼gel t
ĠPo tent
fÃ¤ deln
Ġvert ret
ĠCo uchtisch
alte ten
ĠFÃ¤ llen
ink eln
ens burger
ĠHoch beet
mittel n
Wie der
Ġschwarz er
gl anz
gÃ¤n glich
ĠSol ange
Ġbl ond
So und
ĠRegen bogen
dicht ung
ĠDr ehm
ition er
hand y
Ã¤um en
ĠBefestig ungen
ĠTelefon s
Leistungs ver
ĠNe w
ĠNeu start
ĠBildschirm s
ĠKÃ¶r ner
ĠHin zu
Ġx l
Ġx xl
leb ig
Ar b
Ġober halb
ĠSer ien
Ġqu et
Ġwasser abweisend
Ġreag ierte
kn ickt
Ġakt uelle
Ġha ken
Sie he
ĠAnt wor
da fÃ¼r
zeich nen
Ġangemessen en
ĠRas pberry
ĠDar steller
Ġaut hent
ĠBohr ung
ĠKor rekt
Ġregel mÃ¤ÃŁiger
ĠPat enkind
stehen de
ĠMang o
ĠwunderschÃ¶n es
Ġbel astet
reu ung
Ġminimal e
Ġabzu ziehen
ĠMÃ¤ her
Ġglau bt
Ġmehrfach em
ĠBau anleitung
ĠÃĦr meln
ĠJe de
Ġfreund licher
ĠAngenehm e
ĠHinter n
kla ppe
ĠHaupt grund
fre quenz
Ã¤m pf
ĠHD D
âĢľ .
Ġstra hlt
ĠMangel haft
Ġauszu geben
Ġauszu schalten
ĠMess ungen
ĠLo ve
ĠBeschÃ¤ digt
Ġflex ible
Ġspr ach
stands fÃ¤hig
Ġerle digen
ĠSchlei m
ĠKomp ass
Ġbilliger e
if i
mo di
ĠText ur
Ġeleg ante
Ġleistung sstark
ĠArbeits flÃ¤che
ĠSa iten
ĠBrust gurt
ĠGesamt bild
ĠSw e
ĠTr enn
ĠTr ick
ĠHeiz leistung
ĠBequem e
ĠBes etzung
Ġrest los
ĠNie ten
klein ert
ĠkrÃ¤ft igen
ĠStar ke
Ġgriff bereit
Ġblo ck
ond itioner
ĠFer ien
ĠAnten nen
ĠErn Ã¼chter
IE L
schlei fen
Ġinform ieren
Klein er
Ġgepl anten
ĠÃľbergang s
ĠPh illips
ĠZigar ette
Ġnirgend wo
Ġauft rÃ¤gt
Ġausg iebig
ĠWunderschÃ¶n es
grÃ¼n de
besser ung
ĠSchlÃ¤ ger
ĠausfÃ¼hr liche
ĠEinzel fall
Ġwor auf
Ġstimm te
ĠKart usche
ĠInteress ante
Ġvari ieren
spl atz
ĠInner halb
ĠGef Ã¤ÃŁ
ĠDos ier
ĠKusch elig
Ġhervorragen de
Ġgrei fe
Ġanges ichts
ĠSpe zial
ĠFant asy
ĠErk ennt
mÃ¤ her
ĠVerÃ¤nder ungen
Ġansprechen de
Ġanbie tet
ĠTau cher
ĠErklÃ¤r ungen
empfind lichkeit
ĠKompr essor
kap utt
kap azitÃ¤t
mutter n
ĠProdu ckt
ĠÃ¤ st
ĠSitu ation
ĠMf G
ĠDart s
ĠIs omatte
ĠKult ur
Ġausgef ranst
Ġduf ten
ĠWÃ¼nschen swert
kal ker
Ġstrap az
ĠNet flix
Ġorg an
ĠdazugehÃ¶r ige
ĠZwie beln
Ġdezen ter
ĠGummir ing
kelt ochter
ĠsÃ¼ ÃŁen
ĠTatt oos
ĠKlima anlage
ĠberÃ¼ck sichtigen
Gel iefert
Lei chte
Lade kabel
verl ust
Ġuniver se
ĠBenachrichtig ung
ĠLÃ¼ftungs schl
ĠmÃ¤ chtig
ĠzuverlÃ¤ss ige
ĠauÃŁergewÃ¶hn lich
ĠEinkaufs wagen
Ġzerd rÃ¼ckt
Ġfle ckig
ĠProduktf otos
Ġretourn iert
ĠFreisprech einrichtung
opt imal
ĠKredit karten
Ġgrus elig
ĠSir up
ĠKun stoff
ĠWol ken
ĠUS A
ĠIng wer
ĠAkzept abel
ĠAbsenk automatik
ĠSock el
ĠPlat ine
ĠHyg iene
ĠDin os
ĠGL S
ĠGrÃ¶ ssen
ĠLay out
Ġstab iel
Ġsporad isch
ĠKanÃ¤ le
mpath isch
unz eln
reff end
ĠLuftbe feuchter
ĠThermost at
Ġumgek ehrt
Irgend wie
Dam it
Kap seln
ĠmÃ¼ÃŁ te
ĠRis iko
ĠUneben heiten
ĠAusfÃ¼hr ungen
ĠReiset asche
ĠhÃ¶hen ver
Ġunreal istisch
ĠMitgeb sel
Verk Ã¤ufer
ĠKonfigur ation
dust rie
ĠThom as
ĠHeiÃŁklebe pistole
ĠPanas onic
Ġidentif izieren
Ġign or
ĠFÃ¶rm chen
Ġansatz weise
Ġcoo len
ĠPotent ial
Ġvertret bar
) ...
7 5
B E
C oole
D Ã¼n
F est
G A
H alt
H Ã¼bsch
H alterung
I S
J e
L a
L ie
L eder
O X
P o
P ad
R Ã¼ck
b a
c ode
d ach
e bt
f al
f inde
f alten
f ix
f roh
f Ã¤nglich
g leiter
g lieder
g ruppe
h an
h Ã¼
i llt
i ol
k an
k at
k rit
k Ã¼hler
m ei
m uck
m ant
n eider
n Ã¼sse
n ote
o len
q m
r ige
r ingen
r ufen
r ufe
s age
s eher
s Ã¼ÃŁ
s fehler
s Ã¤ckchen
t iv
u u
y c
y ch
y pen
z a
Ġ ??
ei ern
Ġd i
Ġd uft
Ġd igit
Ġs c
Ġs ende
ie hlt
Ġa d
st Ã¶
st uch
st Ã¤be
st aubsauger
Ġm aÃŁ
in kl
an fÃ¤llig
Ã¼ bt
ĠS ich
ĠS he
ĠS ekt
ĠS amt
ĠS MS
ĠS ennheiser
Ġun ans
Ã¤ ure
ut ern
Ġb au
Ġb eher
Ġb ud
ar fe
ar ken
Ġdie jenigen
Ġein fÃ¼hren
Ġein wenig
Ġk Ã¤
Ġk Ã¼n
Ġk ri
Ġf Ã¤
Ġf alt
Ġf itter
ĠA U
Ġzu cker
Ġv o
Ġv lt
ĠD on
ĠD ot
ĠD unst
au ben
at oren
Ã¶ ser
Ã¶ die
Ġsch ok
Ġsch affe
Ġsch nitt
Ġsch Ã¤umt
el o
el eine
sch uss
sch war
sch aum
sch Ã¼ssel
sch Ã¤den
sch iene
ĠG T
ĠG U
ĠG uss
ĠG im
ĠG ruppe
ĠB iss
ĠB raut
Ġder art
ĠK re
ĠK ohlensÃ¤
ĠF ro
ĠF us
ĠF ond
ĠF Ã¼hrungs
kt ober
ĠL id
ĠL aschen
ĠL otion
ĠH T
ĠH m
ĠH oo
ĠH Ã¤rchen
ĠH unger
ro sa
ĠM Ã¤ÃŁ
ĠM uff
ĠM AC
ĠT im
ĠT Ã¤glich
ĠT rÃ¤gt
ĠT Ã¼tchen
ĠT richter
Ġan gelaufen
Ġan nehmbar
Ġan genÃ¤ht
Ġan probiert
Ġan wendbar
ĠW urf
Ġer halte
Ġer laubt
Ġp rime
Ġp raktik
ĠSch rÃ¤nke
Ġo ho
Ġver wei
Ġver schlieÃŁ
Ġver senden
Ġver lÃ¤uft
Ġver fÃ¼gen
Ġmit ge
Ġmit unter
Ġman ko
Ġauf f
Ġauf lad
Ġauf merksam
ste chen
ĠI I
Ġt ats
Ġt ue
Ġwie gen
and elt
Ã¤t ig
ĠV ER
Ġaus lÃ¤uft
Ġbe wirkt
Ã¶n nen
Ã¶n nten
ĠN yl
ĠN UR
Ġr es
Ġr Ã¶
Ġr ub
Ġr auschen
ĠR unden
ĠR unter
ĠR etro
esch muck
se o
auf zeit
Ġj ahre
ra ften
ĠZ ier
ĠZ acken
ĠZ oom
was ch
ĠVer lauf
ĠVer schm
Ã¤n den
Ġkl icken
sen d
Ġst d
Ġst re
Ġst ill
Ġst reichen
ĠO m
ĠO HNE
ĠSt Ã¼rzen
ĠSt udio
ĠSt ruktur
Ġnach geb
rie be
re ffer
ent rÃ¤ger
Ġab n
Ġab s
Ġab stellen
Ġab fÃ¤llt
Ġab schaltet
Ġab ziehe
Ġwei hn
omm el
ĠEin k
ĠEin fÃ¼hrung
ĠEin schlafen
lei den
pfeh len
zu behÃ¶r
Ġwieder kaufen
ĠÃ¼ber nommen
ĠÃ¼ber dimension
her steller
her ry
Ġe ur
ĠEr zÃ¤hl
gel b
gel chen
all el
Ġvor install
Ġwenn s
end el
be er
be eren
be zÃ¼ge
Ġum zu
Ġum schlieÃŁt
ver arbeitung
eg ung
ĠC olle
ĠC lass
ĠC onditioner
wert ungen
ĠEs stisch
ĠBe stes
ĠAb sau
ĠAb zÃ¼gen
Ġgel agert
fekt ions
ĠAr ret
ĠIn t
off en
ĠUn angenehm
ĠUn kompl
ĠUn zufrieden
ĠUn glaublich
he bel
ĠAuf stell
Ġlie ss
Ġsp Ã¤r
Ġdr Ã¼ck
Ġgew ir
Ġgew ickelt
pp enk
Sch icke
Ġbesch leun
Ġher geben
ass bar
Ġgesch ehen
Ġgesch adet
ĠRe cher
br Ã¼che
ĠFarb lich
inder ung
Ġunter m
ĠZu beh
Ġ, ,
Ġc d
Ġwo hin
lÃ¤ re
ĠBuch sen
brau chen
Ġges amt
Ġges plittert
Ġange z
Ġange klebt
Ġkam era
ĠEn keltochter
Ġhin zufÃ¼gen
ĠLeistung sstark
Ġerst anden
Ġte ste
bau bar
ðŁ Į
ĠWar s
Ġfest es
Ġfest zu
Ġfest ziehen
Ġfest kleben
Ġfest stellbar
ĠAus schlag
ĠAus fÃ¤lle
ĠAus leuchtung
ĠMon d
ĠVers ionen
Ġsonst igen
ĠMit bringsel
ĠWasser s
ĠWasser strahl
utt ons
ĠKinder leicht
ĠKinder spielzeug
ĠGeld scheine
ĠSchÃ¶n heit
ĠBl inken
ĠBl umenk
ĠBl uray
uÃŁ te
ĠLe er
ĠBesch rieben
Ġkon zip
Ġschw imm
Ġschw achen
Ġnun mal
Ġgem Ã¼
Ġgem alt
ant asie
kl em
kl eine
bo hren
ĠUnter wÃ¤sche
ĠUnter hose
ĠUnter setzer
Ġle der
Ġle ere
Ã¼b ungen
Ġen den
Ġen ge
Ġrei chte
vor schlag
ĠStoff qualitÃ¤t
Ġeinmal igen
atter n
atter t
rÃ¼ ht
ĠnatÃ¼rlich en
ĠPer le
gef ahren
ĠUm stÃ¤ndlich
Ġhochwertig em
Ġwert ige
ĠmÃ¼ de
Ġ6 4
iz in
iz it
Ġ:) )
Ġhell grau
Ġjeder mann
ĠMin imal
ĠTe ekanne
ĠlÃ¶ cher
ĠVerk leidung
Ġdirekt er
ĠBr and
ĠBr enner
Ġgest richen
Ġgest artet
Ġklar en
ĠÃĸ sterreich
ĠSchl ummer
ul Ã¤r
ul ierung
Ġwunder t
ĠLuft matratze
Ġro ll
Ġro mant
ĠGl Ã¼hl
Ġverschieden er
ĠLiefer service
ĠEnt safter
ĠErwar tet
Ġpass abel
ras ierer
ĠPf le
Ã¶glich keit
Ġvers orgen
Ġzw ang
ĠKÃ¼ hler
Ġ8 5
Ġ8 00
ĠSchn eidet
ĠSchn Ã¼re
ipp s
voll en
ĠOber material
ĠKon den
Ġhal tet
Ġ; -
ĠiP hones
Ġkommen den
!!!! !!!
Ġversch lechter
ĠsÃ¼ÃŁ er
lÃ¶ s
erst Ã¶rbar
ĠMa i
Ġfunktionieren de
inter ess
ahn en
Ġanzu passen
Ġglei ten
ĠPu der
Ġnerv iges
Ġdicht er
ĠDies mal
ĠGroÃŁ artig
ĠGen re
ĠAl ten
ĠHund es
fern bedienung
Ġabge dichtet
etter n
ĠLeder tasche
Ġschmal es
fl on
ĠtÃ¤glich em
ĠSau gt
ĠWind el
ĠCo il
ĠInhalt s
uchte ten
ĠgewÃ¶hn lich
Ġbet ont
Ġverk raften
ĠwÃ¼n schte
ĠTrage griff
ĠGeh Ã¤us
Ġerw Ã¼nscht
ĠHoch wertige
ĠÃ¤hn elt
ĠTro pf
ĠTro cknet
ĠKu pp
ĠStecker s
ĠSonnen bl
ĠSonnen schein
Ġaufzu bewahren
Da her
In teress
ĠBedien barkeit
liegen den
ĠPraktisch es
Einfach es
ĠMaus rad
ĠModell bau
ĠPin s
ĠDr Ã¼cken
Ġspannend es
ĠGegen stÃ¤nden
ĠStr et
mÃ¶glich en
Ġmehrmal iger
ĠFahrrad tasche
pro v
ĠWunder mittel
Ġenthalten en
ĠSer ver
ĠLÃ¼ ften
** *
Ġempfind lichen
man tel
ĠAnt hrazit
Ġdank bar
ĠAnschluss kabel
ĠPol it
ĠwÃ¤hr e
ĠBohr maschine
ĠLeucht dauer
Ġregel recht
gesp annt
ĠIhr em
reck end
ĠKlett band
ĠTest er
ĠbemÃ¤n gel
stehen den
ĠWÃ¤r en
Ġdrau s
ĠWim per
ĠKnopf druck
ĠKnopf zellen
ĠTÃ¼ chern
Ġ0 8
Ġtrin kt
Ġmittel groÃŁ
ĠDusch gel
ĠBesonder es
ĠEle f
ĠSchwÃ¤ mme
Ġansprechend es
na ht
Sp ann
Ger Ã¤u
Ġfe uchte
Ġvergleich baren
ĠÃ¤lter es
weis ungen
Ġkompakt er
Ġkompakt en
Ġausgel iefert
Ġauszu halten
ĠVerl iert
ktion iert
ĠstÃ¤rker em
ĠspÃ¼r e
ĠHo tel
ĠVerbesser ungen
Ġleben s
ĠPost bote
Ġspr Ã¼hen
ĠMotiv en
Ġflach er
Ġerle ben
ĠEigen geruch
lade gerÃ¤t
Per fekte
ĠFa hne
Ġeleg anter
Ġrau e
Ġrau chen
ĠMÃ¶ chte
ĠWitz ig
ĠGest ern
jÃ¤hr iger
ĠPrinzip iell
ĠCharakt eren
Ġâ ľ
ĠSchrit ten
ĠHÃ¼bsch es
zieh ungs
Ġunz Ã¤hl
ĠRom ane
Vor ab
Vor weg
fig uren
Ġind ir
ĠRes et
Ġkratz fest
ĠFel ge
Ġkalte m
ĠEier kocher
ĠDrei rad
ĠMel dung
ĠUhren armband
ĠhÃ¶ch st
ĠPlastikt eile
ĠEd ge
ĠErn st
Ġfehler hafte
ĠðŁ¤ ·
Ġausgesch nitten
ierend es
ĠMake up
ĠDi Ã¤t
ĠDi am
Ġgelegentlich en
ĠHÃ¼ hn
Ġaufget eilt
Ġverbr ennen
Ġmodern er
spann er
ĠAnforder ung
ĠHart plastik
ieber t
ĠGren ze
Ġint akt
ĠKompl imente
ĠAktiv ierung
Angenehm er
Des halb
Ġvari abel
Ġruck zuck
ĠVerst ehe
ĠKaffeem Ã¼hle
ĠTur bo
Ġgez ahlt
Ġmagnet ische
Ġaussp Ã¼len
ĠBrem se
ĠSchwimm bad
ĠAlter s
Ġlust iger
Ġgeg uckt
Ġaufger Ã¤umt
ĠRutsch fest
hel m
Ġverkn ickt
Ġhervorragen der
Ġfolgen de
201 7
ĠSeifen blasen
Ġthe oretisch
Ġbeeindruck end
ĠCon ne
ĠMikrof asertuch
Ġschau spieler
ĠkÃ¼ mmern
ĠErk Ã¤lt
schlÃ¤ fer
Ġflie ÃŁt
ĠHervor ragende
Ġbeigeleg te
ĠPanzer folie
Ear s
US S
oil ette
Ġgep utzt
ĠKolle gin
Ġnachge arbeitet
ĠGit arren
Ġsaug fÃ¤hig
ĠPap a
Ġverarbeite ten
ĠAs ien
mÃ¤n gel
ĠVis it
ickelt asche
Ġdurchsicht igen
ĠFeatur es
Ġpriv aten
ĠHon ig
gestell ten
ĠKabelb indern
ĠIndukt ions
ĠThermo becher
Ġzusammenk lappen
Ġzier lich
Ġzahl reichen
Ġvibr iert
ĠFakt en
Ġorg inal
ĠWhite board
ĠFas z
ĠberÃ¼ck sichtigt
ĠGewÃ¶hn ungsbedÃ¼rftig
toll es
Ġbehau pten
ĠBrenn dauer
Ġaufw Ã¤ndig
Ġliebl os
ĠFlu sen
crem en
ĠGeil es
Ġekl ig
rid ge
Ġkonzentr ieren
Ġungesch Ã¼tzt
Ġbeanspr ucht
Ġsw itch
Ġsenk recht
ĠFrÃ¤ ser
lekt Ã¼re
Ġbeglei tet
Ġschluss endlich
ĠLuftpolster folie
ĠFack eln
Ġzust ande
Ġscho en
verb indungen
ĠSpannbett laken
ĠBeding ungen
ĠZeich nungen
ĠStat us
Ġvorgebo hrt
ĠPlÃ¼ scht
ĠRÃ¶hr chen
Zigar ette
folg ung
stÃ¼ chtig
ĠPfer de
ĠClo ud
ĠBetracht ung
ĠJogging hose
Ġsal zig
ĠPick n
ĠEinle ges
ĠNavig ation
ĠTrakt or
ĠSonic are
ĠverwÃ¶hn t
ĠKuschelt ier
Ġisol iert
ĠbÃ¼n dig
ĠWurz el
Ġbsp w
ĠKF Z
ĠVollt reffer
ĠPreisnach lass
ĠGerman y
Ġvielver sprechend
ĠErnÃ¼chter ung
ĠÃ¤st hetisch
ĠKohlensÃ¤ ure
ĠNyl on
' .
4 5
4 6
6 5
; )
A uÃŁ
B rille
D F
D eck
E U
F ast
F allen
F inger
G O
G las
G leich
H A
I C
I ON
K lebt
K omp
L uft
L eucht
L ustiges
M us
M esser
M ag
N ie
N etter
O K
P in
P ack
R ucksack
T OP
T yp
W o
b lende
b atterie
c at
c ul
c raft
d ing
e llt
e ce
f g
f acht
f eier
g ab
g old
h art
h offe
h Ã¤l
h Ã¤rter
i ze
i zie
j ekte
k r
k urz
k rÃ¤
k ochen
k ocht
k ennung
l ot
l iste
m ing
m ischen
m Ã¼hle
m ehl
m agnet
n uss
n issen
o f
p al
r er
r ennen
r esse
s uch
t olle
u a
u ah
v d
v ari
v ia
w uchs
x us
z i
z dem
z ahn
z if
z ettel
Â ²
Ġ ~
ch a
er zt
er satz
en swert
en brett
Ġd achten
Ġd raht
Ġd ehnt
Ġs eh
Ġs uch
Ġs ug
Ġg ei
Ġg las
Ġg uckt
Ġw ein
Ġw eckt
es e
Ġm ie
Ġm esser
Ġm aus
an el
Ã¼ ch
Ã¼ ler
Ã¼ mmert
ll eistung
Ġn ack
ĠS ke
ĠS Ã¼ss
ĠS eile
ĠS ign
ĠS itze
Ġun ert
Ġun gern
Ġb ot
Ġb ett
Ġb aum
ar ot
Ġh or
Ġh ind
Ġh Ã¶r
Ġh ieÃŁ
Ġein igem
Ġein schaltet
Ġz ack
Ġk rank
Ġk anten
Ġf unkt
der t
ig end
it an
Ġv ll
em ann
ĠD rau
ĠD ial
ĠD ino
ĠD AS
ĠD Ã¼nger
au lt
ck et
ck ern
ĠP au
ĠP umpen
Ã¶ pfen
Ġsch ien
Ġsch uh
Ġsch ritt
Ġsch raubt
Ġsch adet
el ement
sch atten
Ġl etzen
Ġl adet
ĠG ir
ĠB W
ĠB arb
ĠB leist
ĠB ombe
ĠB uttons
ab ler
ab lage
ĠK auft
ĠK inn
ĠK ennt
ĠK appen
ĠK Ã¼rze
ĠK ita
ĠK ategorie
ĠF eu
ĠF rank
ur den
kt op
ir ma
ir men
ĠL g
ĠL as
ĠL ive
ĠL iste
ĠL ustiges
ĠH inder
ĠH Ã¤nger
ĠH Ã¶ren
ĠH ans
ĠM S
ĠM indest
ĠM Ã¼hlen
ĠM USS
ĠE uch
ĠT her
ĠT ap
ĠT ritt
Ġan hÃ¤lt
Ġan setzen
Ġan zuf
Ġan drÃ¼cken
den t
den klich
rei ss
rei ft
ge g
ge fÃ¼gt
ĠW all
ĠW itter
ĠW ahre
ĠW andern
Ġso zusagen
Ġer weck
Ġer wiesen
ert igen
Ġin fo
Ġin spir
Ġp la
Ġp aket
Ġp igment
Ġp anzerglas
Ġp iep
ĠSch aber
ĠSch ichten
ĠSch Ã¼tz
Ġo ut
Ġver schie
Ġver Ã¶ff
Ġver bracht
Ġver drehen
Ġver zieht
Ġmit bringen
Ġmit machen
Ġauf re
Ġauf stehen
Ġauf drehen
ste st
ĠI llustr
Ġt Ã¤uscht
ĠV ans
Ġaus f
Ġaus macht
Ġaus zur
Ġaus schaut
Ġbe zogen
Ġbe kleben
Ġbe bilder
Ġda mal
Ã¶n en
ĠN oten
Ġr u
Ġr ad
per ia
Ġwar tet
ĠR illen
ĠR AM
il i
se e
ĠPreis k
ĠPreis werte
ĠVer halten
ĠVer film
ĠVer schrau
Ġkann s
Ġst y
Ġst il
Ġst ehe
Ġst Ã¼rzt
Ġst olzen
ĠO st
ĠO ktober
ĠSt Ã¼tze
ĠSt ore
Ġnach einander
oll y
rie gelung
ĠAn st
ĠAn reg
anz ig
ed em
re ue
Ġwas che
Ġab nehmbar
Ġab nimmt
Ġwei le
omm er
ĠU PS
ĠEin stecken
... )
rau s
ĠQ I
ĠQ uellen
la kkus
mal e
hn achts
ik at
zu bringen
zu heben
fe ct
ĠÃ¼ber denken
Ġklein ster
Ġwer tet
Ġe ar
Ġe ct
ĠSp edition
ĠHand wÃ¤rmer
ĠEr lebnis
gel egen
ade ll
Ġvor bereitet
Ġ2 30
Ġlei ten
ĠJ unge
ĠJ edem
bl as
bl Ã¤ttert
Ġbin nen
Ġwirklich en
ĠC and
ĠC ub
ĠC ola
ĠC PU
ĠBe stand
ĠBe zeichnung
ri mmer
ri ften
ĠAb stÃ¤nde
ĠAb zieher
ĠgroÃŁ artiges
ĠOr al
ĠOr angen
ĠOr dung
Ġgek enn
Ġgek ratzt
ĠIn halte
Ġgef il
Ġdurch halten
Ġdurch dachte
ĠAll gemeinen
Ġper son
ĠUn schlagbar
ĠAuf stellen
utz ten
Ġeiner seits
ĠKl inke
Ġgew innen
Ġje weilige
Ġson nst
Ġbesch reibt
ast ische
ad urch
ĠFarb t
ĠFarb kom
ma ÃŁe
Ġunter gebracht
Ġunter brochen
ell ing
frei en
ĠZweck mÃ¤ÃŁig
ĠEn erg
ĠzurÃ¼ck gegeben
Ġ5 2
ĠDes ktop
Ġgenau em
ĠGel ungen
schie ber
Ġ: ).
Ġvoll stÃ¤ndige
Ein z
Ġrein es
Ġrein passen
Ġeigen er
Ġersten s
Ġlang fristig
ĠWer ke
ĠWasser behÃ¤lter
Ġ! ?
ĠMein ungen
mack haft
ĠPl isse
Ġgem achter
Ġeinz uf
Ġeinz unehmen
kl icken
ĠRei bung
att oo
ĠVor schein
ĠVor richtung
stÃ¤n digen
Ġsicher heits
ha mmer
ĠDis c
Ġdeut lichen
An schlÃ¼sse
ak el
ĠBin den
Ã¤ÃŁ t
Ġraus holen
Ġraus gebrochen
riff e
Ã¶t igt
ĠCh ip
Ġhand licher
ĠUm geb
ĠUm hang
ĠUm randung
Ġir r
Ġwarm er
Ġbeh Ã¤lt
ĠTe en
ĠTe ur
ĠTe flon
ĠlÃ¶ schen
Ġste cker
empf ang
ĠSchw ung
Ġverl etzen
ĠGlas platte
ĠApp etit
Ġkn ickt
ost uhl
Ġklar es
fer enz
ĠDruck en
ĠMag ic
ĠLade funktion
Ġempf ang
Ġempf iehlt
Ġro s
Ġro st
Ġbillig em
ĠFern bedien
ĠGl itz
ĠmÃ¶glich erweise
ĠLiefer dienst
ĠEnt sprechend
ĠEnt nahme
ĠEnt spannung
erk opf
arf uÃŁ
ĠgÃ¼nstig em
Ġpass form
ĠPf oten
Ġvers etzt
Ġor ient
Ġhil fs
Ġoben dr
ĠFahr rÃ¤der
ĠFeh len
ĠBen zin
festig ung
ĠSm ile
ĠSchn ap
og ra
ĠSti llen
Ġfl ackert
druck en
Ġar ret
Ġhal f
Ġtro pfen
ĠðŁĺ Ĥ
ĠðŁĺ ĥ
ĠKan ister
ĠTo ast
geh oben
Ġheraus fallen
ko ut
ĠGroÃŁ teil
Ġaufge fÃ¼llt
Ġaufge pumpt
Ġpl atzt
Ġabge wickelt
Ġwahr genommen
Ġwahr nehmbar
ĠBer eichen
ru h
ĠKarten leser
ĠWeihn acht
ĠHab s
besch ichtung
Ġbet Ã¤tigt
ĠPack maÃŁ
ĠFuÃŁ bett
Ġzer kleinern
ĠArbeit splatz
ĠZusammen hang
ĠRo ss
ĠHoch wertiger
Ġaufzu stellen
ĠheiÃŁ em
Ġblau es
ĠSpr achen
sprechen de
Ġunge w
gl Ã¤tter
ĠBlick e
Ġhilfrei che
Ġhilfrei ches
ĠMÃ¶glich erweise
ĠSicher lich
ĠBaby phone
ĠâĢ ¢
ĠKatzen kl
Ġhart es
Ġlangsam en
ĠInnen bereich
Nicht s
ĠWasch lappen
ĠGeburtstag sk
yst ick
Ġtrocken er
Ġans ehnlich
Ġex ter
Ġex periment
ĠStrom verbrauch
ĠRadio wecker
Auf bau
ĠBad et
Ġlecker er
ĠArt h
AN D
pr esso
ĠNetz kabel
Ġersch ien
ĠfrÃ¼her en
Ġ.... ...
hÃ¤n getasche
Ġmus ik
ĠKrit erien
ĠBohr lÃ¶cher
isten t
ĠÃ¼b liche
ĠPat rol
ĠTipp en
ĠErst mal
Ġbel iebt
ĠTherm os
Ġtrin k
Ġzweck s
ĠHelligkeit s
ĠBau steine
ĠFenster bank
ĠPort ion
Ġunver Ã¤ndert
ĠDV B
Ġse xy
ĠfÃ¼hr te
chn isch
ĠWe ber
Ġtief en
Ġkalt weiÃŁ
Ġkompakt es
Ġausgel eiert
ĠWÃ¤sche korb
Ġerne uten
ĠMess gerÃ¤t
ĠEt agen
rÃ¤nk chen
Ġruh iger
Ġlangleb iger
Ġhochwertiger en
Ġteurer es
affen heit
ĠSand kasten
ĠSchub karre
Ġflex ibler
ĠDreh zahl
Ġangeboten en
ĠKomp at
ĠGem Ã¼
ĠGem Ã¼tlich
ĠFlie ge
lade funktion
ĠPr ess
Ġgeschmack s
zuf Ã¼llen
ĠSa hne
ĠKling eln
ĠWÃ¼r den
ĠHerz frequenz
ĠVorgÃ¤nger modell
schw einchen
ĠHochzeit s
Funktion ieren
ĠTr icks
ĠTier arzt
ĠNormal e
Ġsinnvoll er
Ġbeige fÃ¼gt
ĠAutos itz
ĠkrÃ¤ft iges
Ġkratz er
ĠFel der
ĠGÃ¤ sten
ĠHome button
ĠHome page
Ġstren ger
hei zung
Ġfumm eln
ĠIr re
ĠVert rauen
ĠStrand muschel
Ġaust ausch
ĠVibr ator
ĠMark ise
edu z
ĠðŁ¤ Ĺ
ĠNerv t
Ġverw undert
Ġdurchdacht es
........ ........
ĠSchwach stellen
einfach e
ĠSÃ¤ge blatt
ĠCan c
Ġausgest anzt
ĠSl ips
Ġ17 0
ĠMail s
Ġkeines wegs
Ġprodu zieren
ĠReinigungs mittel
Ġwider standsfÃ¤hig
ĠEinzel handel
ĠNotebook s
Ġmon aten
Ġhaar e
ĠIsol ierung
Re ceiver
Ġverwir rt
Ġtrain iert
ĠKaufpreis es
ĠKart offel
ĠVerlÃ¤nger ungskabel
Ġem fehlen
ĠReis verschlÃ¼sse
ĠStÃ¶ ÃŁe
ĠðŁĳĮ ðŁı¼
Ġsens ibel
Ġbere chnet
ĠKusch el
Ġgeg laubt
ĠGeschmacks richtungen
ĠLebensmittel n
201 9
ĠSeifen spender
Ġspeziell es
ĠDok ument
ĠTÃ¶ pfen
ĠBal ance
risch ung
Ġdos iert
Ġuner wartet
ĠHervor ragend
ĠðŁĻ Ĥ
ĠGro ss
ĠBrÃ¼ ste
Ġabf Ã¤rbt
ĠGetrÃ¤nk ehalter
ĠDÃ¼n n
ĠschÃ¤r fen
Ġjahr elang
ickeln d
Ġpar allel
Ġschmerz frei
zentr ation
WunderschÃ¶n es
ĠbrÃ¤ un
ĠMahl zeit
Ġumwelt freundlich
Ġchines ischen
Ġdeck end
ĠSn ack
ĠflÃ¼ss ige
ĠKEIN E
ĠStroh halme
Ġpriv at
ĠTrau rig
ĠIndukt ion
ĠReflekt oren
ĠTesa film
Ġpenet ran
trotz dem
ĠMer c
ĠAbweich ung
lÃ¤uf er
drÃ¼ck ung
Ġmoder ne
Ġgrav ierend
ĠSym bole
ĠGummist iefel
dÃ¼n n
zell an
ĠzurÃ¼ckzu schicken
ĠKomment ar
ĠVerbesserungs vorschlag
ĠFalsch es
ĠIns besondere
ĠPon cho
Ġscheu ern
Ġjetz igen
Ġgewiss er
Ġbevorzu ge
ih uah
Ġgele uchtet
ĠMod eschmuck
AZ ON
Kle be
Ġharm on
ĠTees ieb
ritte use
fassen d
ĠKrÃ¼ mel
ĠFix ierung
ĠtrÃ¼ bt
ĠhandelsÃ¼b liche
ĠSaun a
Ġaugen scheinlich
ĠNeig ung
Ġattrakt iv
ĠAM AZON
ĠDAN KE
entfern er
ĠCas io
ĠVorred ner
Ġerfreu lich
ĠNov ember
Ġwirkungs voll
Auss ehen
ĠIt alien
Ġjog gen
zension en
ĠVerbesserungsp otential
ĠNahrungser gÃ¤nz
vide o
Ŀ¤ ï¸ı
Ġfau l
ĠMom ente
Ġpor Ã¶s
Ġtraum haft
Schick es
ĠRav ensburger
Ġkuschl ig
ĠSynchron isation
ĠMÃ¤r z
Ġverzer rt
ĠamÃ¼s ant
Ġkonst ant
Ġknist ert
wÃ¤sser ung
Sel bst
ĠDist anz
ĠPier c
ĠVerstÃ¤r kung
ĠGeschÃ¤ ften
geschritten e
ĠUnterbrech ungen
utens ilien
ĠApothe ke
ĠwÃ¶ chen
Ġauslauf sicher
ĠDunst abzug
ĠGim bal
Ġpraktik abel
Ġtats Ã¤ch
Ġnachgeb essert
ĠClass ic
ĠZubeh Ã¶rt
Ġkonzip iert
ĠgemÃ¼ tliche
ĠVisit enk
ming ere
Ġunert rÃ¤glich
ĠAnreg ungen
1 4
1 9
? ).
B H
B el
B ill
D R
D uft
E x
E her
F oto
F lasche
G l
G egen
G rill
H i
J acke
K Ã¶nnten
L assen
L ust
L ecker
M P
M W
M aus
O ber
P u
P umpe
P ods
S pe
S ens
S Ã¼ÃŁe
S mart
W ert
a el
a tel
a kkus
b Ã¤r
b Ã¼geln
b atterien
b leiben
b leibt
c il
c ast
d och
d elt
e ar
e ste
f eln
f alle
g Ã¤nger
g ieÃŁen
h y
h z
h ium
h Ã¤rten
i ht
i Phone
k i
k art
k ratzt
k olben
m aus
m issen
n acht
n ess
n oten
n ehme
p ert
p tet
p us
p rint
r is
r ieren
s ein
s achen
s ollte
s itzt
s anzeige
v o
v id
w es
w ischer
w unsch
y pt
Ġ one
Ĥ ï¸ı
ch liche
ei se
Ġd ro
Ġd umpf
Ġd ehnen
Ġs atte
Ġs ek
ie ge
un zt
un dern
Ġa rom
st um
st asche
st angen
st immen
st ock
st oÃŁen
ein lagen
Ġg arten
Ġg ieÃŁen
Ġw g
Ġw Ã¶lbt
Ġw abbel
Ġw Ã¼sste
as ke
Ġm fg
an a
Ã¼ st
Ã¼ stet
Ã¼ pft
Ã¼ ftung
ll y
Ġn ehm
ĠS an
ĠS eine
ĠS uch
Ġun mittel
Ġun log
Ã¤ hne
ut ch
Ġb atter
ar akt
Ġh d
Ġh Ã¤
Ġh mm
Ġh ui
Ġh ackt
Ġh istor
Ġein gen
Ġein geben
Ġein dr
Ġein packen
Ġein tragen
Ġz ig
Ġk ei
Ġk an
Ġk asch
Ġk alk
Ġk atzen
Ġf la
Ġf rem
Ġf unk
Ġf Ã¶rder
it h
it v
it er
ĠA EG
Ġzu kommen
Ġzu klappen
Ġzu gÃ¤nglich
Ġv ii
ĠD M
ĠD ER
ĠD unk
ehr te
au ger
Ġnicht mehr
ck elt
ber g
ĠP R
ĠP c
ĠP ast
ĠP KW
ĠP ush
Ġsch lau
Ġsch rieb
Ġsch rift
Ġsch lauch
Ġsch ieÃŁen
el eistung
et ar
sch al
Ġl ab
Ġl ive
Ġl aufe
Ġl ite
ĠG Ã¤n
ĠG ol
ĠG ieÃŁ
ĠG leiche
ĠB u
ĠB le
ĠB re
ĠB eig
ab bert
ĠK ro
ĠK ing
ĠK ri
ĠK off
ĠK ommen
ĠK Ã¼nst
ĠK essel
ĠF ind
ĠF eile
ĠF rem
ĠF Ã¤rben
ir es
ĠL uf
ĠL aub
ĠL IE
ĠL acher
ĠL enov
ĠH i
ĠH eck
ĠH immel
ĠH amster
ĠM erk
ĠM usch
ĠM obile
ĠE C
ĠE ro
ĠE rei
ĠE ye
lich keiten
ĠT auf
ĠT icken
ĠT shirt
ĠT Ã¤schchen
Ġan gen
Ġan schluss
Ġan passt
Ġan nehmen
Ġan machen
Ġan zum
den d
rei cht
rei he
.. )
ĠW ach
ĠW ann
ĠW estern
Ġso hn
Ġso mmer
Ġge ste
Ġge gl
Ġge gessen
Ġge dul
Ġer stellt
Ġer mÃ¶glichen
Ġin halt
Ġin tern
Ġp in
Ġp lay
Ġp unkte
Ġp fl
Ġp rim
ĠSch leich
ĠSch ilder
ĠSch einbar
ĠSch erz
ĠSch Ã¼rze
ind el
Ġver wand
Ġver geht
Ġver lÃ¤sslich
Ġmit hilfe
Ġauf gehen
Ġauf gesetzt
Ġauf klappen
Ġauf pumpen
Ġauf pusten
ĠI N
Ġt ier
Ġt ochter
Ġt hem
Ã¤t igung
Ġaus d
Ġaus gesp
Ã¶n nt
ĠN est
ĠN ickel
Ġr el
Ġr Ã¼cken
Ġr elevant
ĠR ab
ĠR auf
ĠR ett
ĠR ay
ĠR GB
ĠPreis werter
ĠZ ei
ĠZ ie
ĠZ ecken
ĠVer sch
ĠVer stellen
Ã¤n gert
Ġkl a
is ion
Ġst anden
Ġst atisch
Ġst recken
Ġst Ã¶ÃŁt
Ġst ruktur
um per
um pel
Ġnach teil
ĠAn legen
ĠAn scheinend
ĠAn weisung
ol aus
ed el
ent abelle
Ġab fallen
Ġab zunehmen
Ġwei te
ĠU ser
ĠU sb
ĠEin iges
ĠEin blick
ĠQ ul
la stig
war um
om en
ĠQualitÃ¤t sk
ik ot
ik alien
wei lt
fe ll
fe uchtet
ĠProdukt inform
ĠProdukt bildern
ĠÃ¼ber ziehen
ĠÃ¼ber lesen
ĠÃ¼ber flÃ¼ss
eck ere
Ġsein es
Ġe ffiz
ĠSp ider
ĠSp eisen
ĠEr inn
ĠEr schein
ft iger
Ġwenn gleich
Ġlei ses
ap eln
Ġdes ig
fÃ¼ gig
ĠJ ugen
eil te
ag o
bl ase
Ġent weicht
Ġwirklich er
os i
ĠC R
ĠC hl
ĠC app
ĠC ard
ĠC omp
ĠBe vor
ĠAb gang
ĠAb warten
Ġdies bezÃ¼glich
Ġgel itten
Ġgel Ã¼ftet
ĠGe wohnte
Ġempfehlen swerte
Ġmal t
Ġgek Ã¼hlt
Ġgek Ã¼mmert
ĠIn d
ĠIn stall
Ġgef angen
Ġdurch sehen
ĠAll erg
schen kt
Ġwen den
ĠSo cke
ĠUn n
he ft
ĠAuf blasen
geb uch
geb ogen
ĠlÃ¤ cher
Ġsp az
Ġdr Ã¼cke
auft eilung
ĠKl ingt
ĠKl inken
ĠKl umpen
arbei tete
Ġweiter empf
Ġweiter helfen
art iger
Ġde form
Sch n
Ġher zlich
ragen der
ad ung
ken ne
stell bare
Ġzwei tens
ill ing
br uar
ank ungen
ĠFarb temperatur
alt es
Ġben Ã¼tzt
Ġc oil
Ġwo w
dig ten
pl an
Ġvie ls
Ġange fÃ¼hlt
ĠZeit fenster
Ġwenig sten
Ġhin legen
Ġerst klassig
Ġzie h
ĠGel egen
ĠBo hnen
ĠBo oster
gesch ichten
ĠNach bau
ĠNach arbeit
ĠNach fÃ¼ll
ĠNach haltigkeit
ĠSchu ppen
ĠWar ehouse
Ġfest em
Ġfest machen
Ġfest gehalten
Ġkurz lebig
ĠAus schalter
ĠAus lÃ¶ser
ĠAus gezeichnet
ĠAbzug shaube
Ġrein en
Ġbeschrieben e
Ġgeh Ã¶r
ĠKinder spiel
Ġber uf
ĠBl ument
ĠLicht s
ĠLicht schalter
Ġpaar mal
Ġschw Ã¤
ĠPl ot
ĠSon os
Ġopt ik
Ġeinwandfrei en
Ġbeg eister
ĠNa he
ĠVor gang
ĠðŁ Ĵ
ĠFunktion ell
ĠRÃ¼ck fahr
ĠDeck t
dr in
ĠUnter halt
ĠUnter hemd
ĠPlastik geruch
Ã¼b schen
ha fen
im iert
ĠDis ney
Ġrei ÃŁ
ĠSchutz hÃ¼llen
Ġeinmal igem
ĠHaar gummis
ĠOpt ionen
unter drÃ¼ckung
Ġfunktion stÃ¼chtig
ĠPer formance
ĠCh ili
ĠweiÃŁ t
ĠweiÃŁ em
Ġhand liche
ĠUm stand
ĠUm hÃ¤ngetasche
ip ment
Ġ6 00
Ġir gen
ĠAma te
Ġweg lassen
Ġschl Ã¼ssig
ĠWie se
ĠSchw e
Ġverl iere
Ã¤hr te
ĠOhr polster
Ġkn uspr
Ġgest opft
ide en
Ġschm erzt
Ġsol cher
Ver l
Ver sion
ĠMo use
ĠLuft pumpe
Ġempf elen
Ġbillig ste
Ġgl Ã¤tten
ĠErsatz akku
ĠgÃ¼nstig sten
ĠSchuh schrank
ĠPf eifen
ĠGumm ierung
irm t
ĠDurch aus
ĠDurch schnittlich
Ġempfehlenswert es
ĠKÃ¼ gelchen
Ġausge glichen
get ragen
ĠMet hode
ĠZum utung
Ġextrem en
ĠGrund idee
ĠKon zentration
ĠBÃ¼r ostuhl
ĠðŁĺ Ħ
ĠðŁĺ Ķ
ĠðŁĺ ķ
ĠKind es
ker zen
ĠTisch es
ĠTisch set
ĠGes am
St and
St ra
St eht
St aubsauger
geh Ã¶r
Ġbem alt
Ġweit gehend
ierte m
Ġheraus stellen
Ġheraus gefallen
Ġna gel
Ġgesp rochen
Ġdefin tiv
ĠWand montage
ĠwÃ¤r men
ĠAl p
ĠAl ben
ĠAl di
Ġrunter fallen
ĠVie lseitig
ĠBett laken
Ġknapp en
ĠBer uf
Ġu pdate
ĠPo ten
Ġqualitativ e
fÃ¤ l
Ġvert auscht
ĠCo at
Ġbet reibe
alte tem
ĠSchnell es
ĠSchnell igkeit
ĠAnf assen
ĠFuÃŁ matten
Ġhervor heben
Ġstehen d
ĠSport ler
ĠZusammen gefasst
ĠKlebe flÃ¤che
ĠHoch glanz
tem ber
Ġbez ahl
ĠSonnen creme
schn allen
mel den
ĠÃĦ uÃŁ
ante lt
ĠÃ¤r gern
Ġangesch lagen
ĠSpr ich
Ġkomp lex
ĠBedien en
ĠSchlÃ¼ssel ring
ĠTem po
Einfach er
Ġtrage komfort
ĠBlick winkel
Mein em
Ġgro ben
ĠâĢ Ķ
ĠFahrrad fahren
Leistungs verhÃ¤ltniss
ĠNe on
Ġed le
Ġed len
ĠDauer gebrauch
ĠSel fie
ĠRie chen
pro zentig
ĠWasch mittel
ĠChem ikalien
ĠGerÃ¤u schen
ĠStrom anschluss
ĠMittel klasse
Ġober ste
hlt u
ĠTransport schaden
ĠSaug roboter
kn icken
ĠGar dena
ĠBetrieb ssystem
Ġersch ienen
Ġstand ard
ĠAnt ir
ĠAnt rieb
ĠAnz Ã¼nder
ĠgrÃ¼n er
ĠPol ar
ĠPol ier
ĠPol iz
ĠKor pus
Ġregel mÃ¤ÃŁigen
ĠLang weilig
ĠGrill gut
Ġgelungen e
ĠFen stern
Ġakzept able
ĠhÃ¤uf igen
Ġdopp elten
Ġbel aden
Ġbel egt
ĠQu al
ĠQu alt
Ġminimal en
Ġminimal istisch
ĠHals kette
ĠErf olge
ĠSchick er
Ġmittel mÃ¤ÃŁige
gew orfen
ĠBau stelle
Ġgross er
ĠHandgel enken
Ġfreund liche
ull i
ĠnÃ¼tz liche
ĠLes el
kla mmer
ĠAutor adio
Ger ne
Ger ade
Ġverz Ã¶gert
ĠRÃ¤ dchen
ĠBrief tasche
stra cker
ĠFe bruar
Ġsinn los
Ġniedlich es
ĠAuÃŁen temperatur
wind igkeiten
ĠKleider grÃ¶ÃŁe
ĠKleider stÃ¤nder
ĠSu bst
Ġkusch elige
Ġruh ige
nÃ¤ her
nÃ¤ hen
Ġhochwertiger e
ĠKÃ¼chen helfer
Ġbreiter e
spar nis
Ġgering em
ĠLin ien
ĠBrot kasten
ĠParty s
ĠjÃ¤hr iger
ĠGem isch
if y
Ġminder wertige
ĠBlasen bildung
fol gen
ĠPosition en
ĠArbeits schuhe
zuf uhr
zuf Ã¼hren
Ġrau h
ĠFunk uhr
ĠTechn isch
Ġstyl ische
Ġstyl ischer
zahl ung
ĠLit hium
ĠFlug hafen
ĠSÃ¼ÃŁ igkeiten
ĠBillig produkt
echan ismus
ĠSchmuck stÃ¼ck
besonder s
ĠHÃ¼bsch er
ape te
ĠHeiz lÃ¼fter
ĠTier haare
ĠBes itzer
Ġgr andios
Ġgepol ster
Ġtr icky
ĠRes pekt
yn am
Ġkratz baum
Ġtyp ischer
Ġechte m
Ġreg net
Ent fern
ĠÃľberrasch ungen
ĠHaushalt s
ĠFront scheibe
ĠMich ael
Ġausger ichtet
ĠBuchst abe
ĠSchulter gurt
Ġfol gendes
Ġtrau e
Ġausgesch lossen
fÃ¼ll ten
ĠJo ystick
ĠPe arl
ĠZwischen rÃ¤ume
ĠSchnee besen
ĠFÃ¼ hler
Ġbenutz ten
Ġenorm e
ĠGÃ¤ste bett
bis schen
ĠPor zellan
ĠrÃ¼ck standslos
Ġpr ickelnd
ĠHÃ¶hen verstellung
hÃ¤ltn iss
AT E
ĠSl ip
Ġausg leichen
ĠVerpack ungen
bet rag
ĠEl ement
ĠausfÃ¼hr licher
Ġdrum herum
Ġgenauer em
ĠSchnÃ¼r ung
Ġsooo oo
ĠAcc u
ĠStyl ing
spro gramm
telt asche
Ġklass ische
vie w
ĠFein gefÃ¼hl
ĠInn entasche
Ġbehand eln
ĠIrgend wann
He adset
kon sole
Ġwind ig
autom at
ĠSchwimm brille
Ġlog ischerweise
Ġgeg Ã¶nnt
???? ????
ĠAch seln
Ġverkn otet
ĠTÃ¶ chter
ĠannÃ¤ hen
ĠRadi us
Ġbiss el
Ġanges agt
ĠAuff ang
intens itÃ¤t
ĠPinz etten
Ġflie ÃŁen
Ġjeg licher
ĠZit ronen
mein er
Ġkul anter
ĠRau cher
ĠPlan er
Ġmittler er
ĠSen ioren
ĠSen seo
ĠDat eien
ĠLippen stift
spart ner
ĠSchraub verschluss
Ġsy mpathisch
Bild qualitÃ¤t
pfl anzen
pfl anzt
ĠAbnutzung sspuren
Ġumwelt freund
rist alle
Ġchines isch
Ġgumm iert
Ġirgendwel chen
ĠBesuch er
ĠAccesso ires
Fil m
Fil ter
Ġkind gerecht
ĠGo Pro
ĠflÃ¼ss iger
ĠWÃ¤sch estÃ¤nder
kÃ¤ stchen
Ġdreh bar
ĠVerbindungs ab
Or den
ĠSmooth ies
ĠMei stens
Ġ-- >
Ġherr lich
ĠToiletten papier
Ġmechan ische
ĠGabel n
ĠKokos Ã¶l
loch ten
ĠsÃ¼ chtig
ĠFas ern
ĠTatt oo
zell ent
kennt nisse
Ġeinra sten
ĠAusfl Ã¼ge
ĠMobil telefon
ĠSchwar ze
Ġvoraus gesetzt
ĠStereo anlage
ĠSchwieger mutter
Ġkraft voll
ĠAnal og
ĠmÃ¤n n
igh ter
ĠBie tet
ĠTransp aren
ĠÃ¼bersch ritten
Ġallerg isch
Ġtransparen te
ĠbeschÃ¤dig te
ĠerwÃ¤r men
Ġwinz ige
ĠBÃ¤n dchen
ĠNachfol ger
Ġlangw ierig
ĠLav endel
Ġschrau be
ĠMem ory
angem essen
ĠBadesch uhe
Ġwetter fest
ĠSÃ¶ hne
Ġunde utlich
ĠPip ette
ĠvergrÃ¶ÃŁ ern
ĠFri se
ĠTu ben
mmet risch
bewohn er
ĠÃĸfter en
Ġexpl izit
gegebener maÃŁen
ĠNutzungs dauer
Werk zeug
sÃ¤u le
ĠVerab eitung
Ġstrapazier fÃ¤hig
ĠPavill on
Cool es
Opt imal
mix er
âĺ Ĩ
ĠHorn haut
ĠSchlo ÃŁ
ĠSteh lampe
Ġquet schen
ĠAntwor ten
ĠKorrekt ur
Ġuniverse ll
hÃ¼ lsen
Ġgewir kt
Ġangez eigten
ĠStret ch
ĠPlÃ¼scht ier
Ġhor izont
ĠPreisk ategorie
Ġgekenn zeichnet
ĠUmgeb ungs
ĠKatzenkl o
ĠNahrungsergÃ¤nz ungsmittel
Ġdeform iert
( (
A ma
A CH
B D
B est
B ett
D ir
D achte
E xt
F and
F uss
G o
G eh
G ummi
H Ã¶
I L
J o
K o
K ur
K ratzer
K affee
M in
M ess
O hr
O ff
P anzerglas
R as
R ahmen
R utsch
S ollte
S ER
T isch
T eile
T ele
T EN
T ee
W eich
W ERT
Z ufrieden
b ro
c omputer
d ige
d aten
e ehr
f as
f rau
f okus
g te
g lied
h i
h anger
k m
k y
k it
k och
k olle
k Ã¶nnte
k ino
k ippt
k uma
k abine
m ine
m ilch
n Ã¤hte
o ro
o fer
o cke
p at
p or
p Ã¼nktlich
s c
s eit
s uche
s aft
t r
t ut
t wicklung
t schaft
u gel
u cc
v i
v ed
w achen
w esen
w atte
y k
z ahlen
¼ ģ
ï ¼ģ
Ġ |
Ġ ter
Ġ ecken
Ġ reise
er an
er gebnis
Ġd o
Ġd own
Ġd igital
Ġs inkt
Ġs ilikon
Ġa k
Ġa ir
st iel
st ick
st iefel
ein steiger
Ġg aben
Ġw ell
Ġw uÃŁte
as ser
Ġm ager
Ġm Ah
in halt
an as
Ã¼ fte
Ġn eigen
Ġn etz
Ġn Ã¤hte
eh len
ĠS aum
ĠS aga
Ġun gemein
Ġun abhÃ¤ngig
Ġun interess
Ġun ruh
Ġi O
Ġi pad
Ã¤ ll
Ã¤ ne
Ã¤ qu
ut al
ut ig
Ġb all
Ġb rill
Ġb Ã¶se
Ġb lendet
Ġh und
Ġein b
Ġein ges
Ġein ziehen
Ġein genommen
Ġein drehen
Ġein geleg
Ġz oll
Ġz ent
Ġz og
Ġz arte
Ġk op
Ġk Ã¶r
Ġk net
Ġk nitter
Ġk abellos
Ġist s
on a
te ls
Ġf ie
Ġf an
Ġf inger
Ġf ans
Ġf ragt
Ġf otos
Ġf ettet
Ġf leiÃŁ
al izer
ĠA K
ĠA R
ĠA der
ĠA sp
ĠA spekt
Ġzu einander
Ġzu gelassen
Ġv Ã¶
ĠD J
ĠD ur
ĠD igit
ber eiter
ĠP E
ĠP ur
ĠP re
ĠP eter
ĠP omp
ĠP ille
Ġsch rieben
Ġsch mackhaft
sch auer
sch alen
sch becken
Ġl ast
Ġl ass
Ġl asch
Ġl ook
ĠG last
ĠG laube
ĠB la
ĠB eil
ĠB erg
ĠB Ã¶rse
ĠB EI
ĠB MW
ab o
ab r
ĠK A
ĠK au
ĠK ick
ĠK ot
ĠK ern
ĠK Ã¤ufern
ĠF inal
ĠF Ã¤rbt
ĠF uchs
ĠF eiert
ĠF ritteuse
ur at
ir scht
ĠL E
ĠL achen
ĠL atte
ĠL asten
ĠL Ã¼cke
ĠL EI
ĠH ot
ĠH Ã¼ften
ĠM y
ĠM ic
ĠM Ã¤use
ĠM Ã¼tzen
ĠE N
ĠE ich
ĠE ule
ĠE OS
lich em
ĠT ha
ĠT Ãľ
ĠT upper
ĠT Ã¤ter
ĠT oler
ĠT itan
Ġan liegen
Ġan legt
Ġan schaut
den n
gen uss
ne kt
ge steckt
ĠW inde
ĠW Lan
ĠW OW
Ġso lle
Ġge eig
Ġge qu
Ġer lÃ¤
Ġp ool
Ġp apier
Ġp ulver
Ġp iept
ĠSch wei
ĠSch wert
ĠSch eren
ĠSch altet
ĠSch rÃ¤g
ĠSch irme
ĠSch achteln
ĠSch rÃ¤nkchen
Ġver an
Ġver hÃ¤lt
Ġver gangen
Ġver decken
Ġver packte
Ġver fÃ¤l
Ġauf lÃ¶sen
Ġauf nimmt
ste uern
Ġt i
Ġt u
Ġt ri
Ġt reiben
Ã¤t sch
ĠV R
ĠV lies
ĠV IEL
Ġaus ver
Ġaus bauen
Ġaus schaltet
Ġaus kennt
Ġbe utel
ĠN as
ĠN in
ĠN ut
ĠN am
ĠN etzt
ĠN ieren
ĠN orm
ĠN Ã¤hr
ĠN ikon
Ġr at
Ġr aum
Ġr ennen
Ġr auscht
Ġwar scheinlich
ĠR y
ĠR Ã¶t
ĠR Ã¼hr
ĠR akel
il fe
il og
Ġj o
Ġj uckt
ĠZ eilen
ĠZ ocken
ĠZ Ã¼ndung
ĠVer packen
ĠVer sprechen
ĠVer standen
ief eln
Ġst au
Ġst rÃ¶
Ġst eigen
Ġst ammen
Ġst im
Ġst Ã¼tzt
Ġst eigt
Ġst ifte
Ġst ieÃŁ
ĠO h
ĠO ri
ĠO pel
ĠO cul
ĠSt amm
ĠSt Ã¤ndig
Ġnach gesch
Ġnach fÃ¼llen
Ġnach lesen
rie gt
len d
ĠAn schein
ĠAn schlÃ¼ssen
ĠAn gekommen
ĠAn rufe
ĠAn weisungen
re che
ent scheidung
ent oilette
Ġwas ch
Ġab m
Ġab w
Ġab deckt
Ġab gesp
Ġab schrauben
Ġab lÃ¤uft
Ġab weicht
Ġab wechseln
Ġab waschbar
Ġwei test
ĠU rin
uss e
ĠEin lage
ĠEin fÃ¼llen
la pp
Ã¼n klich
ik en
fe uer
ĠProdukt bilder
ger iert
ĠÃ¼ber aus
ĠÃ¼ber teuer
Ġwer k
zen en
ĠSp inne
ĠHand werker
ĠHand werklich
ĠEr stens
all itÃ¤t
Ġvor gesch
Ġvor genommen
Ġvor programm
end em
ap ie
be ste
be wer
be stellen
be wegen
be komme
be ugen
Ġum schauen
Ġum wickelt
ĠGer icht
ĠJ ust
ings eil
ver z
ver ter
ver packt
ver lauf
Ġent lang
ot in
ot isch
Ġger ader
Ġger eizt
Ġwirklich es
Ġwird s
ĠC d
ĠC ha
ĠC ook
aut o
Ġgen ossen
ĠBe ats
Ġ3 50
Ġgel acht
Ġgel ingen
Ġgel angen
ort eil
aus stattung
ĠGe fÃ¼hlt
Ġkein s
Ġgek ling
Ġgek ocht
Ġgek oppelt
ĠIn fr
Ġgef logen
Ġgef roren
Ġgef lochten
wer ken
ĠAll ein
ĠAll erding
eu ert
he y
ĠAuf trag
geb oren
ĠlÃ¤ ssig
Ġsp iegel
Ġsp ritzt
sst off
ett ico
Sch eint
Ġbesch lagen
ast ein
Ġher zustellen
ĠSterne abzug
ad resse
Ġmacht s
Ġgesch eit
eig ert
Ã¤u lich
Ã¤u sen
ĠProblem s
br igen
ĠMat cha
ĠFarb gebung
ĠGrÃ¶ÃŁ entabelle
ungs wert
ungs bild
ungs gemÃ¤ÃŁ
ungs kamera
ĠZu gang
Ġben utzung
Ġc l
.... .....
Ġges unden
Ġges Ã¼nder
ĠzurÃ¼ck ges
ĠzurÃ¼ck erstattet
ĠHandy halter
bst ich
Ġhin nehmen
Ġhin weisen
Ġ5 4
ah a
ĠNach fragen
ĠNach mittag
Ġstabil isieren
ĠKauf grund
ĠKauf abwicklung
Ġfest ge
Ġvoll auf
ĠAus ziehen
ĠAus gabe
ĠAus dauer
Ġrein zu
ĠWasser d
Ġber Ã¼hr
Ġber Ã¼hren
ĠBl ink
ĠLe on
ĠLe vel
Ġselbst gem
last et
ĠMein es
etz ter
ĠKopf es
ĠKopf umfang
Ã¼t ten
akt erien
Ġkaputt gegangen
wo ofer
Ġgem Ã¤ÃŁ
Ġgem ahlen
Ġbeg onnen
kl icht
band age
ĠLam p
ĠLam ellen
bo hr
ĠRÃ¼ck fragen
verhÃ¤ltnis mÃ¤ÃŁig
Ġle ute
Ġle bend
Ã¼b te
Ġrei ssen
ĠSchutz funktion
ĠSchutz blech
ĠStoff wechsel
An sicht
ĠHer unter
ĠHer inge
ster ne
ĠSpiel uhr
ĠdÃ¼nn ere
durch schnittlich
ĠHaar farbe
Ġraus gefallen
Ġraus fallen
ĠÃľber sichtlich
ĠÃľber teuert
gef Ã¤llt
ĠAut ob
ĠAut oren
Ġhand ling
ĠUm schlÃ¤ge
ĠNacht hemd
Ġerf asst
Ġerf Ã¤hrt
Ġwert voll
ĠmÃ¼ ll
ĠDe vol
sam en
Ġhell auf
Ġschl ichten
Ġbest immen
Ġste chen
Ġverl Ã¤ngert
ĠBr ummen
ost al
Ġgest ehen
ĠLie ÃŁ
ĠLie ben
ĠDruck kopf
ĠSchl iff
ĠSchl Ã¶sser
Ġschm iert
Ver schluss
ĠLaut stÃ¤rker
Ġtotal e
Ġmag isch
ĠFl ackern
ĠLiefer zeiten
ĠHa ft
ĠEnt kalker
ĠPass agen
Ã¶glich keiten
ĠGumm it
ĠGumm il
ĠGumm im
Ġvers iegelt
immer n
Ġne un
Ġoptisch er
Ġget rost
abl etten
ĠSchn ei
utter n
ĠMet ro
druck er
ĠAuto fahren
ĠKon zent
ĠKon nekt
Ġdrin ne
ĠKlang bild
ĠpersÃ¶nlich er
ĠpersÃ¶nlich es
Ġgeb eten
ĠLa ie
ĠSmart phon
Er ster
ĠTisch chen
St Ã¼ck
St reifen
St rom
St abile
Ġheraus finden
ĠX s
ĠAdapter n
Ġdefin itv
Ġglei cht
Ġverm utet
ĠSitz sack
Ġaufge zeichnet
ĠGen auso
genau igkeit
ĠFreund schaft
Ġpl ant
Ġpl atzen
Ġfr uchtig
ĠTra iler
ĠKunden bet
ĠLeder armband
ĠBer eiche
ru ppen
Ġwunderbar e
ĠHe x
ĠKissen s
ĠSau gen
ĠWind schutz
ĠHier bei
ĠGummi b
ĠGarten party
ĠSomm ert
Ġgab s
Ġverk nittert
Ã¼tz lich
ĠFr anz
ĠÃ¶ lig
ĠUr sache
zept abel
hem den
ĠTro ck
ĠKu pfer
ĠÃĸff ner
Ġschn ar
gehen de
ĠSonnen brand
Ġaufzu kleben
ĠÃ¤r ger
ĠheiÃŁ er
ĠSpr ingseil
Ġfehlen der
Ġschwarz em
Ġend gÃ¼lt
ĠBedien elemente
Ġinteress anten
Ġbl uetooth
up s
ĠRegen schutz
ĠSpann ender
ĠGr inder
iff hanger
ub bel
ĠLampen schirm
ĠNe op
ĠNeu er
Ġnegativ er
ĠKoffer s
Ġklap pern
ĠStift es
ĠRie s
ĠSchlaf maske
ĠWasch gÃ¤ngen
ĠSicht fenster
ĠKÃ¶r nung
ĠWinter jacke
nt usche
nt hetisch
Ġex ist
ĠSpÃ¼ hl
ĠMittel mÃ¤ÃŁige
ĠFlaschen Ã¶ffner
ĠRadio empfang
box en
ĠLÃ¼ ftung
Ġcool er
Ġdauer haften
ĠWeiter e
Ġanf Ã¤nger
Ġstand fest
Ġstatt dessen
ĠAnz eigen
ĠMehr ere
hÃ¤n gung
sh op
ĠSchnitt stelle
Ġwirken de
ĠNÃ¤ pfe
ĠGesicht er
ĠGesicht sh
Ġkosten losen
ĠBohr futter
Ġregel mÃ¤ÃŁige
ĠWeihnachts zeit
Kl are
ĠÃ¤uÃŁ er
ĠWÃ¤r mel
ĠTrain ieren
ĠAbsolut er
ĠKÃ¼hl box
Ġsicht baren
ĠfÃ¼n ften
Ġdopp el
Ġmangel s
Ġmangel hafte
Ġminimal er
Ġabzu geben
ĠglÃ¼ck licherweise
Ġlos gehen
Ġchem ie
Ġjemand em
eicher ung
ĠChar ger
Ġleuchten de
ĠPlay station
ĠEinsch Ã¤tzung
Be ste
ĠHinter grÃ¼nde
Ġ? !
Ġse ee
ĠNot lÃ¶sung
Ġschla fe
Ġschlicht er
Ge wohnte
Ġausgel e
Ġverschw ommen
Ġunn Ã¶t
Ġunn Ã¶tigen
uchs creen
ball on
ĠAuÃŁen seite
ĠMess lÃ¶ffel
ĠSu ppen
vest er
iste st
ĠEmpfang s
Ġtau chen
Zu behÃ¶r
ĠKÃ¼chen maschine
Ġbreiter en
ĠMilch auf
Ġverd reckt
Ġspr itz
Ġgering fÃ¼gig
ĠLin ux
ĠMak er
ĠstÃ¶ren de
ĠPa w
Ġentscheiden d
Ġanderer seits
ĠMarken produkt
ĠEinsteiger modell
rasch all
ĠBH s
ĠArbeits hose
ĠArbeits kolle
zuf inden
ĠWÃ¼r d
ĠGesamt paket
?! ?
ĠWitz iges
ĠProf ession
Ġgeschm issen
ĠAkt en
ĠBart haare
Ġmass ive
ĠRund ung
ĠStre be
ĠSc ooter
Ġunz erstÃ¶rbar
ĠMÃ¼n ze
ĠTouchs creens
ĠmÃ¼h selig
ĠSehen swert
ĠkÃ¼nst lichen
ĠPuzz let
Ġintegr ieren
ĠVert eiler
ĠVert rÃ¤glichkeit
ĠSolar p
ĠBlau e
ĠVibr ationen
ĠRut scht
Ġsilber nen
ĠLi fe
ĠHighl ighter
EI T
ieÃŁ er
ĠSchwer punkt
Ġentsp annend
ĠAir Pods
schlei fer
ĠBein lÃ¤nge
ĠLange weile
ĠWor kout
Ġbenutz te
ĠPizz astein
ĠrÃ¼ck wÃ¤rts
Ġpr essen
ĠMÃ¤nner hÃ¤nde
PD ATE
Ġerz Ã¤hlen
Ġbeweg te
ĠPh antasie
Ġform schÃ¶n
ĠMed ik
Ġausg ibt
ĠSha kes
lan de
Ġspannen den
Ġverbesserungs fÃ¤hig
Ġpfle glich
cl ip
ĠTab s
ĠTab ak
ĠIsol ation
ĠStyl ische
ĠPrax istest
Ġleck eren
Ġgebogen en
ĠRasen mÃ¤her
ĠWel ten
ĠWel pe
ĠStÃ¤r ken
ĠAt mungsaktiv
ĠQualitÃ¤ts an
ĠInn enteil
ĠTur ban
Ġgez Ã¤hlt
Ġbedien ung
ĠSprÃ¼h flasche
ĠZurÃ¼ck schicken
ĠBrem sen
autom aten
ĠHeiÃŁ kleber
ĠGeschmacks richtung
ĠBill iger
ĠThe orie
ĠMeer schweinchen
Ġzerst Ã¶ren
Ġkorrig iert
ĠStu ben
ĠRadi osen
Ġsorgf Ã¤lt
Ġkrit isch
ĠSpe zif
Ġlack ieren
schlÃ¤ gt
ĠursprÃ¼n glichen
forder t
ĠZit rone
ĠðŁĻ Ī
Ġlock ere
ĠProtein pulver
ĠPlan schbecken
ux e
ĠSauber e
ĠDat ent
Ġfrag il
ĠFin eliner
Ġzut reffend
Ġstaub ig
ĠAbdeck plane
ĠSchnor cheln
WunderschÃ¶n er
Ġunw ichtig
Ġgekl Ã¤rt
ĠKal ibr
ĠJÃ¤hr igen
ĠProtagon ist
Ġkr ass
Ġumfang reich
Ġumfang reiches
Ġkniff elig
ĠPuppen wagen
kÃ¤ sten
ĠPrÃ¼ f
ĠLeitung swasser
ĠKompakt es
ĠVerfÃ¤r bung
ĠDÃ¼ sen
ĠStatt dessen
ĠPen cil
gest altung
ĠAuslauf sicher
Ġzier liche
ĠBull et
Ġbeden klich
ĠErinner ungen
ĠFris ur
ĠlÃ¤st ige
Ġbesp ielen
Ġabgest immt
ĠVerzÃ¶ ger
Teil weise
fett i
techn isch
Ġleg o
ĠGramm atik
Ġgewohn te
ĠzurÃ¼ckzu senden
ĠStell ung
ĠEp son
ĠCrem a
ĠCrem es
Ġbehau ptet
Ġuniver sal
Ġeinra stet
ĠPon y
Ġscheu ert
ĠjÃ¼nger e
beg leiter
Ġangebr achte
Laut sprecher
Wei hnachts
fert igen
ĠPla ste
Ġvorgegeben en
ĠStraÃŁen verkehr
AZ IT
ĠSÃ¤u bern
Ġverein facht
Ġernst haft
ĠmÃ¤n gel
Ġzauber n
ĠPrÃ¤sent ation
Ġser i
ĠKÃ¼h lleistung
ĠKÃ¼h lakkus
Ġerwart ungen
____ ____
Hoch wertige
Ġkipp elt
ĠlÃ¤ng st
Ġoff izie
Ġstreifen frei
Ġstufen los
Ġcrem ig
Einwandfrei e
Ġfaszin iert
SÃ¼ÃŁ es
Ġag gress
ĠBan ane
ĠBrill entrÃ¤ger
ĠBud get
Ġerwachsen e
ĠNik olaus
ĠMain board
ĠDocking station
Ġkant ig
Ġfotograf ieren
ĠfrÃ¶h lich
ĠKatz entoilette
ĠKÃ¤r tchen
ĠKul anz
âĢįâĻ Ĥï¸ı
Ġvertrau ens
ĠKeiner lei
ĠVerletz ungsgefahr
bÃ¶ den
ĠDra ma
ĠKÃ¼r bis
ĠKek se
Ġbemer kte
ĠEisen bahn
Ġumm antelt
ĠsÃ¤ gen
ĠfÃ¶r mlich
ĠÃ¼berschau bar
ĠSchwier igkeit
Ġorigin ell
ĠBaucht asche
ĠLine al
ĠHas eln
ĠMos kit
ĠWeckt on
vernicht er
ĠgelÃ¶ scht
ĠInspir ation
Ġschwamm ig
ĠAmaz one
ĠTaucher brille
ĠKultur beutel
La ptop
Ġunans ehnlich
ĠAU X
ĠHT C
ĠverschlieÃŁ bar
ĠEink Ã¤ufe
ĠAbsau gung
ĠArret ierung
Ġverschlechter t
ĠGehÃ¤us es
ĠElef ant
ĠConne ct
ĠFasz ien
ĠPickn ick
ĠEinleges ohlen
Deck el
Ġsug geriert
Ġhind urch
ĠDrau ÃŁen
Ġverschie bt
ĠIllustr ationen
ĠVerschrau bung
ĠFernbedien ungen
ĠGeburtstagsk ind
Ġexter nen
ĠArth rose
ihuah ua
ĠVisitenk arten
Ġsek unden
ĠLenov o
ĠEro tik
ĠQualitÃ¤tsk ontrolle
ĠErinn ert
Ġspaz ieren
Ġweiterempf ohlen
ĠPoten zial
Ama zon
ĠvÃ¶ ll
ĠTÃľ V
ĠNam ens
ĠOcul us
Ġweitest gehend
Ġvorprogramm iert
Ġgekling elt
ĠInfr arot
ĠKundenbet reuung
" "
( !)
/ -
1 3
1 00
3 2
3 5
A G
A kt
A kkus
B all
B itte
B ilder
C hin
D A
D V
E ing
F F
F uÃŁ
F Ã¼hlt
H Ã¼bsche
H ervor
I ED
K it
K opf
K issen
K ette
M ich
M ode
M agnet
N ame
P A
P f
P en
P fle
P aÃŁt
R asche
S O
S al
S end
S eite
S auber
S icher
T est
T racker
U B
U M
W en
W eil
Z us
Z eichen
a i
a is
b lichen
b rot
d rei
d ick
d aÃŁ
e b
e ber
f rie
f arb
f uss
f Ã¤r
f aden
g o
g igen
h ann
h ier
h ungen
h Ã¶rt
j ust
j ago
k chen
k Ã¼hlt
l igen
l iefert
l iner
m isch
m usste
m asse
n ie
n un
n ast
n utzung
o bt
p tember
r al
r iert
r us
r Ã¤nder
r eter
s m
s halber
t h
u gt
w och
w achs
z el
z aun
z eiter
z immert
Ġ Â°
Ġ ????
ch stens
er fÃ¼llen
er seits
en a
en on
en zen
ei s
Ġd is
Ġd umm
Ġs a
Ġs and
Ġs uchten
Ġs etzten
Ġs upper
Ġs ummt
Ġs ervice
un er
Ġa chte
Ġa ction
st reu
st Ã¼hle
st icks
st opper
st Ã¶pseln
ein halb
ein lage
Ġg eist
Ġg Ã¶nnen
Ġw on
Ġw elt
Ġw ecken
Ġw ischt
Ġw oche
es entlich
es presso
Ġm at
Ġm ed
Ġm ick
Ġm ade
Ġm ust
Ġm ist
Ġm achten
an halten
Ã¼ chen
Ã¼ me
ll a
Ġn u
Ġn ic
Ġn ennt
Ġn enne
eh nung
eh alt
ĠS per
ĠS yn
ĠS Ã¤mtliche
Ġun ben
Ġun aus
Ġun echt
Ġun angemessen
Ã¤ cht
Ã¤ ler
ut sam
ut rÃ¤ger
Ġb ast
Ġb lÃ¤
Ġb Ã¼cken
Ġb ilder
ar g
Ġh acken
Ġh ause
Ġh ome
Ġh umor
Ġein st
Ġein wand
Ġein schneiden
Ġein nimmt
Ġein binden
Ġein sprÃ¼hen
Ġein frieren
Ġein fÃ¤deln
Ġf en
Ġf uÃŁ
Ġf ande
der s
ig uren
Ġzu stand
Ġzu bekommen
Ġzu gegebenermaÃŁen
ĠD P
ĠD ol
ĠD ild
ĠD enk
ĠD icker
ĠD icer
ĠD Ã¤mpfer
au chen
ber ig
ĠP L
ĠP ri
ĠP utzt
ĠP lex
at ischen
at ischer
at man
Ã¶ re
Ã¶ schen
Ã¶ del
Ġsch ock
Ġsch rÃ¤nkt
el igen
el iger
sch rÃ¤nke
Ġl ehr
ĠG R
ĠG ig
ĠG rate
ĠB Ã¤r
ĠB ienen
ĠB ibel
ĠB ombenfest
ĠB ommel
ĠB ridge
ab druck
ab sichtigt
ĠK ra
ĠK eim
ĠK nete
ĠK enne
ĠK ontroll
ĠK ettchen
ĠK umpel
ĠF rie
ĠF asten
ĠF AZIT
ur ehalt
ĠL S
ĠL un
ĠL im
ĠL Ã¤ufer
ĠL Ã¤ndern
ĠL ock
ĠL inks
ĠL etzte
ĠL Ã¤ÃŁt
ĠH itz
ĠH Ã¤ngen
ĠH ecken
ĠH allo
ĠH Ã¤user
ĠH enna
ro ss
ĠM aschen
ĠE R
ĠE ulen
ĠT T
ĠT as
ĠT ieren
ĠT Ã¼ll
ĠT ips
ĠT adellos
de kor
Ġan hÃ¤nger
Ġan gerissen
Ġan schm
Ġan pass
Ġan liegend
Ġan regen
Ġan schlieÃŁe
Ġan melden
ter ungen
gen auer
rei den
ne e
.. !
or id
ĠW oll
ĠW ok
ĠW affe
ĠW ickeltasche
Ġso ft
Ġge br
Ġge griffen
Ġge ehrte
Ġer l
Ġer gebnis
Ġer sparen
Ġer mÃ¼
ann ter
Ġp last
Ġp hone
ĠSch er
ĠSch an
ĠSch acht
ĠSch rÃ¶
ĠSch ramm
ĠSch ock
ĠSch reck
Ġo hr
Ġver ges
Ġver einbar
Ġver Ã¤rgert
Ġver stellbaren
Ġver geblich
eit igem
Ġman ches
Ġauf ges
Ġauf satz
Ġauf legen
Ġauf gelegt
Ġauf weisen
Ġauf wies
ste te
ĠI M
ĠI ron
Ġt ra
Ġt ick
Ġt rÃ¤ger
Ġwie s
Ġsie ben
Ġaus zieh
Ġaus bessern
Ġbe endet
Ġbe ziehungs
Ġbe geg
le cht
ĠN F
ĠN on
ĠN AS
ĠN icer
ĠN espresso
Ġr agt
Ġr etten
Ġr adio
per e
per fekt
per ation
ĠR u
ĠR en
ĠR eh
ĠR ande
Ġhat s
il zt
il ette
se ffekt
auf wendig
auf sÃ¤tze
auf gaben
ĠPreis gÃ¼nstig
Ġj en
ser kennung
ra p
ĠZ uck
ier ige
ĠVer m
ĠVer ein
ĠVer br
ĠVer wenden
ĠVer braucher
ĠVer riegelung
am i
am sung
Ġst ein
Ġst Ã¤nder
Ġst arte
Ġst uhl
Ġst eiger
Ġst Ã¼tzen
Ġst illen
Ġst aubt
um stellung
ĠO t
ĠSt k
ĠSt rÃ¤
ĠSt immt
ĠSt opfen
Ġnach lÃ¤sst
Ġnach geholfen
ĠAn ges
ĠAn na
enn is
ol or
ol ade
Ġnoch t
re te
re uer
re gend
re ppe
Ġab geh
Ġab schlieÃŁen
Ġab zusp
ĠU PDATE
ĠEin bl
ĠEin gebaut
ĠEin bindung
rau schen
Ġim prov
ĠschÃ¶n ste
om Ã¶glich
ĠQualitÃ¤t sprodukt
lei se
op h
fe der
fe uchten
ĠProdukt qualitÃ¤t
Ġschon en
ger ade
ĠÃ¼ber dacht
sp ur
sp ass
her d
ick ten
Ġ1 30
Ġe vent
Ġe vt
ĠSp rÃ¼n
ĠSp ru
ĠSp innen
ĠSp ulen
ĠSp ots
ĠSp oil
ĠSp Ã¤ter
ĠHand staubsauger
ĠEr wÃ¤r
Ġvor ge
Ġlei ste
Ġlei ern
ap an
ap pt
ap elt
be arbeitung
Ã¶r ungen
ĠGer ichten
ĠJ ED
ag n
ag iert
ag ement
Ġviel er
ver sch
Ġent schul
Ġent scheidet
Ġent gra
Ġander n
eg net
pack ungen
Ġger e
ĠC F
ĠC he
ĠC amera
aut scht
ehm end
Ġgen Ã¼gen
ĠBe et
ĠBe wer
ĠBe stÃ¤ndigkeit
ĠAb fl
ĠAb stands
ĠAb spielen
ĠAb wertung
ĠAb schaltung
las sung
Ġdies elbe
ort ieren
ĠGe ste
ĠGe be
ĠGe testet
iger uch
iger weise
Ġgef l
Ġgef ahr
Ġdurch gebrannt
wer ke
ĠAll ergie
off entlich
ĠGesch windigkeiten
schl aufen
ĠUn auf
ĠUn ver
ĠUn praktisch
ĠUn vollstÃ¤ndig
ĠAuf ent
ĠAuf gebaut
ĠAuf passen
ĠAuf merk
ĠAuf wertung
geb ot
Ġsp endet
son dern
sst rainer
ĠKl ob
ĠKl ipp
Ġgew icht
Ġgew innt
pp ig
Sch wer
Sch lie
Sch alter
Sch licht
ast ung
ast ream
imm elt
Ġ4 7
Ġgesch altet
Ġhoch preis
ungs frei
ungs haltung
ĠZu stell
Ġwo hltu
lÃ¤ ufe
pl o
Ġange wiesen
Ġange ordnet
ĠEn des
amm eln
Ġhin sehen
Ġerst atten
zeit ige
ĠBei pack
ĠBei fahrer
Ġrecht fertigen
Ġgenau ere
ĠTeil chen
ðŁ ĳ
gesch lossen
gesch oben
ĠNach besserung
ĠWar n
qu is
ĠWir ken
ĠMan schette
ĠKauf entscheidung
ĠMaterial qualitÃ¤t
Ġkurz zeitig
Ġkurz frist
Ġschwer es
ĠAus d
ĠAus laufen
ĠMon ster
Ġrein er
Ġeigen em
ĠWer ten
ĠWasser menge
Ġgeh angen
Ġgeh eim
ĠKinder bett
ĠGeld es
ĠWoch ent
Ġber eich
ĠLicht ein
ĠLicht leistung
ĠLicht stÃ¤rke
ĠBesch werde
last ung
sche llen
ĠKopf form
Ã¼t tern
Ã¼t telt
wo llt
wo bei
wo hnung
zie lt
ĠPl Ã¤tzchen
ĠSon nst
ant ieren
ĠRei f
umm eln
Ġgleich mÃ¤ÃŁige
ĠEm blem
spre chern
ĠÃľ bungs
ĠTag s
ĠPlastik hÃ¼lle
ĠPlastik folie
Ġziemlich e
im t
lo w
eich ten
Ġrei st
Ġeinmal ig
Ġteuer er
form at
ak ulÃ¤r
ĠSpiel zeit
ĠdÃ¼nn flÃ¼ssig
ĠnatÃ¼rlich es
ob jektiv
ĠDisplay folie
unter schiede
halt ige
ĠArm bÃ¤ndern
Ã¶t ze
ĠCh arm
ĠÃľber trag
ucht eil
gef inger
Ġnie der
ĠUm feld
ĠUm stÃ¤nden
Ġdick flÃ¼ssig
ĠWei che
ĠmÃ¼ he
ĠFot ot
urt eilen
Ġverb reitet
ĠBatter iel
ĠKn iff
ĠMin en
ĠOriginal produkt
ĠGew ichte
ĠGew ebe
Ġtut s
Ġbesonder er
schu le
ĠHalter n
ĠBr ennt
ĠBr uchteil
Ġpreis gÃ¼nstige
Ġkn ackt
Ġgest anden
ĠSchl uÃŁ
ul ation
ul pen
rat isch
Ġschm eiÃŁen
Ġirgend etwas
gem Ã¼tlich
bel egung
ĠMo dern
ĠBox spring
ĠLade box
ist ische
Ġabgeb aut
ĠGl itter
ĠKlein ere
ĠFl icken
ĠHa ftet
ander e
Ġbr ummen
Ġgebrau chte
ĠAd am
ok uss
ok abel
ok osten
ĠPf laster
ĠGumm isch
Ġvers uch
Ġvers uchte
ĠnÃ¤ch ster
ĠErwart ungshaltung
Ã¶hn en
Ġ+ ++
ĠFahr ten
Ġsauber en
ĠForm schÃ¶n
Ġausge wiesen
ĠSchn ar
ĠSchn app
Ã¤hn chen
og o
Ġextrem e
Ġextrem er
ĠSeiten teile
ĠSeiten taschen
Ġfl icken
ĠGrund lage
ĠAuto fokus
ĠKon fektions
ĠKon fetti
Ġhal ber
fahr ten
ĠKan al
Ġwack elige
Ġversch icken
Ġversch weiÃŁt
Ġgeb Ã¼gelt
ĠKunst faser
ker ze
Ġfre ute
ĠTo ten
Er ste
ĠTisch lampe
ĠBoden platte
ĠKom Ã¶die
Ġheraus gestellt
ĠPaket shop
ĠX R
ĠX Z
ĠX enon
ĠGriff s
ĠSchm inken
ĠSchm erz
ĠMar io
ĠAdapter s
Ġangeb aut
ĠPu ppenk
Ġdicht et
Ġverm ein
Ġverm ehrt
Ġverm ieden
ĠWand t
ĠPerfekt ion
ĠSitz komfort
ĠhÃ¶ f
Ġaufge wickelt
ĠTabl ette
ĠOb jekt
ĠOb jektive
Ġgeschrieben e
ĠKaffe et
ĠKunststoff t
ĠMus ic
ĠLeder band
ĠErgeb niss
ĠKarten halter
ĠHe lle
ĠKissen bezug
ĠKissen bezÃ¼ge
ĠPo d
ĠWind gerÃ¤usche
Ġvert rage
Ġbet rieb
Ġbek amen
ĠAm b
ĠAm pere
ĠPack s
Ġhervor gehoben
ĠSteck verbindungen
ĠTrage zeit
Ġzer fallen
des ign
ĠReiÃŁ verschluÃŁ
ĠReiÃŁ verschlÃ¼ssen
ĠFr anzÃ¶s
ĠTÃ¼r rahmen
ĠSport hose
ĠBatterie betrieb
arm bÃ¤nder
ĠZusammen setzung
ĠRo omb
ĠMetall gehÃ¤use
ĠTro lly
Ġeinge zogen
Ġeinge klemmt
Ġschn ur
Ġschn Ã¼ren
Ġbez weifeln
ĠMusik hÃ¶ren
ĠSil vester
Ġscharf es
Ġ12 8
ĠheiÃŁ es
Da fÃ¼r
ĠWohn ungen
In nen
ĠBedien ungs
Ġverf asst
Ġverf angen
Ġverf olgen
ĠHÃ¶ hle
ĠHÃ¶ chst
Ġel ast
gegen stand
Ġbew Ã¤hren
ĠTaschen tÃ¼cher
ĠStabil es
Ġleer er
ĠInter v
ce aler
ĠNeu kauf
ĠStift halter
ĠSicht feld
ĠHin ten
ĠWinter tage
Ġans etzt
ĠSpÃ¼ len
ĠTasten druck
Ġfehl kauf
ĠHell er
ĠTouch pad
Man che
ĠSer i
Ġbef unden
ĠGar nitur
Ġzeit lich
ĠChemie geruch
wech selt
ĠWeiter es
ĠHÃ¤nde waschen
ĠstÃ¤r ke
zeich nete
Ġangemessen er
ieb igen
ieb iger
ĠBeh alten
ĠBeh Ã¤ltnis
ĠHunde besitzer
EN S
ĠKurz er
ĠKurz geschichte
Kl ar
Kl ett
ĠFach mann
ĠZahn fleisch
ĠumstÃ¤ndlich e
ĠumstÃ¤ndlich er
Ġstabiler es
ĠAbsolut es
nach dem
ĠhÃ¤uf igem
ĠwunderschÃ¶n en
Ġbel iebig
amen te
Ġentsprechen dem
ĠMitte lt
ĠBau ern
ĠChar me
ĠAufkleber n
ĠPort okosten
Ġverg leicht
ull over
Ġunver z
ĠHaupt fach
Ġklapp rig
ĠAutor s
ĠTeppich e
kopf hÃ¶rer
sich ert
Ġunbe friedigend
Ġunbe kannt
Ġfarb ig
Ġfarb ige
Ġries igen
Ġausgel Ã¶st
ĠSekunden zeiger
Ġsor gsam
Ġmo disch
ĠBrau che
Ġniedlich e
stru ktur
ott on
Gen ial
Ġnot wendige
rop ax
ĠWen de
ĠÃ¼bert rifft
Ġtau cht
ĠFal scher
nehm baren
wor fen
ĠMund dusche
Ġverd ienen
Ġverd unkeln
ĠWo zu
Ġgering es
Ġgering sten
stands anzeige
ĠEnkel kind
ĠSchlei fer
ĠEx per
ĠWack eln
ĠWack elt
ĠWack elig
Ãľ R
lade kabel
Ġbo den
Ġfair er
ĠFa ce
ĠKur ven
ĠKur kuma
ĠWÃ¤rme entwicklung
ĠTrink flaschen
Pro gramm
Ġkrie ge
Ġrau ss
Ġaller lei
gerÃ¤u schen
Ġherunter geladen
Ġeinzig artig
ĠCl iffhanger
ager e
ĠSÃ¼ÃŁ er
ĠSchau spiel
seh aut
ĠmÃ¤ÃŁ ige
ezie ll
Ġmass iert
ĠGrÃ¼n de
ĠEben en
steck dosen
ĠLeistungs verhÃ¤ltniss
freund lichkeit
ĠSc art
Ġabgesch altet
Ġabgesch lossen
Ġabgesch liffen
ĠNagel hÃ¤rter
ĠBequem lichkeit
ĠLad esch
Ġrest liche
ĠExt ras
ĠDem ontage
Ġgeschlossen e
ĠDan iel
ĠHitze entwicklung
Ġreg ul
Ġangef ordert
vert rÃ¤glich
Ġto uch
ĠFlop s
ĠhÃ¶ch ste
ĠhÃ¶ch sten
eintrÃ¤cht igung
Ġengl ische
Ġbraun en
ĠFell n
ĠMark ierung
ĠWarm weiÃŁ
ĠNatur a
ĠðŁ¤ £
ĠSchwer e
spÃ¼ len
Ġausreichen der
ĠFÃ¼ ssen
Ġverw under
ðŁĺ į
ĠDi ab
ĠWor ten
Ġsepar aten
ĠGÃ¤ste buch
Ġindividu elle
Ġelektr isch
Ġausg ieÃŁen
ĠRezept ur
bet racht
Ġtelefon isch
rans fer
ĠMorgen s
Ġsport liche
ĠZusatz stoffe
ĠStempel kissen
ĠMax i
ĠLese empfehlung
Ġwor Ã¼ber
Ġschlei ft
ĠKil ometer
ĠSchokol aden
Leicht es
ĠPop o
ĠCam per
ĠStÃ¶r end
ĠStÃ¶r gerÃ¤usche
Angenehm e
Ġdekorativ e
ĠHalte griff
ĠSchlie ÃŁ
ĠVerarbeitungs fehler
vie ws
Ġvari iert
Ġlieb te
Ġglatte m
ĠSchlag schrauber
ĠInn ere
ĠDien stag
ĠFla mmen
Ġpol iert
Ġgesund heit
kon zept
kon struktion
Ġmagnet ischen
ĠVerpackungs material
Ġsens or
Ġsens ation
Ġsens ible
Ã¤hl te
Ġsub jektive
Ġschreck liche
ĠBill iges
ĠLed s
Ġhervorragen des
ĠDatum sanzeige
gelt rÃ¤nke
ĠRegel ung
Ġschau e
ĠFlex ibel
ĠFlex ibilitÃ¤t
ĠTun nel
Ġriss ig
ĠBekann te
Ġhinzu gefÃ¼gt
ĠstÃ¤rk sten
schle cht
schle ppen
ĠCro ss
ĠCro cs
ĠCro sstrainer
Box en
Ġflie ÃŁend
Ġgekauf te
Ġzusamm end
ĠSen dern
ĠTau chen
ĠArmatur enbrett
to uren
Ġsy nthetisch
ĠDÃ¼n ne
Ġseltsam e
ĠEingang s
Ġzut un
Ġpar at
olog ie
weif elt
ĠAbdeck ungen
ĠAbnutzung serscheinungen
Ġkombin iert
Ġkombin ierbar
Ġheut ige
ĠFitnes stracker
Ġharte m
ĠWisch m
vers uch
Ide e
klass ige
ĠPapp karton
ĠflÃ¼ss igen
ĠOberschen keln
Ġy ou
Ġbeein fluss
Ġdreh te
ĠReiss verschlÃ¼sse
ĠFlach mann
ĠInteressant es
Ġkreativ e
ĠKÃ¶ pfen
Ġents perren
ĠursprÃ¼nglich e
Ġeinsch Ã¤tzen
ĠTrau er
ĠBlin klicht
Ġli quid
ĠNet ze
ĠFris uren
ĠGesprÃ¤ch spartner
ĠGard ine
Ġposition iert
ĠRosen wasser
Ġunzur eichen
Ġsynchron isieren
ĠergÃ¤n zt
Ġabgef Ã¤rbt
Ġgewohn ter
ĠGewÃ¶hn ung
ĠKomment are
toll er
Ġmen ge
Ġmark ieren
Ġmake llos
ĠEp il
Ġstr icken
Ġmehrer er
Ġarm band
Ġmobil en
ĠAusfl ug
Ġknall ig
ĠPed alen
ĠLehr er
Ġverlei ht
Ġentf alten
Ġkonzentr iert
ĠMod is
ĠElektr ik
ĠDrogerie markt
ĠPfeffer min
Kn opf
mÃ¼ dung
Ġsur fen
ĠPrin zess
Ġverein zelt
ĠProduktf oto
ĠReinigungst uch
Ġretourn ieren
Ber eich
rÃ¼ck seite
ĠPrÃ¤ par
ĠLÃ¶t kolben
ĠÃ¼bersch Ã¼ss
ĠErg o
Ġbeglei ten
ĠKleidungsst Ã¼ck
ĠKleidungsst Ã¼cke
masch iene
ĠGÃ¼r teltasche
ĠSpan ien
ĠLautstÃ¤r ken
ĠSpritz schutz
ĠBetriebs anleitung
ĠKlingelt on
ĠMulti funktion
Ġzun ehmend
ĠEqu ipment
ĠEqu alizer
ĠCle an
ĠerwÃ¤r mt
Kon nte
ĠSucht gefahr
Ġeinf arb
ĠAben teuer
Ġvorsicht shalber
Ġult ra
ĠDichtungs ring
Ġâĺº ï¸ı
Ġrand voll
Ġjust ieren
ĠSod astream
Ġbedruck te
ĠAquar ell
Ġantwor tet
Ġeck ig
ĠPrÃ¤z ise
ĠBunt stifte
ĠverschÃ¶n ern
Ġausschlaggeben d
Ġgelang weilt
Ġirgendein em
ĠEisk ratzer
ĠTurn schuhe
Empf ang
brei te
Ġakk urat
ĠAk ne
Ġanschau lich
ĠNotiz buch
Ġpuzz le
Ġkabell ose
ĠDel uxe
Ġlau warm
Ġabwechslungs reich
beweg ungen
Ġspl itter
ĠFotograf ieren
rankt Ã¼r
Ġemotion al
ĠBlen der
ĠFang korb
ĠLetzt lich
ĠTÃ¤t igkeiten
ĠWahr heit
ĠWÃ¶l bung
ĠErschÃ¼t terungen
ĠAllro under
ĠspÃ¼l maschinen
ĠEnder gebnis
ĠChines isch
ĠÃľberwach ungskamera
Ġwegzu denken
ĠMagaz in
Ġauthent isch
Ã¤mpf ung
Ġignor iert
Ġbeher r
ĠFond ant
ĠHoo die
ĠrÃ¶ tlich
ĠErzÃ¤hl ung
ĠspÃ¤r lich
Ġbeschleun igen
ĠRecher che
Ġ;- ).
ĠKupp lung
ĠHÃ¼hn er
cat cher
ĠBarb ie
ĠVerfilm ung
ĠEnerg y
Ġsicherheits halber
ĠTeen ager
Ġhilfs bereit
Ġgeschmacks neutral
ĠDokument ation
ĠMerc edes
ĠwÃ¶chen tlich
ĠDunstabzug shaube
mingere cht
ĠGÃ¤n sehaut
ĠFrem d
ĠErei g
ĠEye catcher
ĠZei gefinger
ĠQul itÃ¤t
ĠCapp ucc
ĠschwÃ¤ chen
ĠAmate ur
ĠPoliz ei
Orden tlich
ĠTransparen z
ĠFrise ur
Tele fon
yk len
eran feld
ĠLEI DER
Ġti ptop
ĠNin jago
ĠOri ent
Ġabwechseln d
ettico at
ĠzurÃ¼ckges andt
ĠDevol o
ĠKonzent rat
ĠGummib Ã¤rchen
ĠNeop ren
ĠWÃ¤rmel eit
ĠDatent ransfer
nast ik
Ġwon ach
Ġbeziehungs weise
ĠAnges ichts
ĠEinbl icke
Ġentgra tet
ĠAufmerk samkeit
ĠCappucc ino
! .
! ),
. ).
0 5
A dr
A LL
B al
C over
D aumen
D Ie
F it
F arb
F ahr
G ar
G rund
G umm
G old
G estern
H und
H ell
H olz
H Ã¤ngt
I V
J ahre
K amen
L C
L Ã¶
L ieb
L ieber
L eichter
M Ã¼ll
M Ã¼tze
M atratze
N ot
N etz
P E
R ing
S oll
S ah
S pr
T Ã¼r
T ag
T ER
U r
W a
W att
W atch
W EI
b as
b ig
b Ã¤n
b ol
b ill
b utter
b ike
d ieren
d ler
d og
d icke
e ve
f asst
f inger
g iger
g leichen
g ins
h ls
h eilung
h immel
h amster
j ung
j ahre
k in
k unde
k ater
k Ã¼che
k ontrolle
l se
l ief
l aufe
m Ã¤h
m peratur
m uster
m otor
n o
n em
n abel
o ft
o hle
o dy
p on
p chen
p ositiv
p utzen
p aste
p rall
r Ã¤t
r asse
r ennt
r Ã¼cke
r yl
s at
s per
s ingen
s mÃ¶glichkeiten
s lÃ¤ufig
t un
t Ã¤
t le
t ra
t urm
t raining
u pp
v a
w Ã¤hn
w ister
y ester
z te
z ehn
Ġ #
Ġ [
Ġ orden
Ġ rochen
Ġ !!!!!!!!
Ġ ***
Ġ urteilen
Ł ðŁĮ
ch i
ch ol
er al
er wartet
en g
ei fer
Ġd inge
Ġd urcht
Ġs her
Ġs Ã¤m
Ġs hirt
un ser
un sichert
Ġa ben
st a
st d
st ar
st immt
st Ã¼cher
st rÃ¼mpfe
st ore
ein z
ein heiten
Ġg ig
Ġg iebt
Ġg oogle
Ġg ood
Ġw us
Ġw im
Ġw inter
Ġw atch
es barkeit
Ġm M
Ġm g
Ġm und
Ġm ak
Ġm ikro
an st
an satz
an bie
ĠS M
ĠS eg
ĠS up
ĠS upper
ĠS herry
Ġun bel
Ġun ordentlich
Ġun verhÃ¤ltnismÃ¤ÃŁig
Ã¤ hen
ut eln
Ġb or
Ġb eit
Ġb rem
Ġb rille
Ġb Ã¼gel
Ġb lenden
Ġb Ã¼rsten
ar at
ar ien
Ġh Ã¤n
Ġh itze
Ġh auch
Ġein bau
Ġein klemmen
Ġz Ã¼
Ġz ert
Ġz ertif
Ġz Ã¼gige
Ġz ahle
Ġk al
Ġk arton
Ġau ste
te xt
Ġf er
Ġf ri
Ġf etten
Ġf olg
Ġf eilen
Ġf unt
Ġf oto
Ġf rist
Ġf esselt
Ġf laschen
Ġf igur
Ġf eiern
Ġf okuss
al inen
al isiert
der mit
ĠA T
ĠA g
ĠA h
ĠA lex
ĠA vent
ĠA ven
Ġzu ziehen
Ġzu bauen
Ġzu drehen
Ġzu gehÃ¶r
Ġv ierte
ĠD C
ĠD EN
ĠD Ã¤mm
ber s
ĠP A
ĠP H
ĠP V
ĠP et
ĠP ir
ĠP ing
ĠP inn
ĠP ok
ĠP iept
at ches
Ã¶ lt
Ã¶ gerung
Ġsch wei
Ġsch ad
Ġsch ickt
Ġsch Ã¼tz
Ġsch loss
el eisen
et ing
et ern
et rieben
sch ten
sch ritt
Ġl och
Ġl eucht
Ġl ok
Ġl ike
ĠG ong
ĠB B
ĠB j
ĠB las
ĠB ay
ĠB indung
ĠB etten
ĠB ons
ĠB omben
ĠB olzen
ĠB oler
ĠB oller
ĠB umper
ĠB akterien
ĠB atman
ab deck
ĠK net
ĠK ontroller
ĠK ram
ĠK Ã¼rzen
ĠK ristalle
ĠF unkt
ĠF Ã¼hrung
ĠF raglich
ĠF rist
ĠF abr
ur ved
ir bt
ĠL eit
ĠL um
ĠL egen
ĠL Ã¤nder
ĠL eim
ĠL isten
ĠL anger
ĠL Ã¤ng
ĠL ehne
ĠL eckere
Ġich s
ĠH R
ĠH eu
ĠH auch
ĠH Ã¤tten
ĠH olly
ĠH Ã¤hnchen
ro pf
ĠM p
ĠM r
ĠM ut
ĠM um
ĠM op
ĠM uÃŁ
ĠM Ã¤h
ĠM ache
ĠM aster
ĠM EIN
ĠM IT
ĠT I
ĠT am
ĠT akt
ĠT Ã¼cken
ĠT alk
ĠT rip
ĠT ime
ĠT abelle
ĠT ennis
Ġan leitung
Ġan erk
Ġan wendung
Ġan bringung
Ġan hÃ¶ren
Ġan schlieÃŁt
Ġan fÃ¼hlen
Ġan bringt
Ġan rufen
Ġes se
or f
or dern
ĠW E
ĠW ade
ĠW IN
ĠW illen
ĠW urst
ĠW inkeln
ĠW Ã¤nden
mm t
mm un
mm chen
Ġso gen
Ġso daÃŁ
Ġer sicht
Ġer fÃ¼llte
Ġer lauben
Ġer ahnen
ert igung
Ġin st
ann kuchen
Ġp e
Ġp acke
Ġp rall
ĠSch lau
ĠSch afft
ĠSch af
ĠSch Ã¼ler
Ġo h
Ġo ver
cht isch
cht igt
Ġver ar
Ġver raten
Ġver mitteln
Ġver kleinert
Ġver stellbare
ss et
Ġman uelle
Ġauf m
Ġauf st
Ġauf kommen
Ġauf geben
Ġauf liegen
Ġauf zunehmen
Ġauf gibt
Ġauf baut
Ġauf lÃ¶st
ĠI onic
Ġt ur
Ġt Ã¤u
Ġt reu
Ġt Ã¤tigen
Ġt adell
ĠV ap
Ġaus k
Ġaus stellen
Ġaus geh
Ġaus gebaut
Ġaus schlieÃŁen
Ġaus machen
Ġaus weichen
Ġaus Ã¼ben
Ġaus drucken
Ġbe komm
Ġbe cher
Ġbe wertung
le y
ĠN ahr
ĠN ic
Ġr under
Ġr isk
ĠR ingen
ĠR anzen
ĠR enov
esch utz
il de
auf orm
pf erd
pf els
pf laster
hr ten
Ġj z
Ġj ungen
Ġj ob
ra sten
ĠZ imt
ier ungs
ĠVer schlieÃŁen
Ġkl opfen
Ġet lichen
Ġst Ã¶
Ġst unde
Ġst ift
ĠPro jekte
um t
um ig
ĠO N
ĠO ster
ĠO pa
ĠSt eif
Ġnach gesendet
Ġall erding
Ġall mÃ¤h
ĠAn s
ĠAn teil
ĠAn nahme
ĠAn sprech
ĠAn probe
ĠAn anas
ĠAn betracht
enn ummer
anz e
ol iert
Ġnoch einmal
Ġab gel
Ġab get
Ġab bauen
Ġab gesetzt
Ġab holen
Ġab sehbar
Ġab zur
Ġab bekommt
Ġab messen
Ġab baubar
llen bogen
Ġwei se
Ġwei sen
Ġwei sse
ĠEin leitung
Ġsuper schnelle
la gert
op tisch
ik es
fe sten
ger s
ger in
ger ollt
ger Ã¤ten
ĠÃ¼ber geben
ĠÃ¼ber laden
ĠÃ¼ber deckt
ĠÃ¼ber lassen
ĠÃ¼ber fordert
sp unkt
her apie
zen z
ĠSp alten
ĠSp eichen
ĠSp eise
ĠHand haben
ĠEr hÃ¶hung
bar t
erd ruck
Ġeinfach ere
Ġvor igen
Ġvor lesen
Ġvor gekommen
Ġvor wÃ¤rts
Ġlei sen
end Ã¼nger
ap el
be e
be ere
fÃ¼ sse
uck el
Ã¶r ser
Ġum gestellt
Ġum fÃ¼llen
Ġum gebaut
Ġum geht
Ġum werf
ĠJ em
ĠJ ohn
ĠJ ames
ĠJ GA
ag ten
bl ut
Ġent Ã¤u
Ġent wir
Ġent nommen
Ġent leeren
Ġent lastet
ot ionen
Ġger adem
ĠC ampen
komm ode
ĠEs el
ĠBe geben
ĠBe feh
ĠBe zÃ¼glich
ĠBe fÃ¼llung
ri den
ri sse
ĠAb us
ĠAb rieb
Ġalles amt
Ġ3 1
Ġgel angt
ĠgroÃŁ flÃ¤
aus gang
aus gabe
ĠIn hal
ĠIn haltlich
ĠIn dustrie
Ġgef rÃ¤
Ġdurch lesen
Ġdurch schnittliche
ĠGesch enkt
schl itz
schl usst
Ġper s
Ġper lt
Ġre gt
ĠUn rein
ĠAuf st
ĠAuf pumpen
ĠWas chtisch
utz ungen
ĠSuper schnelle
Das s
Ġsp ru
Ġsp eichert
Ġsp reche
Ġdr ingt
Ġdr inn
Ġdr itt
Ġdr ittel
ĠKl imm
Ġgew orben
Ġgew onnen
ativ e
art a
Ġde f
Ġde klar
pp el
Sch nitt
Ġbesch rÃ¤nkt
Ġbesch affen
Ġher ein
Ġher steller
ragen des
Ġgesch ossen
Ġgesch ildert
stell igen
Ã¤u bchen
ĠProblem atisch
ĠProblem lose
br aten
br enner
ĠMat erie
ma x
Ġhoch ge
Ġhoch kant
Ġunter ste
Ġunter zubringen
ungs zeit
ungs winkel
ĠZu vor
ell a
Ġc ar
Ġc le
lÃ¤ ne
dig te
dig keit
pl er
pl anen
.... ......
Ġges andt
Ġges orgt
Ġange drÃ¼ckt
Ġhin schaut
ĠLeistung en
Ġerst em
ĠwÃ¤ hl
Ġte xt
Ġ5 7
Ġ5 8
ĠBei stellt
ĠDes ig
ĠNicht gebrauch
ĠBo b
ĠBo w
ĠBo ots
ĠBo dies
gesch Ã¼tzt
gesch nitten
gesch oss
ah m
ĠNach wuchs
Ġstabil eren
dern d
ĠSte pp
ĠKauf betrag
Ġfest eren
Ġfest geschraubt
ĠMaterial stÃ¤rke
Ġschwer eren
ĠAus richtung
ĠAus weis
ĠAus guss
Ein er
ĠBild schirme
ĠFil igran
Ġrein legen
Ġrein igung
Ġrein schieben
Ġeigen dlich
Ġlang weilige
Ġlang frist
ĠUhr macher
ĠWasser filter
utt i
Ġgeh n
Ġgeh auen
Ġgeh Ã¤ngt
Ġgeh oben
ĠKinder sicherung
ĠKinder augen
ĠGeld tasche
ĠBl ume
ĠBesch affenheit
Ġihr es
Ġuns ichtbar
Ġschw itze
Ġschw ankt
itz ung
itz el
men gen
Ġbeg ab
Ġbeg rÃ¼n
kl ang
ĠRei z
ĠVor lage
ĠVor lagen
ĠVor auss
ĠVor kenntnisse
ĠðŁ Ĳ
ĠAkku ladung
Ġbes aÃŁ
bo ten
ĠRÃ¼ck wand
ĠRÃ¼ck abwicklung
ĠVersand zeit
Ġsicher es
ĠUnter bau
ĠUnter hemden
ĠPlastik beutel
ĠPlastik flasche
ech ter
im um
Ã¼ÃŁ t
ĠSchutz glÃ¤ser
ĠStoff t
Ġzusammen gefasst
An z
An lage
An fÃ¤nglich
Ġseit her
ak zeptabel
ĠnatÃ¼rlich e
ob ald
ĠHaar ausfall
Ġlaut los
Ġfunktion ert
Ġfunktion ierendes
Ġwohl er
ĠCh ic
ĠCh ihuahua
Ġkompl etter
gef logen
ĠKr anz
ĠKr atzen
ĠKr abbel
Ġged Ã¤mpft
Ġhand elte
ĠUm stellung
ĠFre u
ĠNacht sicht
entlich en
ĠWei ÃŁe
Ġhochwertig ste
urt asche
oo ze
Ġ6 2
ĠDe f
ĠDe al
Ġbequem es
iz ard
ĠKn ack
ĠKn app
Ġweg nehmen
Ġweg schneiden
Ġwarm weiss
auber t
ix elt
Ġbeh indert
Ġbeh utsam
Ġschl anken
ĠOriginal s
ĠOriginal kabel
ĠGew inn
Ġbest Ã¼ckt
Ġste uer
so weit
so gar
ĠSchw enk
ĠGlas flasche
ĠGlas scheibe
ate x
Ġpreis werten
Ġkn Ã¶pfe
Ġkn appe
sel bst
Ġgest r
Ġgest immt
Ġgest apelt
ĠDruck punkt
ul at
Ġschm ei
Ġschm iegt
Ġirgend eine
Ver wendung
ĠMo os
ĠMo unt
ĠLade anzeige
ist a
ist ischen
ĠLuft zug
ĠLuft reiniger
ĠLuft blÃ¤
ĠLuft blase
ĠLaut er
ĠLaut sprechern
Ġvorher iger
ĠAnleitung s
Ġ100 00
Ġgl itzer
Ġverst eh
Ġverst au
Ġhe adset
ĠGl ut
Ġverschieden sten
ĠFl ache
ĠHa fer
ĠEnt schul
ĠEnt spannen
ĠErwar ten
ĠLÃ¶ st
ĠArmband s
ras h
ĠPf Ã¤nnchen
ĠPf annkuchen
Ġhei ssen
die ses
ĠGumm id
Ġzw ickt
ummer n
ĠBen Ã¶tigt
Ġoptimal er
fÃ¼hr ende
Ġausge p
Ġausge arbeitet
Ġausge waschen
Ġanders wo
Preis wert
get reu
og ramm
ĠMet allt
ĠRad kappen
ĠSeiten schlÃ¤fer
ĠOber arm
ĠOber kÃ¶rper
ĠRein fall
Ġverwend ung
Ġwack lige
Ġversch affen
ER N
ĠTo y
ĠBoden dÃ¼se
ĠGes ellschaft
St eine
ĠBlu Ray
ĠX peria
Ġgesp Ã¼lt
Ġgesp Ã¼rt
ĠGriff en
ĠSchm unzeln
ĠMot to
rom eter
teil weise
ĠGroÃŁ artige
ĠFinger print
bild schirm
ĠAl ien
Ã¼ll ung
Ġrunter laden
Ġrunter fÃ¤llt
uro dermit
Ġpl anen
beh alten
ĠBett es
Ġabge blÃ¤ttert
ĠHaus es
ĠKunden re
ĠHersteller angaben
ckt ail
Ġwahr nehmen
Ġerh itzen
schirm ung
ĠBer uh
ĠBer lin
Ġu pd
ĠWerk bank
opp el
ĠðŁĳį ðŁı½
ĠVerbindung sprobleme
Ġqualitativ en
fÃ¤ llen
ĠDen ken
ĠCo des
ĠCo cktail
ĠGummi bund
Ġ9 8
ĠSh ort
ĠGarten tisch
besch alter
ĠMÃ¤n n
Ġverk Ã¼rzt
ĠAm atur
ĠPack ungs
ĠMann es
ĠTrage griffe
zus ammen
Ġzer f
Ġzer quetscht
ĠArbeit splatte
ĠGeh eim
ĠGeh eimt
ĠSport uhr
ĠGeb Ã¤u
ĠBatterie griff
arm odus
ĠRo te
ĠMetall bÃ¼gel
ĠHoch stuhl
ĠViel es
ĠViel zahl
nicht s
Ġch ron
Ġversp iegelt
Ġeinge stellte
Ġeinge stellten
ĠHaltbarkeit sdatum
Ġschn alle
Ġschn Ã¼rt
schn alle
ĠSil ik
Ġ12 00
Ġschwarz es
ĠWohn bereich
ĠgÃ¼nstiger es
In ter
In halt
In stallation
Ġkomp et
ĠBedien knÃ¶pfe
Ġverf ein
liegen de
Ġinteress ieren
Ġsitzen d
Ġsitzen de
Ġsitzen den
rot ein
Ġbew Ã¤lt
Ġbew ahren
vent ile
ĠKleber este
ĠPapier s
So cken
ĠDr Ã¼ckt
ĠBaby schale
hand buch
ĠKaffee pulver
ĠStr iche
ĠStr andtuch
ĠNachteil ig
ĠKatzen haare
iff eren
wÃ¤ re
Ġvier ten
ĠNe utral
ĠNe urodermit
ĠDauer haft
ĠSel ber
ĠInstallation s
ĠMittel n
ĠMittel feld
ĠMittel konsole
ĠWunder voll
ĠBeg riffe
Ġenthalten e
ĠHell es
Ġgebraucht es
Ġqu ali
ĠTransport tasche
Ġdunkel braun
bie ten
ĠGar agen
Ġunkompl izierter
AN N
Ġzeit los
Ġzeit weise
Un s
Ġleichter e
Bei de
pr esse
viel falt
Ġdauer hafte
ud d
Ġha ptisch
Ġersch w
Ġersch reckend
ĠSchrei bt
da fone
schm inken
ĠerklÃ¤r end
zeich nungen
ĠnÃ¤ cht
ĠNÃ¤ hen
ĠBeh alte
ĠPol o
Ġrum probieren
ĠstÃ¶r risch
ĠBohr k
recht s
ĠZwei ten
ĠPositiv es
Ġschaut e
hil ft
ĠSpiegel schrank
amil ien
ĠAngeb lich
Ġbestell ung
ĠErst es
Ġsicht lich
Ġerrei che
ĠVent ile
ĠQu ark
IN G
air ing
ĠKnopf zelle
Ġbrauchbar es
Ġehr liche
ĠFehl al
Ġzweck e
ĠWert ung
Ġzerk ratz
ĠFle ece
gew inde
Ġmehrfach er
Ġaussehen de
Sp iele
Ġunver packt
ĠHu pe
Ger Ã¤te
Ġunbe kann
Ġverz ei
ĠMÃ¼ llt
ĠerwÃ¤hn ten
ĠMangel hafte
ĠNoch mals
Ġfarb los
Ġfarb intensiv
Ġselten er
Ġries iger
ise x
Ġausgel iehen
ĠHeadset s
Ġauszu ziehen
uchs icher
Ġerne uern
Ġniedlich er
Ġbreit es
ĠMess schieber
ĠEt her
ĠEt agere
ĠEcht leder
ĠFÃ¼ll material
ĠBewegung serkennung
schrauben dreher
ĠBauch nabel
Ġheller es
Ġallzu viel
Ġweicher e
ĠÃ¼bert rÃ¤gt
ĠFuss ball
ĠHo her
Ġ18 5
ICHT IG
ĠHÃ¶r buch
ĠSe gel
ĠSe ptember
Ġgarnicht s
ĠMilch schaum
Ġverd iente
Ġverd unkelt
ĠDreh buch
produkt ion
ĠLust iger
ĠSpeicher karten
ĠSpeicher platz
Ġgering ere
ĠBrot her
ĠSchlei er
ĠEigen schaft
mus ik
ĠGet rÃ¤nken
Ġverh akt
ĠText ilien
Aus gang
ĠPr alinen
ĠBlasen frei
ĠKur s
ĠPosition ierung
Ġleistung sst
ĠHau ben
ĠTrink Ã¶ffnung
ĠSa fe
Ab zug
ĠWÃ¼r ste
Ġaller beste
Ġherunter laden
schw ein
jÃ¤hr iges
Ġverschl issen
ĠAkt uell
ĠLog ik
ĠMonitor e
ĠVorder rad
ĠmÃ¤ÃŁ iger
ĠKoch t
Ġrutsch te
ĠSchmuck set
ĠTr ikot
steck te
ĠRund ungen
ĠSc an
ĠSc roll
ĠblÃ¶ de
ĠTier chen
ĠTier haar
ĠNagel feile
ĠLesen swert
ĠBÃ¼rsten kopf
Vor ne
Ġmer kte
ĠunschÃ¶n en
ĠExt reme
ĠEier becher
Ġangef ertigt
Ent gegen
ĠSend ungen
ĠScheiben wischer
ĠAbl esbarkeit
ĠMicro faser
ĠTor x
ĠFer ne
ĠAnd re
ĠRut schen
ĠSchulter riemen
ĠMitt woch
ĠgemÃ¼tlich es
Ġengl ischen
Wunder bar
uff el
ĠMass iv
ĠangekÃ¼n digten
ieg sam
ĠglÃ¤nzen de
ĠLiter atur
Ġluft dicht
ieÃŁ bar
ĠJo hann
Ġentsp rochen
ĠvernÃ¼nft iger
sal z
zweck en
ĠHal me
ĠZwischen zeit
ĠZwischen raum
ĠSchnee flocken
ĠReakt ions
ðŁĺ Ĥ
ðŁĺ ī
ĠDi mension
ĠprÃ¤z iser
Klein es
Ġbenutz er
ĠFort geschrittene
ĠBewegungs freiheit
Ġset ze
Ġerhe bliche
Ã¤mm e
Ġbeweg lichen
ĠPh otos
ĠHÃ¼ lse
ĠVit am
ĠBesteck kasten
ĠMed ium
bet on
ĠðŁĳįðŁı» ðŁĳįðŁı»
ĠPreiswert es
Ġtelefon iert
zut auschen
Ġfett ige
ĠRat sche
Ġgenauer er
ĠKleink ram
ĠHighlight s
Ste ck
ĠVo geltrÃ¤nke
ĠVo dafone
ĠSchild chen
Ġausgeb rochen
ĠVerd au
ĠVerd unkel
ĠFilz gleiter
ĠMax imal
ĠAktiv kohle
Ġhaar genau
ĠWeich macher
ĠAnsicht ssache
Ġtrain iere
Ġredu z
Angenehm es
ĠMontag sprodukt
ĠhÃ¤rter e
ĠhÃ¤rter en
ĠKart uschen
Ġklass isch
Ġklass isches
gewÃ¶hn en
ĠSack karre
ĠKÃ¶n ig
ĠVerst aum
ĠStÃ¶ ÃŁen
ĠGleich zeitig
ĠKop ie
Ġniem anden
ĠEinzelt eilen
Ġsub optimal
Ġaufger ollt
ĠSim pel
ĠCont ainer
Ġverkn oten
Ġunf Ã¶rmig
Ġpf ui
ĠSchreib fehler
ĠFormat ierung
ĠMikrof one
ĠHaust Ã¼re
ĠDiff eren
reg ler
Ġprofession elle
Ġprofession ellen
ĠAuff Ã¤llig
ĠstÃ¤rk ste
ĠSchleif papier
Trotz dem
groÃŁ e
ĠPan el
schle chte
ĠGrau s
ĠButter dose
Ġverbl assen
Ġverform en
ĠZit ron
ĠUlt raschall
ĠBrÃ¼ ller
Ġansprechen den
Ġdurchschnittlich er
ĠLÃ¶s ungs
ĠLÃ¶s lichkeit
Rei he
Ġdruck e
ĠOptimal e
to ur
ĠDÃ¼n ner
ĠBro sche
ĠFin ish
lad ungen
olog isch
âĢ¦ .
Ġsaug leistung
ĠÃ¤ uss
ĠMahl werk
Ġerwei tert
ĠZweit gerÃ¤t
ĠFrucht fliegen
Ġchines ische
Ġdeck el
ĠAutom at
Le uchten
ku geln
Ġlauf end
ĠEur os
Ġy outube
Ã¼l pen
ĠVis ion
ĠVis ier
Ġberuh igen
ĠGener ationen
ĠOrdentlich es
Ġmiss fÃ¤llt
ĠhÃ¤ss lichen
ĠTri mmer
sph ase
ĠÃľberras cht
ĠMei sten
ĠMei ÃŁel
Ġvorm ontiert
ĠReflekt or
Ġirrit ierend
Te ppich
Ġzahl reiche
Ġkat ze
Ġveg an
Ġveg ane
ĠBull dog
ĠEmail s
Ġmoder nen
ĠRechtsch reibung
Brau cht
ĠschÃ¤ len
ĠLink shÃ¤nder
ĠVerg aser
ĠlÃ¤st igen
ĠNachttisch lampe
GroÃŁ e
Ġsynchron isiert
Ġinter nen
Ġgewohn ten
ĠÃ¶l ige
ĠÃĦnder ungen
ĠBlÃ¤ hungen
Ġstr ess
ĠQualit aet
ĠHerr n
ĠHerd platte
Ġgewiss es
Ġneutr alen
Ġangebr achten
ĠMuskel aufbau
Ġbevorzu gt
Br ingt
ĠPil ze
ĠPla ce
ĠBrÃ¤ ter
ĠBrÃ¤ une
roll o
ĠÃ¼berw achen
Ġglitz ern
ĠElektr iker
ĠâŃĲ ï¸ı
Ġsur ren
Ġkoch endes
ĠWes pen
ĠSchie sser
ĠSchie beschalter
ĠSchÃ¤ ler
Ġbefrei en
ĠschwÃ¤ch eln
ĠFunktions umfang
ĠReinigungst Ã¼cher
ĠHolzt eile
Ġsenk re
Ġzauber t
ĠPrÃ¤sent ationen
ĠKrÃ¼ mm
ĠFo ot
ĠauffÃ¤ll ige
ĠRem ote
ĠErg onom
Ġzufriedenstellen de
-------------------------------- --------------------------------
Rob ust
Ã¤d elt
schÃ¤r fer
ĠBaut eile
ĠHmm m
ĠhandelsÃ¼b lichen
ĠQuad rat
ĠBetr achten
To uch
het ik
kÃ¼hl ung
ĠSy nt
ĠSing le
Ġschei ÃŁe
ĠGre y
ĠFair er
ĠHÃ¤ keln
ĠTinten patronen
Ġps ych
ĠBadeh ose
ĠMaul wurf
Ġwinz igen
SÃ¼ÃŁ er
Ġmix en
Ġreflekt iert
ĠEleg ant
Ġdisk ret
Ġbas iert
ĠTurm ventilator
ĠtÃ¼r k
Ġdam pfen
ĠZipp o
ĠSod brennen
ĠReihen folge
Ġknack ig
ĠFritz box
rang ig
ĠSle ep
ĠSub woofer
ĠWalk ie
ĠVin yl
ĠSpazier gÃ¤nge
ĠRec order
ĠHaarb and
CHT UNG
Ġaktual isiert
Aut o
kÃ¶r ner
Ġreis st
Ġeing rav
ĠED IT
ĠWick ler
antwort lich
ĠMontags modell
ĠhartnÃ¤ck ig
Ġunregel mÃ¤ÃŁig
ĠOriginalt eile
ĠdÃ¼ ster
Ġhol pr
ĠDÃ¤mmer ung
ĠMeister werk
Ġverring ert
ĠJul i
Ġweiterver schenkt
Schl Ã¼ssel
ĠRezes ion
ĠTÃ¼rk is
ĠEinschalt knopf
STE LL
ĠFingernÃ¤ gel
ĠWhats App
ĠGym nastik
ĠFlau schig
Ġansch affen
Ġvielf Ã¤ltig
ĠSchÃ¶nheits fehler
ĠDrehm oment
kaputt bar
ĠhÃ¶henver stellbar
Po wer
kan al
Ġdi mension
Ġad Ã¤qu
Ġkri stall
schwar ze
ĠBraut paar
Ġverwei gert
Ġrub beln
ĠOm ega
ĠUnangenehm er
klem me
Ġzwang slÃ¤ufig
ĠSonnenbl umenk
ĠWimper ntusche
GerÃ¤u sch
Ġindir ekte
ĠDiam ond
AuÃŁ er
Mus ik
hÃ¤l nis
Ġmie se
Ã¼ch se
ĠBleist ift
ĠHinder nisse
ĠWitter ung
Ġpigment iert
Ġout door
Ġauszur ichten
Ġbebilder t
Ġgefil tert
ĠPlisse e
Ġirr elevant
Ġros Ã©
ĠRoss mann
Ġexperiment ieren
ĠKompat ibilitÃ¤t
eduz ierung
ĠtatsÃ¤ch liche
ĠZubehÃ¶rt eile
Sens or
Ġhd mi
Ġkei men
ĠfÃ¶rder t
Ġgedul dig
Ġprim Ã¤r
ĠRab att
ĠRett ung
ĠErschein ungsbild
ĠChl or
ĠInd ividu
ĠAllerg iker
ĠlÃ¤cher lich
Ġcoil s
ĠRÃ¼ckfahr kamera
ĠreiÃŁ fest
ĠAntir utsch
Ġter mingerecht
Ġuninteress ant
Ġknet en
Ġknitter frei
ĠfleiÃŁ ig
ĠKau gummi
Ġgeeig nete
ĠverfÃ¤l scht
ĠRÃ¶t ungen
ĠCha os
ĠWasserd ichtigkeit
ĠLautstÃ¤rker egler
ĠMilchauf schÃ¤umer
ĠSolarp anel
ĠQualitÃ¤tsan mutung
ĠRadiosen der
ĠKalibr ierung
ĠVerzÃ¶ger ungen
Ġaggress iv
DV D
ĠDild o
Ġanschm iegsam
ĠSchan iere
ĠSchramm en
ĠAbstands halter
Ġwohltu end
ĠPod cast
Ġunverz ichtbar
ĠSchauspiel ern
Ġverwunder lich
Ġbeeinfluss en
Ġauste sten
ĠBlas e
ĠBoler o
ĠBoller wagen
ĠallmÃ¤h lich
Ġumwerf end
Ġdeklar iert
ĠLuftblÃ¤ schen
ĠEntschul digung
ĠNeurodermit is
" )
) ..
+ .
, .
. "
. !!
. ),
/ /
0 8
3 9
8 5
A V
B eh
B ir
B ack
B edien
B aby
C ase
C hem
D N
D r
D och
D ann
D EN
E C
E ig
E hr
E nd
F eh
F ur
F rau
F ER
F Ã¼ÃŁe
F iguren
G Ã¼nstige
H T
H m
H aus
H ome
H elm
I A
J Ã¤hr
J edoch
K U
K ind
K ontakt
K lappt
K leben
K leid
L auf
L eg
M iss
M aschine
M ER
M ax
M einen
M ac
M etall
N etzteil
P unkte
P apier
P fl
Q u
R und
R adio
S L
S c
S tern
S ystem
S ilber
T S
T ja
T Ã¼cher
T abl
T ipp
T aschen
U CH
V ideos
W ow
W eiter
X XL
b einen
b rillen
c er
c el
d os
d ichten
d unk
d unkel
d rÃ¤hte
e x
f iel
f rÃ¤
f rem
f indet
f Ã¤chern
f irma
g ier
g ucken
g yp
h or
h Ã¤t
h Ã¼bsch
h atten
h Ã¤ndig
h Ã¤user
i atische
j t
j ine
k os
k ri
k ere
k affee
l d
m ar
m assen
m Ã¼cken
m Ã¤use
m eter
m eister
m obile
n Ã¼rt
o kl
o cker
p eln
p rot
p rÃ¤z
p rÃ¤cht
q ualitativ
r umente
s an
s ieren
s qualitÃ¤t
s uchen
s itzen
s dauer
s itt
s hell
s have
t ie
t Ã¼r
t Ã¤t
t hm
t eils
t aste
t afel
u lle
u ere
u pfen
u pfer
v an
v orteil
w ollte
w annen
w illig
y on
z ocke
Ġ `
Ġ empfehlung
Ġ ),
Ģ ï¸ı
Ķ Ŀ
ch rom
en ce
ei ff
Ġd Ã¤
Ġs ingt
Ġs atter
Ġa v
st au
ein er
ein sÃ¤tze
Ġg uck
Ġg ri
Ġg eile
Ġg rill
Ġg rip
Ġg aming
Ġw eht
Ġw und
Ġw olle
Ġw ecker
Ġw einen
Ġw Ã¼ten
Ġw andert
es es
as sten
Ġm a
Ġm icht
Ġm ate
Ġm atten
Ġm eter
Ġm ult
Ġm icro
Ġm otor
in u
in ung
in se
in oppen
an fang
an wendung
an Ã¶l
Ã¼ le
Ġn utzung
Ġn ackt
eh em
eh bar
ĠS ig
ĠS ach
ĠS ett
ĠS enk
ĠS qu
ĠS eiden
ĠS ling
ĠS ende
Ġun ges
Ġun rund
Ġun unter
Ġun prÃ¤z
Ã¤ uner
ut ert
ut ion
Ġb eider
Ġb aden
Ġb ist
Ġb ook
Ġb itten
Ġb rav
Ġb aug
ar z
ar io
Ġh alter
Ġh asse
Ġh Ã¼llen
Ġh Ã¼bschen
Ġein schl
Ġein kleben
Ġein lassen
Ġein zieht
Ġein reiÃŁen
Ġein schneidet
Ġein mass
Ġein cremen
Ġz unehmen
Ġk aut
Ġk issen
Ġk arten
Ġk Ã¼hle
Ġk rÃ¼m
Ġk Ã¤mm
Ġk nittert
Ġk ohlensÃ¤
Ġau di
on o
Ġf in
Ġf rau
Ġf lÃ¤
Ġf ingen
Ġf uhr
Ġf log
Ġf lasche
ig las
it al
it chen
ĠA rie
ĠA sche
ĠA ct
ĠA UF
Ġzu wenig
Ġzu lange
Ġzu ordnen
Ġv ideos
ĠD ell
ĠD immen
ĠD Ã¼beln
au x
au rier
ck ert
ber icht
ĠP O
ĠP el
ĠP and
ĠP ER
ĠP LA
ĠP asste
ĠP DF
ĠP etticoat
ĠP lÃ¤ne
ĠP airing
at m
at in
at ert
at sche
at ulle
Ġsch aun
Ġsch Ã¤tzen
Ġsch ieÃŁt
Ã¼r fte
el fer
el tern
et ik
et ogen
sch ranktÃ¼r
Ġl g
Ġl abil
Ġl eckt
Ġl Ã¤ngen
Ġl ink
Ġl ampen
Ġl amin
Ġl ande
ĠG O
ĠG ill
ĠG rade
ĠG lauben
ach ing
ĠB ot
ĠB ri
ĠB att
ĠB ib
ĠB ater
ĠB rav
ĠB iÃŁchen
ĠB Ã¤ume
ĠB auform
Ġder selben
ab drÃ¼cke
ab beln
ĠK O
ĠK eil
ĠK ippen
ĠK Ã¼hlen
ĠK abellos
ĠF ie
ĠF Ã¤lt
ĠF Ã¼t
ĠF Ã¤h
ĠF Ã¼ÃŁ
ĠF oren
ĠF Ã¶rder
ĠF imo
ĠF iebert
kt asche
ir a
ĠL O
ĠL P
ĠL ach
ĠL ass
ĠL einen
ĠL ong
ĠL etzter
ĠH om
ĠH Ã¤l
ĠH asen
ĠH antel
ro stet
ĠM c
ĠM un
ĠM eh
ĠM or
ĠM inder
ĠM auer
ĠM ienen
ĠM eckern
ĠM ia
ĠM HD
ĠM ops
ĠM Ã¤usen
ĠM utti
ĠE X
ĠE mm
ĠE last
ĠE In
ĠE book
ĠE llenbogen
ĠT F
ĠT O
ĠT i
ĠT v
ĠT ar
ĠT iger
ĠT hin
ĠT annen
ĠT ools
de uten
de aux
Ġan stellen
Ġan mer
Ġan heben
Ġan stÃ¤ndige
Ġan schliessen
Ġan imiert
rei t
ne ue
or b
or ient
ĠW AS
ĠW AR
ĠW izard
Ġge deckt
Ġge ordnet
Ġge presst
Ġge Ã¼bt
Ġge fÃ¼llten
Ġge zielt
Ġge Ã¶lt
Ġer tragen
Ġer satzt
Ġer weiter
Ġer inner
Ġer wies
Ġer bÃ¤r
Ġin terne
Ġin ordnung
Ġin akzeptabel
Ġp a
Ġp Ã¼r
Ġp ad
Ġp ost
Ġp ackt
Ġp arty
Ġp Ã¼nklich
ĠSch e
ĠSch alten
ĠSch auen
ĠSch iff
ĠSch arfe
ĠSch erkopf
Ġver kl
Ġver bringen
Ġver altet
Ġver kabel
Ġver arbeit
Ġver klemmen
Ġver schliessen
Ġver kleinern
Ġver brauchen
Ġver unsichert
Ġver antwortlich
Ġver chrom
Ġver rostet
Ġmit geschickt
Ġmit gerissen
Ġmit nimmt
ss lich
ss eite
Ġman cher
Ġauf he
Ġauf schluss
Ġauf gef
Ġauf nahme
Ġauf schrauben
Ġauf heben
Ġauf rÃ¤umen
Ġauf hÃ¤ngt
Ġauf blas
Ġauf bÃ¼geln
ste g
ste chnisch
ĠI D
ĠI gel
ĠI MM
ĠI mmun
Ġt h
Ġt w
Ġt Ã¼
Ġt astatur
Ġt agel
ĠV G
ĠV I
ĠV llt
ĠV OR
ĠV arta
Ġaus gemessen
Ġaus schneiden
Ġaus drÃ¼ck
Ġaus wechseln
Ġbe stand
Ġbe decken
Ġbe wertungen
Ã¶n t
Ã¶n ung
Ã¶n ig
Ġr Ã¤
Ġr uss
Ġr ang
Ġr ust
Ġr Ã¼hr
Ġr ausch
Ġr amp
Ġr etro
Ġr anzig
Ġbei ÃŁen
Ġbei legen
Ġbei einander
ĠR et
ĠR ap
ĠR az
ĠR Ã¶s
il and
auf lad
Ġwir bt
hr e
Ġj acke
Ġj ucken
ĠDie sel
ser weck
ĠZ ir
ĠZ Ã¤hlen
ier gerÃ¤t
ier gummi
ĠVer n
ĠVer stand
ĠVer wir
ĠVer dacht
ĠVer rutschen
ĠVer mutung
ĠVer hÃ¤ltniss
ĠVer anst
Ġnur noch
Ã¤n gel
Ġkl ickt
Ġkl ische
Ġkl ettern
Ġst at
Ġst ation
Ġst ink
Ġst reu
Ġst orn
Ġst oppen
Ġst apeln
ĠPro tekt
ĠO P
ĠO V
ĠO pfer
ĠSt auf
ĠSt op
ĠSt ehen
ĠSt opp
ĠSt reich
ĠSt iche
isch bar
Ġnach ger
Ġnach gibt
Ġnach hinein
Ġdem ent
Ġdem ontieren
Ġall gem
ĠAn re
ĠAn zu
ĠAn schalten
ĠAn hand
ĠAn schlieÃŁend
ĠAn pass
anz ie
anz ahl
ol ine
ol ino
ed al
ed et
re unden
re gelung
ent spricht
ent liche
ent frem
Ġab legen
Ġab steht
Ġab gehalten
Ġab reiÃŁen
Ġab weichen
ĠEin t
ĠEin em
ĠEin zug
ĠEin deut
ĠEin kaufen
ĠEin schub
Ġsuper weich
la f
la geflÃ¤che
war te
us el
us or
mal igem
om at
lei ten
op Ã¤
zu cker
zu legen
wei len
iv al
fe ckt
ĠProdukt bewertung
Ġschon t
ger utscht
ĠÃ¼ber arbeiten
ĠÃ¼ber dreht
zen ter
Ġok i
Ġ1 99
Ġe b
ĠSp re
ĠSp itz
ĠSp ielt
ĠSp alte
ĠSp itzer
ĠSp inner
ĠSp achtel
ĠSp arsam
ĠSp ace
ĠSp eziell
ĠHand stÃ¼ck
ĠHand lichkeit
ĠHand arbeit
ĠHand creme
ĠHand schlaufe
ĠHand brause
ĠEr ne
ĠEr sten
ĠEr halten
ĠEr setzt
ĠEr mitt
gel Ã¤nder
gel ernt
Ġeinfach ste
ap ert
be stÃ¤ndig
be stÃ¤ndigkeit
Ġum geh
Ġum schalten
Ġum fallen
Ġum drehen
Ġum klappen
Ġum zustellen
Ġum kippt
Ġum fasst
ĠJ ucken
eil ig
und et
bl Ã¶
bl utung
ahr t
Ġviel fach
ver sion
ver braucher
Ġent h
ot on
ot ing
ot iv
ĠC y
ĠC al
ĠC utter
ĠC ube
ĠC osi
ĠC eranfeld
Ġgen annte
Ġgen ieÃŁe
ĠBe at
ĠBe yb
ĠBe wÃ¤sserung
ri al
ĠAb sch
ĠAb sÃ¤tze
ĠAb schirmung
Ġwerden de
las ch
las st
Ġ3 3
Ġgel Ã¶tet
ĠgroÃŁ artige
aus lÃ¶ser
ĠOr te
ĠOr ten
ĠGe wohn
Ġempfehlen swerter
Ã¤r ung
Ã¤r ft
Ã¤r kten
Ã¤r bte
ĠIn Ears
iger en
Ġgef ummel
Ġdurch gesch
Ġdurch gelaufen
Ġdurch gelegen
ĠAll eine
ĠSo fern
ĠUn genau
ĠUn erwartet
ĠUn isex
ĠAuf stehen
ĠAuf klappen
ĠAuf schÃ¤umer
ĠAuf wachen
ĠAuf prall
ĠWas chbar
utz er
Ġsp are
ĠKl ip
Ġgew undert
arbei teten
Ġweiter geht
pp i
Sch rei
Sch uh
Sch loss
Ġbesch m
Ġher bei
Ġher auss
Ġ4 9
Ġgesch Ã¤tz
Ġgesch Ã¼tz
Ġgesch irr
eig ung
ill y
br ach
br etter
br Ã¤uner
Ġsel ts
inder s
inder te
ma c
Ġhoch ziehen
Ġunter sch
Ġunter halt
Ġunter einander
Ġunter bricht
Ã¤nger ung
ungs melder
ĠZu gabe
[...]
