{"<s>":0,"<pad>":1,"</s>":2,"<unk>":3,"<mask>":4,"!":5,"\"":6,"#":7,"$":8,"%":9,"&":10,"'":11,"(":12,")":13,"*":14,"+":15,",":16,"-":17,".":18,"/":19,"0":20,"1":21,"2":22,"3":23,"4":24,"5":25,"6":26,"7":27,"8":28,"9":29,":":30,";":31,"<":32,"=":33,">":34,"?":35,"@":36,"A":37,"B":38,"C":39,"D":40,"E":41,"F":42,"G":43,"H":44,"I":45,"J":46,"K":47,"L":48,"M":49,"N":50,"O":51,"P":52,"Q":53,"R":54,"S":55,"T":56,"U":57,"V":58,"W":59,"X":60,"Y":61,"Z":62,"[":63,"\\":64,"]":65,"^":66,"_":67,"`":68,"a":69,"b":70,"c":71,"d":72,"e":73,"f":74,"g":75,"h":76,"i":77,"j":78,"k":79,"l":80,"m":81,"n":82,"o":83,"p":84,"q":85,"r":86,"s":87,"t":88,"u":89,"v":90,"w":91,"x":92,"y":93,"z":94,"{":95,"|":96,"}":97,"~":98,"¡":99,"¢":100,"£":101,"¤":102,"¥":103,"¦":104,"§":105,"¨":106,"©":107,"ª":108,"«":109,"¬":110,"®":111,"¯":112,"°":113,"±":114,"²":115,"³":116,"´":117,"µ":118,"¶":119,"·":120,"¸":121,"¹":122,"º":123,"»":124,"¼":125,"½":126,"¾":127,"¿":128,"À":129,"Á":130,"Â":131,"Ã":132,"Ä":133,"Å":134,"Æ":135,"Ç":136,"È":137,"É":138,"Ê":139,"Ë":140,"Ì":141,"Í":142,"Î":143,"Ï":144,"Ð":145,"Ñ":146,"Ò":147,"Ó":148,"Ô":149,"Õ":150,"Ö":151,"×":152,"Ø":153,"Ù":154,"Ú":155,"Û":156,"Ü":157,"Ý":158,"Þ":159,"ß":160,"à":161,"á":162,"â":163,"ã":164,"ä":165,"å":166,"æ":167,"ç":168,"è":169,"é":170,"ê":171,"ë":172,"ì":173,"í":174,"î":175,"ï":176,"ð":177,"ñ":178,"ò":179,"ó":180,"ô":181,"õ":182,"ö":183,"÷":184,"ø":185,"ù":186,"ú":187,"û":188,"ü":189,"ý":190,"þ":191,"ÿ":192,"Ā":193,"ā":194,"Ă":195,"ă":196,"Ą":197,"ą":198,"Ć":199,"ć":200,"Ĉ":201,"ĉ":202,"Ċ":203,"ċ":204,"Č":205,"č":206,"Ď":207,"ď":208,"Đ":209,"đ":210,"Ē":211,"ē":212,"Ĕ":213,"ĕ":214,"Ė":215,"ė":216,"Ę":217,"ę":218,"Ě":219,"ě":220,"Ĝ":221,"ĝ":222,"Ğ":223,"ğ":224,"Ġ":225,"ġ":226,"Ģ":227,"ģ":228,"Ĥ":229,"ĥ":230,"Ħ":231,"ħ":232,"Ĩ":233,"ĩ":234,"Ī":235,"ī":236,"Ĭ":237,"ĭ":238,"Į":239,"į":240,"İ":241,"ı":242,"Ĳ":243,"ĳ":244,"Ĵ":245,"ĵ":246,"Ķ":247,"ķ":248,"ĸ":249,"Ĺ":250,"ĺ":251,"Ļ":252,"ļ":253,"Ľ":254,"ľ":255,"Ŀ":256,"ŀ":257,"Ł":258,"ł":259,"Ń":260,"ch":261,"er":262,"en":263,"ei":264,"Ġd":265,"Ġs":266,"ie":267,"un":268,"Ġa":269,"ich":270,"st":271,"ein":272,"Ġg":273,"Ġw":274,"es":275,"as":276,"Ġm":277,"in":278,"an":279,"Ã¼":280,"ll":281,"Ġn":282,"eh":283,"ĠS":284,"Ġun":285,"Ġi":286,"Ã¤":287,"ut":288,"Ġb":289,"ar":290,"Ġund":291,"Ġh":292,"Ġdie":293,"icht":294,"Ġein":295,"Ġz":296,"Ġk":297,"Ġau":298,"Ġist":299,"on":300,"te":301,"ung":302,"Ġf":303,"al":304,"der":305,"ig":306,"it":307,"ĠA":308,"Ġzu":309,"Ġv":310,"em":311,"ĠD":312,"ehr":313,"au":314,"Ġnicht":315,"ck":316,"ber":317,"ĠP":318,"at":319,"Ã¶":320,"Ġsch":321,"Ã¼r":322,"el":323,"et":324,"sch":325,"Ġl":326,"ĠG":327,"ach":328,"Ġdas":329,"ĠB":330,"Ġder":331,"ab":332,"Ġgut":333,"ĠK":334,"ĠF":335,"ur":336,"kt":337,"ir":338,"ĠL":339,"Ġich":340,"ĠH":341,"ro":342,"ĠM":343,"ĠE":344,"lich":345,"ĠT":346,"de":347,"Ġan":348,"ter":349,"Ġsehr":350,"Ġes":351,"den":352,"gen":353,"rei":354,"ne":355,"..":356,"ge":357,"or":358,"Ġaber":359,"ĠW":360,"ĠfÃ¼r":361,"Ġden":362,"ten":363,"och":364,"mm":365,"Ġso":366,"ÃŁ":367,"Ġge":368,"Ġer":369,"ert":370,"Ġin":371,"ann":372,"Ġp":373,"ĠSch":374,"Ġo":375,"ind":376,"cht":377,"Ġauch":378,"Ġver":379,"eit":380,"Ġmit":381,"ss":382,"Ġman":383,"Ġauf":384,"ste":385,"Ġhab":386,"ĠI":387,"Ġt":388,"Ġwie":389,"and":390,"Ã¤t":391,"ĠV":392,"Ġsie":393,"Ġaus":394,"Ġbe":395,"Ġda":396,"Ġsich":397,"eider":398,"le":399,"Ã¶n":400,"reis":401,"ĠN":402,"Ġr":403,"Ġbei":404,"ben":405,"per":406,"Ġwar":407,"ĠR":408,"lle":409,"esch":410,"Ġhat":411,"il":412,"se":413,"Ġsind":414,"auf":415,"eine":416,"Ġwir":417,"ĠPreis":418,"uper":419,"pf":420,"hr":421,"Ġj":422,"ĠDie":423,"ser":424,"ls":425,"ra":426,"ĠZ":427,"ion":428,"was":429,"ing":430,"ier":431,"ĠVer":432,"Ġnur":433,"Ġhabe":434,"ief":435,"Ã¤n":436,"am":437,"Ġkl":438,"sen":439,"Ġkann":440,"is":441,"chen":442,"Ġet":443,"Ġst":444,"Ġeine":445,"ĠPro":446,"um":447,"ack":448,"llt":449,"ĠO":450,"ĠSt":451,"Ġmir":452,"lt":453,"isch":454,"sten":455,"Ġnach":456,"Ġdem":457,"Ġetwas":458,"oll":459,"Ġall":460,"rie":461,"ff":462,"len":463,"Ġals":464,"ĠAn":465,"alit":466,"unkt":467,"arb":468,"uch":469,"ualit":470,"enn":471,"iert":472,"uf":473,"anz":474,"ol":475,"zt":476,"Ġnoch":477,"ĠIch":478,"ed":479,"re":480,"Ġvon":481,"Ġleider":482,"ent":483,"Ġwas":484,"Ġab":485,"llen":486,"Ġwei":487,"du":488,"ualitÃ¤t":489,"tet":490,"Ġschne":491,"omm":492,"ĠU":493,"Die":494,"Ġmein":495,"uss":496,"ĠEin":497,"Ġmehr":498,"iel":499,"iefer":500,"Ġsuper":501,"...":502,"rau":503,"unktion":504,"ĠQ":505,"la":506,"Ġim":507,"ĠschÃ¶n":508,"dukt":509,"war":510,"us":511,"acht":512,"fach":513,"mal":514,"Ã¼ber":515,"hn":516,"om":517,"Ã¼n":518,"ĠQualitÃ¤t":519,"Ġdass":520,"lei":521,"Ġeinen":522,"pfeh":523,"mmer":524,"Ã¼ck":525,"op":526,"ik":527,"zu":528,"ht":529,"wei":530,"iv":531,"Ġschnell":532,"fe":533,"Ġwieder":534,"ĠProdukt":535,"bt":536,"ĠDas":537,"Ġschon":538,"ger":539,"ĠÃ¼ber":540,"ĠGut":541,"gt":542,"eck":543,"Ġklein":544,"sp":545,"her":546,"ze":547,"Ġ-":548,"rieden":549,"ieferung":550,"Ġganz":551,"che":552,"ick":553,"ehen":554,"Ġ(":555,"eist":556,"pt":557,"empfeh":558,"ang":559,"Ġpas":560,"Ġwer":561,"zen":562,"Ġok":563,"Ġ1":564,"urch":565,"Ġsein":566,"Ã¤lt":567,"Ġe":568,"Ġzum":569,"ĠSp":570,"ĠHand":571,"ĠEr":572,"bar":573,"gel":574,"Ġzuf":575,"erd":576,"Ġeinfach":577,"Ġzufrieden":578,"nen":579,"eht":580,"ft":581,"ade":582,"all":583,"hl":584,"Ġvor":585,"Ġmich":586,"ĠLieferung":587,"Ġ2":588,"Ġwenn":589,"Ġlei":590,"end":591,"ap":592,"rÃ¶":593,"be":594,"Ġdes":595,"!!":596,"hal":597,"ĠDer":598,"fÃ¼":599,"uck":600,"Ã¶r":601,"klich":602,"Ġum":603,"ĠGer":604,"ĠJ":605,"eil":606,"Ich":607,"und":608,"esser":609,"ag":610,"bl":611,"ahr":612,"Ġsoll":613,"ings":614,"Ġviel":615,"ver":616,"Ġent":617,"ĠSter":618,"ĠLeider":619,"ige":620,"unktioniert":621,"ot":622,"Ġander":623,"Ġbin":624,"Ġimmer":625,"Ġhaben":626,"igen":627,"eg":628,"Ġbeste":629,"pack":630,"roÃŁ":631,"etzt":632,"empfehlen":633,"rÃ¶ÃŁ":634,"Ġger":635,"Ġwirklich":636,"Ġmuss":637,"erdings":638,"os":639,"Ġwird":640,"ĠC":641,"aut":642,"ehm":643,"wert":644,"mit":645,"komm":646,"Ġgen":647,"eitung":648,"eistung":649,"Ġbis":650,"ĠSehr":651,"ien":652,"ĠEs":653,"ĠBe":654,"ri":655,"ĠAb":656,"Ġwerden":657,"las":658,"Ġdiese":659,"Ã¼rde":660,"ĠFÃ¼r":661,"Ġam":662,"Ġalles":663,"net":664,"aufen":665,"Ġ3":666,"Ġdies":667,"Ġdann":668,"Ġeinem":669,"ungen":670,"atz":671,"Ġgel":672,"ort":673,"ĠgroÃŁ":674,"Ġoder":675,"aus":676,"ĠOr":677,"inde":678,"ieren":679,"Ġkeine":680,"ĠGe":681,"Ġempfehlen":682,"fekt":683,"ern":684,"Ġmal":685,"abe":686,"Ġkein":687,"Ġbeim":688,"ĠAr":689,"Ġgek":690,"Ã¤r":691,"ĠIn":692,"iger":693,"Ġgef":694,"Ġdurch":695,"Ġjed":696,"Ã¼lle":697,"wer":698,"ĠAll":699,"off":700,"ĠSie":701,"Ġsieht":702,"Ġleicht":703,"ĠkÃ¶n":704,"blem":705,"schen":706,"ĠAber":707,"ssen":708,"Ġzur":709,"ĠGesch":710,"tz":711,"Ġgute":712,"Ġwen":713,"alten":714,"ke":715,"Ġfunktioniert":716,"hne":717,"schl":718,"eu":719,"Ġper":720,"Ġerwar":721,"Ġmeine":722,"Ġre":723,"Ġbesser":724,"ĠSo":725,"ĠUn":726,"he":727,"ĠAuf":728,"ibt":729,"Ġwur":730,"Ġpasst":731,"dem":732,"ĠWas":733,"geb":734,"ĠDa":735,"utz":736,"ĠlÃ¤":737,"Ġlie":738,"ĠSuper":739,"Ġ.":740,"nung":741,"Ã¶ne":742,"Das":743,"agen":744,"Ġsp":745,"Ġeiner":746,"son":747,"nte":748,"Ġdr":749,"sst":750,"auft":751,"ĠKl":752,"ild":753,"Ġgibt":754,"aar":755,"Ġgew":756,"est":757,"Ġje":758,"ativ":759,"arbei":760,"ruck":761,"Ġjetzt":762,"ĠHÃ¼lle":763,"Ġweiter":764,"kommen":765,"ett":766,"Ġkaufen":767,"zug":768,"art":769,"rotz":770,"Ġohne":771,"Der":772,"Ġde":773,"ange":774,"Ġson":775,"pp":776,"ĠwÃ¼rde":777,"Sch":778,"Ġbesch":779,"Ġallerdings":780,"ast":781,"Ġtoll":782,"Ġdamit":783,"Ġher":784,"Ġwurde":785,"Ġhatte":786,"abel":787,"Ġgeht":788,"Ġgekauft":789,"ont":790,"arbeitung":791,"cher":792,"tlich":793,"Ã¤llt":794,"ĠSterne":795,"ass":796,"ragen":797,"Ġbestellt":798,"genehm":799,"ĠTop":800,"imm":801,"sonsten":802,"Ġschle":803,"Ġjedoch":804,"dnung":805,"ad":806,"Ġ4":807,"ichtig":808,"Ġfinde":809,"ken":810,"Ġmacht":811,"Ġgesch":812,"eig":813,"ĠGerÃ¤t":814,"stell":815,"Ġzwei":816,"glich":817,"abil":818,"ĠhÃ¤lt":819,"weck":820,"eln":821,"Ã¤u":822,"Ġerwartet":823,"ĠProblem":824,"Sehr":825,"ĠOrdnung":826,"ill":827,"arbeitet":828,"ĠRe":829,"Ġweil":830,"ĠVerarbeitung":831,"br":832,"ank":833,"ĠMat":834,"ial":835,"Ġsel":836,"asche":837,"ĠFarb":838,"chte":839,"inder":840,"ĠÃ":841,"nis":842,"Ġhier":843,"opf":844,"Ġnichts":845,"ma":846,"Ġhoch":847,"alt":848,"ĠGrÃ¶ÃŁ":849,"olle":850,"Ġunter":851,"rieben":852,"Ã¤nger":853,"achen":854,"ungs":855,"scht":856,"ĠZu":857,"keit":858,"Ġben":859,"ell":860,"Ġ,":861,"fÃ¼llt":862,"Ġc":863,"Ġdar":864,"Ġwo":865,"lÃ¤":866,"enk":867,"assen":868,"ĠBuch":869,"eignet":870,"hÃ¤lt":871,"ĠlÃ¤sst":872,"dig":873,"frei":874,"pl":875,"Ġvie":876,"brau":877,"....":878,"allen":879,"asst":880,"leich":881,"Ġdoch":882,"uft":883,"urz":884,"Ġperfekt":885,"Ġges":886,"Ġverarbeitet":887,"elt":888,"rakt":889,"Ġange":890,"ÃŁen":891,"unden":892,"age":893,"Ġihn":894,"Ġlange":895,"cken":896,"ĠZweck":897,"ĠZeit":898,"Ã¤tte":899,"Ġkam":900,"fen":901,"ug":902,"eigen":903,"ĠEn":904,"Ġwenig":905,"ĠzurÃ¼ck":906,"ĠHandy":907,"amm":908,"egen":909,"esen":910,"pe":911,"packung":912,"bst":913,"Ġkomm":914,"Ġhin":915,"Ġtrotz":916,"ĠLeistung":917,"Ġsollte":918,"raktisch":919,"Ġerst":920,"fÃ¼r":921,"ges":922,"stig":923,"ĠwÃ¤":924,"Ġte":925,"erial":926,"ĠFarbe":927,"zeit":928,"Ġ5":929,"ay":930,"ĠBei":931,"Ġrecht":932,"eher":933,"ĠDes":934,"Ġgenau":935,"Ġ\"":936,"ĠJahr":937,"ĠNicht":938,"Ġzie":939,"ĠGel":940,"orm":941,"bau":942,"ĠBo":943,"ĠTeil":944,"lung":945,"Ã¼h":946,"Ġdieses":947,"iefert":948,"ðŁ":949,"ĠGute":950,"ĠGrÃ¶ÃŁe":951,"halb":952,"schie":953,"Ġwaren":954,"satz":955,"rÃ¤":956,"gesch":957,"ah":958,"ĠNach":959,"Leistung":960,"Ġstabil":961,"Ġ:":962,"Ġmeiner":963,"Ġschlecht":964,"Ġangenehm":965,"dern":966,"ĠSchu":967,"ute":968,"Ġsagen":969,"Ġgeeignet":970,"ĠWar":971,"richt":972,"ere":973,"ĠSte":974,"tik":975,"Ġtop":976,"Ġneu":977,"tel":978,"Ġpro":979,"qu":980,"ose":981,"ĠWir":982,"Ġalle":983,"Ġvom":984,"ĠMan":985,"kk":986,"wand":987,"geben":988,"hen":989,"ĠKauf":990,"Ġecht":991,"ekt":992,"ĠhÃ¤tte":993,"ler":994,"ess":995,"stellen":996,"Ġkleine":997,"Ġdiesen":998,"Ġfest":999,"ĠAlles":1000,"ĠMaterial":1001,"lie":1002,"Ġanderen":1003,"Ġkurz":1004,"Ġschwer":1005,"Ġvoll":1006,"olie":1007,"Ġmeinen":1008,"ĠVerpackung":1009,"Ġeher":1010,"ĠAus":1011,"hÃ¤ltnis":1012,"sol":1013,"aum":1014,"ĠAbzug":1015,"ation":1016,"Ein":1017,"ingen":1018,"eiten":1019,"ust":1020,"ĠMon":1021,"issen":1022,"ĠVers":1023,"ĠBild":1024,"ĠFil":1025,"Ġob":1026,"ĠmÃ¶":1027,"lau":1028,"Ġkom":1029,"Ġrein":1030,"ĠStern":1031,"tikel":1032,"ĠAnsonsten":1033,"Ġsonst":1034,"nelle":1035,"Ġja":1036,"packt":1037,"chend":1038,"Ġeigen":1039,"Ġersten":1040,"Ġlang":1041,"rund":1042,"ĠschÃ¶ne":1043,"ĠWer":1044,"ĠwÃ¤re":1045,"Ġrichtig":1046,"Leider":1047,"abei":1048,"Ġbeschrieben":1049,"ĠUhr":1050,"ĠMit":1051,"ĠgrÃ¶ÃŁ":1052,"ĠWasser":1053,"utt":1054,"Ġdaher":1055,"Ġgeh":1056,"ĠKinder":1057,"Ġunser":1058,"ĠKabel":1059,"ĠGeld":1060,"Ġzus":1061,"Ġsehen":1062,"Ã¤ch":1063,"ĠWoch":1064,"ĠkÃ¶nnte":1065,"ĠSchÃ¶n":1066,"Ġber":1067,"ĠkÃ¶nnen":1068,"ĠBl":1069,"Ġgeliefert":1070,"Ġbenut":1071,"bung":1072,"ĠAkk":1073,"ĠLicht":1074,"eits":1075,"Ġ10":1076,"FÃ¼r":1077,"Ġbrau":1078,"Ġdabei":1079,"uÃŁ":1080,"Ġgutes":1081,"wend":1082,"ammen":1083,"ĠLe":1084,"schluss":1085,"Ġselbst":1086,"Ġpaar":1087,"Ġkap":1088,"ĠBesch":1089,"ĠTasche":1090,"Ġtrotzdem":1091,"last":1092,"Ġihr":1093,"Ã¼ss":1094,"dlich":1095,"rob":1096,"Ġokay":1097,"ĠAllerdings":1098,"Ġ!":1099,"Ġpassen":1100,"Ġalso":1101,"sche":1102,"ĠHabe":1103,"Ġmachen":1104,"Ġkon":1105,"Ġdieser":1106,"uer":1107,"Ã¶rt":1108,"wandfrei":1109,"mlich":1110,"Ġpraktisch":1111,"ischen":1112,"Ġgerne":1113,"Ġuns":1114,"ĠMein":1115,"Ġschw":1116,"aten":1117,"etz":1118,"mack":1119,"Ġhochwert":1120,"itz":1121,"ĠdÃ¼n":1122,"ĠKopf":1123,"Ã¼t":1124,"Super":1125,"akt":1126,"solut":1127,"gend":1128,"stellt":1129,"immt":1130,"ĠerfÃ¼llt":1131,"Ġkaputt":1132,"ĠArtikel":1133,"ic":1134,"ĠIst":1135,"eicht":1136,"kte":1137,"wo":1138,"Ġdenn":1139,"ĠAls":1140,"zie":1141,"eite":1142,"Ġjeden":1143,"ĠAuch":1144,"ĠPl":1145,"Ġnun":1146,"ĠSon":1147,"Ġzwar":1148,"ĠgÃ¼n":1149,"Ġhalten":1150,"Ġopt":1151,"men":1152,"itiv":1153,"lay":1154,"fang":1155,"ĠToll":1156,"Habe":1157,"Ġgem":1158,"Ġeinz":1159,"ĠSchade":1160,"edien":1161,").":1162,"Ġeinwandfrei":1163,"ant":1164,"Ġbeg":1165,"usste":1166,"Ġseinen":1167,"Ġkommt":1168,"eile":1169,"kl":1170,"ark":1171,"ĠNa":1172,"Ġeigentlich":1173,"ign":1174,"ĠEind":1175,"atte":1176,"inal":1177,"band":1178,"Ġandere":1179,"Ġfeh":1180,"ĠEindruck":1181,"ĠRei":1182,"ja":1183,"att":1184,"orden":1185,"brauch":1186,"ĠVor":1187,"Ġverpackt":1188,"wie":1189,"ĠLam":1190,"Ã¼rlich":1191,"angen":1192,"leitung":1193,"ĠðŁ":1194,"atÃ¼rlich":1195,"arben":1196,"los":1197,"xt":1198,"halten":1199,"fort":1200,"lastik":1201,"lter":1202,"umm":1203,"Ġkleinen":1204,"under":1205,"me":1206,"ĠAkku":1207,"ĠFunktion":1208,"stÃ¤n":1209,"Ġbes":1210,"reibung":1211,"Ġgleich":1212,"ĠEm":1213,"ette":1214,"Ġallem":1215,"Ġguten":1216,"Ġlassen":1217,"rem":1218,"ormal":1219,"ĠProbleme":1220,"one":1221,"alter":1222,"ingt":1223,"ĠlÃ¤nger":1224,"iginal":1225,"ner":1226,"bo":1227,"ĠRÃ¼ck":1228,"spre":1229,"aff":1230,"iges":1231,"Ġmeinem":1232,"weise":1233,"verhÃ¤ltnis":1234,"ĠVersand":1235,"ĠÃľ":1236,"aÃŁ":1237,"ĠDeck":1238,"ĠUnd":1239,"swert":1240,"ĠFolie":1241,"Ġschnelle":1242,"spricht":1243,"Ġsicher":1244,"ĠGutes":1245,"Ġdiesem":1246,"arten":1247,"!!!":1248,"erv":1249,"ĠWenn":1250,"Ġwerde":1251,"ĠGeschenk":1252,"ĠdafÃ¼r":1253,"cker":1254,"dr":1255,"ĠUnter":1256,"Ġbekommen":1257,"atur":1258,"ĠKann":1259,"Ġle":1260,"ĠMal":1261,"Ġguter":1262,"ĠTag":1263,"Ġabsolut":1264,"hÃ¶r":1265,"ĠPlastik":1266,"Ġziemlich":1267,"Ã¼b":1268,"ĠgrÃ¶ÃŁer":1269,"asch":1270,"ech":1271,"ĠgefÃ¤llt":1272,"Ġkonnte":1273,"Es":1274,"ĠFall":1275,"rochen":1276,"onder":1277,"ha":1278,"im":1279,"Ġtragen":1280,"ĠGeschmack":1281,"ĠDis":1282,"Ġen":1283,"lo":1284,"Ã¤h":1285,"ollte":1286,"quem":1287,"eich":1288,"Ġrei":1289,"ĠFilm":1290,"play":1291,"ĠFarben":1292,"Ġkleiner":1293,"nit":1294,"Ġschade":1295,"ehmen":1296,"Ġmusste":1297,"ĠDesign":1298,"Ã¼ÃŁ":1299,"ĠSchutz":1300,"ache":1301,"zw":1302,"igkeit":1303,"Ã¤uf":1304,"vor":1305,"Ġging":1306,"Ġbestellen":1307,"Ġsit":1308,"schieden":1309,"Ġdeut":1310,"ĠStoff":1311,"Ġeinmal":1312,"Ġbereits":1313,"atter":1314,"Ġzusammen":1315,"ĠGanz":1316,"ĠNur":1317,"Ġbisschen":1318,"An":1319,"weg":1320,"Ġteuer":1321,"form":1322,"tÃ¤u":1323,"Ġblei":1324,"Ġbill":1325,"stellung":1326,"Ġca":1327,"aden":1328,"Ġseit":1329,"ak":1330,"ĠHer":1331,"ĠWÃ¼rde":1332,"stens":1333,"ster":1334,"rage":1335,"eistert":1336,"ĠSpiel":1337,"rÃ¼":1338,"Ġgar":1339,"ĠBin":1340,"ĠdÃ¼nn":1341,"durch":1342,"Ġbed":1343,"ĠWochen":1344,"ĠnatÃ¼rlich":1345,"Ġviele":1346,"wen":1347,"ob":1348,"anden":1349,"ĠHaar":1350,"Ã¤ÃŁ":1351,"imal":1352,"Ġnormal":1353,"Ġausrei":1354,"ĠOpt":1355,"sverhÃ¤ltnis":1356,"ĠDisplay":1357,"ine":1358,"Ġlaut":1359,"unter":1360,"wohl":1361,"weit":1362,"Ġfast":1363,"Ġliegt":1364,"ohn":1365,"Ġfunktion":1366,"halt":1367,"ĠArm":1368,"Ġraus":1369,"Ġwohl":1370,"Ġbegeistert":1371,"riff":1372,"amer":1373,"fall":1374,"ĠPer":1375,"Ã¶t":1376,"Ġnut":1377,"ĠCh":1378,"liche":1379,"ĠschÃ¶nes":1380,"Ġwel":1381,"Ġrie":1382,"ĠPasst":1383,"ĠÃľber":1384,"edienung":1385,"Ġ...":1386,"auen":1387,"amt":1388,"Ġeben":1389,"kommt":1390,"Ġkompl":1391,"ucht":1392,"igt":1393,"gestellt":1394,"Ġext":1395,"elativ":1396,"asse":1397,"llig":1398,"gef":1399,"Ġstark":1400,"ĠKr":1401,"app":1402,"Ġnie":1403,"ĠAut":1404,"ĠweiÃŁ":1405,"ĠOk":1406,"empfehlung":1407,"Ġged":1408,"ĠWare":1409,"ĠfÃ¼h":1410,"ĠGeruch":1411,"hÃ¶rer":1412,"iss":1413,"Ġhand":1414,"rad":1415,"ĠUm":1416,"ĠBeschreibung":1417,"ĠFre":1418,"Ġdick":1419,"Ã¤nder":1420,"auer":1421,"zon":1422,"ahl":1423,"ĠLampe":1424,"fte":1425,"lleicht":1426,"Ġdazu":1427,"ĠNacht":1428,"ip":1429,"kel":1430,"entlich":1431,"ĠBil":1432,"ĠWei":1433,"Ġhochwertig":1434,"Ã¶ff":1435,"wegen":1436,"ĠFlas":1437,"rauben":1438,"hone":1439,"rin":1440,"Ġerf":1441,"Ġwert":1442,"ĠmÃ¼":1443,"ĠFot":1444,"urt":1445,"ĠenttÃ¤u":1446,"oo":1447,"Ġ6":1448,"bringen":1449,"Ġdir":1450,"Ġverb":1451,"Ġrelativ":1452,"ickt":1453,"Ġausreichend":1454,"zeug":1455,"ochter":1456,"Ġgemacht":1457,"Ġgerade":1458,"Ġir":1459,"eint":1460,"ĠDe":1461,"Ġbequem":1462,"ĠGebrauch":1463,"ĠBatter":1464,"Ã¤tz":1465,"iz":1466,"Ġansonsten":1467,"kle":1468,"Ġkeinen":1469,"Ġwirkt":1470,"ĠEmpfeh":1471,"ĠOK":1472,"ĠKn":1473,"qualitÃ¤t":1474,"ĠAma":1475,"inn":1476,"ieht":1477,"ĠDaher":1478,"Ġweg":1479,"ĠfÃ¤llt":1480,"ĠIde":1481,"ĠstÃ¶rt":1482,"sam":1483,"ĠTochter":1484,"Ġ:)":1485,"Ġhell":1486,"stand":1487,"Ġjeder":1488,"ĠMin":1489,"inden":1490,"Ġins":1491,"Ġeinige":1492,"ĠPunkt":1493,"Ġweniger":1494,"ziehen":1495,"zeu":1496,"ĠKaufempfehlung":1497,"ĠSchÃ¶ne":1498,"Ġwarm":1499,"auber":1500,"ĠMonaten":1501,"Ã¤ufer":1502,"Ġbzw":1503,"ĠAlso":1504,"ix":1505,"ĠEinz":1506,"ĠAmazon":1507,"Ġbeh":1508,"Ġschl":1509,"ĠTe":1510,"ĠOriginal":1511,"ĠlÃ¶":1512,"ĠKle":1513,"Gut":1514,"Ġsteht":1515,"ĠGew":1516,"ĠKopfhÃ¶rer":1517,"Ġbest":1518,"Ġste":1519,"Ġsofort":1520,"ĠVerk":1521,"Ġtut":1522,"Ġbesonder":1523,"Ġschick":1524,"schu":1525,"ĠWie":1526,"ĠmÃ¶chte":1527,"otal":1528,"so":1529,"empf":1530,"Ġsondern":1531,"aupt":1532,"Schnelle":1533,"ice":1534,"Ġhalt":1535,"aben":1536,"ĠSchw":1537,"Ġdirekt":1538,"ĠHalter":1539,"Ġverl":1540,"Ġgefallen":1541,"heit":1542,"ositiv":1543,"Ġwollte":1544,"ĠGlas":1545,"Ġeng":1546,"ate":1547,"Ġproblem":1548,"chter":1549,"Ġdrei":1550,"Ã¤hr":1551,"ĠOhr":1552,"Ġnochmal":1553,"ĠEinfach":1554,"ran":1555,"ĠApp":1556,"Ġkaum":1557,"ĠBr":1558,"ische":1559,"sack":1560,"Ġpreis":1561,"Ġ20":1562,"Ġkn":1563,"ost":1564,"sel":1565,"dung":1566,"grund":1567,"lichen":1568,"Ġgest":1569,"amera":1570,"ĠAu":1571,"Ġbisher":1572,"utzung":1573,"ĠLie":1574,"Ġklar":1575,"Wir":1576,"fer":1577,"ĠDruck":1578,"ĠÃĸ":1579,"ĠSchl":1580,"ul":1581,"Ã¼tzt":1582,"rat":1583,"ĠNaja":1584,"ide":1585,"Ġschm":1586,"ĠHaut":1587,"gar":1588,"Ġweich":1589,"Ġirgend":1590,"Ġdefekt":1591,"ED":1592,"gem":1593,"mÃ¤ÃŁ":1594,"ĠGuter":1595,"eucht":1596,"Ġsol":1597,"Ver":1598,"sung":1599,"ĠSet":1600,"nell":1601,"bel":1602,"Ġverwen":1603,"Ġdeshalb":1604,"ĠPlatz":1605,"ĠMag":1606,"anke":1607,"ĠMo":1608,"ĠBox":1609,"Ġwunder":1610,"ĠLade":1611,"ĠMont":1612,"ist":1613,"sicht":1614,"ielen":1615,"digt":1616,"gesamt":1617,"pen":1618,"Ġgehen":1619,"All":1620,"ĠFunktioniert":1621,"ĠLuft":1622,"Ġtolle":1623,"Ġempf":1624,"unde":1625,"twas":1626,"Ġwill":1627,"deck":1628,"Ġdeutlich":1629,"Ġro":1630,"ĠLaut":1631,"rima":1632,"Ġsitzt":1633,"Ġbekommt":1634,"Ġabgeb":1635,"Ġbraucht":1636,"Ġbillig":1637,"Ġerste":1638,"Ġvorher":1639,"ĠenttÃ¤uscht":1640,"ĠVerkÃ¤ufer":1641,"ichte":1642,"ĠTolles":1643,"Ġtotal":1644,"ĠVerb":1645,"ĠschÃ¶ner":1646,"schein":1647,"ĠSohn":1648,"Ġrut":1649,"ĠAnleitung":1650,"bed":1651,"gleich":1652,"Ġ100":1653,"ĠSpaÃŁ":1654,"Ġgl":1655,"Ġverst":1656,"inger":1657,"leist":1658,"Ġihren":1659,"ĠgroÃŁe":1660,"ĠFern":1661,"Ġhe":1662,"ĠfÃ¼hlt":1663,"--":1664,"ĠAnfang":1665,"Ġmag":1666,"ĠGl":1667,"ĠDeckel":1668,"Ġverschieden":1669,"fest":1670,"ĠBewert":1671,"Ġerk":1672,"ĠmÃ¶glich":1673,"ĠKlein":1674,"set":1675,"ĠFl":1676,"Ġauss":1677,"ĠLiefer":1678,"Ġsomit":1679,"ĠIm":1680,"ĠHa":1681,"Ġgenug":1682,"ĠgroÃŁen":1683,"ĠEnt":1684,"ĠErsatz":1685,"erk":1686,"ÃŁt":1687,"lasse":1688,"ĠMeinung":1689,"ander":1690,"ĠLED":1691,"ren":1692,"Alles":1693,"prob":1694,"ĠPass":1695,"ĠgÃ¼nst":1696,"Ġbleibt":1697,"Ġbr":1698,"erdem":1699,"SB":1700,"ender":1701,"arf":1702,"Ã¶llig":1703,"ffen":1704,"ĠErwar":1705,"Ġgebrau":1706,"ĠIdee":1707,"ĠgÃ¼nstig":1708,"ĠLÃ¶":1709,"annt":1710,"eiden":1711,"aschine":1712,"ierig":1713,"ĠArmband":1714,"Ġerwarten":1715,"Ġpass":1716,"fter":1717,"ras":1718,"eren":1719,"ĠAd":1720,"ĠTolle":1721,"eder":1722,"ĠSchuh":1723,"essen":1724,"ok":1725,"osen":1726,"Ġrob":1727,"ĠSieht":1728,"Ġgewesen":1729,"dass":1730,"ĠPf":1731,"Ġdrauf":1732,"âĢ":1733,"Ġhei":1734,"ĠKamera":1735,"LeistungsverhÃ¤ltnis":1736,"Ġkomplett":1737,"die":1738,"sÃ¶n":1739,"ĠHose":1740,"Ã¶glich":1741,"ĠGumm":1742,"Ġvers":1743,"Ã¼cken":1744,"ĠEine":1745,"immer":1746,"ĠnÃ¤ch":1747,"ĠSeite":1748,"Ġschwar":1749,"Ġsogar":1750,"ĠUSB":1751,"Ġbesonders":1752,"Ġzw":1753,"ienen":1754,"ĠTagen":1755,"asten":1756,"Ġne":1757,"ĠErwart":1758,"Gute":1759,"stoff":1760,"Ã¶hn":1761,"geln":1762,"ĠSchnelle":1763,"ĠSchrauben":1764,"Ġstimmt":1765,"Ġ+":1766,"irm":1767,"Ã¤tzlich":1768,"ĠDurch":1769,"Ã¤nge":1770,"falls":1771,"Ġor":1772,"Ġfal":1773,"ĠvÃ¶llig":1774,"Ġproblemlos":1775,"Ġhil":1776,"az":1777,"ĳį":1778,"Ġangegeben":1779,"rit":1780,"Ġricht":1781,"olz":1782,"Ġoptisch":1783,"gangen":1784,"Ġoft":1785,"ordentlich":1786,"io":1787,"Ġho":1788,"ĠÃ¼berzeu":1789,"eckt":1790,"ĠFlasche":1791,"Ã¤ngen":1792,"Ġal":1793,"Ã¼cher":1794,"Ġoben":1795,"indung":1796,"ĠRuck":1797,"ĠTage":1798,"Ġget":1799,"schla":1800,"ĠFahr":1801,"edoch":1802,"ĠTrotz":1803,"ĠSonst":1804,"ummer":1805,"ĠMontage":1806,"Ġsauber":1807,"ĠFeh":1808,"ĠForm":1809,"Ġteil":1810,"Ġempfehlenswert":1811,"Ġwegen":1812,"fÃ¼hl":1813,"Ġweiterempfehlen":1814,"Ġangekommen":1815,"Ġgedacht":1816,"ĠBen":1817,"ĠpersÃ¶n":1818,"ĠEnde":1819,"von":1820,"abl":1821,"festig":1822,"Ġdennoch":1823,"Ġoptimal":1824,"Ã¼bsch":1825,"ĠHalt":1826,"ualitativ":1827,"ĠKÃ¼":1828,"ĠMeine":1829,"Ġerhalten":1830,"fÃ¼hr":1831,"chten":1832,"Ġausge":1833,"ĠArb":1834,"seite":1835,"Ġlesen":1836,"ecker":1837,"ĠSm":1838,"ĠEinsatz":1839,"Ġ8":1840,"ltern":1841,"Ġordentlich":1842,"ĠSchn":1843,"reifen":1844,"ĠStÃ¼ck":1845,"Als":1846,"agt":1847,"Ġfehlt":1848,"hab":1849,"elig":1850,"ĠMen":1851,"utter":1852,"ftig":1853,"Ġanders":1854,"itze":1855,"schlie":1856,"ĠAufbau":1857,"-)":1858,"Ã¤hn":1859,"Ġdadurch":1860,"Ġobwohl":1861,"Preis":1862,"get":1863,"ipp":1864,"og":1865,"unst":1866,"ĠKat":1867,"ĠMet":1868,"ĠRad":1869,"kom":1870,"ĠOptik":1871,"stall":1872,"pfe":1873,"ĠZum":1874,"ommen":1875,"ĠHÃ¤n":1876,"aket":1877,"Ġextrem":1878,"ĠSti":1879,"ĠmÃ¼ssen":1880,"achte":1881,"ennen":1882,"rÃ¤n":1883,"voll":1884,"etten":1885,"ĠlÃ¤uft":1886,"bei":1887,"ĠRucksack":1888,"ĠJedoch":1889,"ool":1890,"ĠSeiten":1891,"reiben":1892,"Ġsodass":1893,"ufrieden":1894,"Ġtolles":1895,"Ġfl":1896,"mÃ¤ÃŁig":1897,"druck":1898,"hin":1899,"ĠOber":1900,"olg":1901,"verschluss":1902,"ogen":1903,"Ġar":1904,"ĠGrund":1905,"offe":1906,"Ġbenutzen":1907,"ĠBilder":1908,"ĠbenÃ¶t":1909,"ohnt":1910,"ats":1911,"ĠAuto":1912,"inge":1913,"ĠKon":1914,"schÃ¶n":1915,"ĠTeile":1916,"ĠSchuhe":1917,"Ġneue":1918,"Ġdrin":1919,"ĠJahren":1920,"ĠbeschÃ¤":1921,"Ġvielleicht":1922,"uten":1923,"Ġausprob":1924,"Ġhal":1925,"ĠBÃ¼r":1926,"steller":1927,"ften":1928,"ĠRein":1929,"Ġrobust":1930,"fahr":1931,"eto":1932,"Ġganze":1933,"Ġriecht":1934,"Ġmont":1935,"Ġmitgel":1936,"Ġtro":1937,"ĠKeine":1938,"ĠZus":1939,"ĠKlang":1940,"Ġ;":1941,"ĠiP":1942,"ĠMank":1943,"ĠBis":1944,"Ġkommen":1945,"seln":1946,"fin":1947,"Ġverwend":1948,"Ġeinzige":1949,"ĠHaare":1950,"ĠðŁĺ":1951,"flÃ¤":1952,"Ġscheint":1953,"ĠTon":1954,"apter":1955,"ĠBand":1956,"ĠKan":1957,"ĠErwartungen":1958,"âĤ":1959,"ĠKind":1960,"affe":1961,"âĤ¬":1962,"sion":1963,"usch":1964,"Ġkle":1965,"Ġdarauf":1966,"bauen":1967,"Ġwack":1968,"ĠEtwas":1969,"lage":1970,"!!!!":1971,"igentlich":1972,"Ġversch":1973,"sprechend":1974,"ĠpersÃ¶nlich":1975,"passt":1976,"Ġgeb":1977,"ER":1978,"achten":1979,"ĠKunst":1980,"uren":1981,"Ã¼nkt":1982,"ĠÃ¼berh":1983,"aber":1984,"Ġwurden":1985,"Ġbenutzt":1986,"ĠsÃ¼ÃŁ":1987,"Ġdavon":1988,"ĠAuss":1989,"Ist":1990,"lÃ¶":1991,"erst":1992,"ĠDiese":1993,"habung":1994,"Nach":1995,"ĠLa":1996,"Ã¤ngt":1997,"egt":1998,"id":1999,"Ġklasse":2000,"ĠMa":2001,"Ġnutzen":2002,"ĠHalterung":2003,"ker":2004,"Ġfre":2005,"raft":2006,"ĠTo":2007,"legen":2008,"laub":2009,"ĠSmart":2010,"ĠÃ¼berhaupt":2011,"Er":2012,"ĠÃ¶ff":2013,"ĠTisch":2014,"Ġverspricht":2015,"Ġganzen":2016,"Ġentspricht":2017,"nah":2018,"Ġ7":2019,"Ġschneller":2020,"ĠBeim":2021,"ĠBoden":2022,"Ġfunktionieren":2023,"ĠManko":2024,"ĠGes":2025,"00":2026,"ĠAuÃŁ":2027,"ĠJahre":2028,"wendung":2029,"St":2030,"rÃ¼n":2031,"ĠÃ¼berras":2032,"ĠKratz":2033,"fon":2034,"ennt":2035,"Ġanderes":2036,"egativ":2037,"geh":2038,"einander":2039,"ele":2040,"Ġpositiv":2041,"Ġprima":2042,"barkeit":2043,"Ġ/":2044,"inter":2045,"Ã¤chlich":2046,"Ġbedienen":2047,"War":2048,"det":2049,"rank":2050,"eigt":2051,"ĠGeht":2052,"ĠHandhabung":2053,"stÃ¤ndlich":2054,"kung":2055,"ĠNummer":2056,"arton":2057,"ontakt":2058,"haft":2059,"nehmen":2060,"angenehm":2061,"ĠKom":2062,"altet":2063,"fÃ¼llen":2064,"lÃ¤ss":2065,"chmal":2066,"arte":2067,"ildet":2068,"ĠSchÃ¶nes":2069,"Ġdun":2070,"Ġbem":2071,"aub":2072,"ĠHolz":2073,"ĠBlu":2074,"ĠDeshalb":2075,"ahn":2076,"Ġweit":2077,"Ġjedem":2078,"ĠWoche":2079,"rodukt":2080,"ierte":2081,"Ġheraus":2082,"schutz":2083,"Ġgehalten":2084,"azit":2085,"icher":2086,"Ġna":2087,"ĠPaket":2088,"Ġanzu":2089,"Ġreicht":2090,"Ã¤glich":2091,"ransp":2092,"Ġverwenden":2093,"ĠX":2094,"Ġgesp":2095,"ĠPassform":2096,"'s":2097,"zogen":2098,"auch":2099,"ĠgewÃ¼n":2100,"gefallen":2101,"handen":2102,"uchen":2103,"erg":2104,"Ġnehmen":2105,"ĠGriff":2106,"ĠKlei":2107,"ĠSchm":2108,"ĠVon":2109,"ĠZufrieden":2110,"SchÃ¶n":2111,"Ġvielen":2112,"ĠMot":2113,"Ġsoweit":2114,"Ġschwierig":2115,"atten":2116,"ĠMar":2117,"acken":2118,"Ã¼ssel":2119,"ĠAdapter":2120,"rom":2121,"Ġangeb":2122,"Ġdefin":2123,"Ġteilweise":2124,"hÃ¼lle":2125,"Ġseine":2126,"stÃ¤r":2127,"utel":2128,"ard":2129,"ĠBedienung":2130,"rille":2131,"ĠSound":2132,"keiten":2133,"Ġglei":2134,"ĠPu":2135,"Ġnerv":2136,"Bin":2137,"bedienung":2138,"ko":2139,"Ġdicht":2140,"Ġschlie":2141,"Ġverm":2142,"Ã¼sse":2143,"leistung":2144,"nten":2145,"teil":2146,"ĠDies":2147,"Toll":2148,"ĠWand":2149,"ĠVerschluss":2150,"Ġkleines":2151,"schlag":2152,"ĠhÃ¼bsch":2153,"acke":2154,"uchten":2155,"Ġvorhanden":2156,"ĠMagnet":2157,"ase":2158,"ĠPerfekt":2159,"ĠGroÃŁ":2160,"ĠFrau":2161,"ĠRezen":2162,"Ġunangenehm":2163,"Ġeinigen":2164,"Ġbessere":2165,"wegs":2166,"Ġnett":2167,"auert":2168,"Ġunsere":2169,"stet":2170,"Ġbie":2171,"ĠRand":2172,"ĠSitz":2173,"ĠhÃ¶":2174,"Ġaufge":2175,"lternativ":2176,"ĠAuÃŁerdem":2177,"ĠwÃ¤r":2178,"ĠGeschichte":2179,"ĠFoto":2180,"eilen":2181,"ĠGen":2182,"ĠHat":2183,"),":2184,"unkte":2185,"Ġbeiden":2186,"oth":2187,"Ġq":2188,"anleitung":2189,"ĠTabl":2190,"genau":2191,"gerÃ¤t":2192,"isse":2193,"ĠEmpfehlen":2194,"ĠKap":2195,"ĠMacht":2196,"gig":2197,"ches":2198,"Ġfand":2199,"Ġlo":2200,"ĠFinger":2201,"ĠBestellung":2202,"gebaut":2203,"bild":2204,"ĠAl":2205,"Ġkurzer":2206,"Ã¼ll":2207,"Ġrunter":2208,"ĠOb":2209,"ĠStunden":2210,"spr":2211,"Ġselber":2212,"aschen":2213,"ĠServ":2214,"Ġunten":2215,"Ġletz":2216,"ĠHund":2217,"Ã¤ndig":2218,"apier":2219,"Ġreinigen":2220,"schuhe":2221,"kabel":2222,"oren":2223,"ĠVie":2224,"Ġbestens":2225,"ĠFreund":2226,"Sieht":2227,"uro":2228,"Ġpl":2229,"rieb":2230,"ffekt":2231,"beh":2232,"ppt":2233,"ielt":2234,"Ġlieber":2235,"ĠBewertung":2236,"fern":2237,"hlen":2238,"Ġfr":2239,"Ġgeschrieben":2240,"ĠDank":2241,"ĠBett":2242,"ĠTra":2243,"indet":2244,"Ã¼nktlich":2245,"Lieferung":2246,"ĠKaffe":2247,"ĠEinen":2248,"Ġwelche":2249,"ĠTrotzdem":2250,"Ġgeben":2251,"Ġabge":2252,"Ġzwischen":2253,"ĠHaus":2254,"ĠRezension":2255,"Ã¶pfe":2256,"Ġbehalten":2257,"ĠMode":2258,"ĠKunststoff":2259,"folie":2260,"etter":2261,"Ġtun":2262,"Ġcm":2263,"bedingt":2264,"ĠbeschÃ¤digt":2265,"Passt":2266,"ĠKunden":2267,"laden":2268,"Ġabgebildet":2269,"Ġverwendet":2270,"Ġdefinitiv":2271,"ĠÃ¼":2272,"stag":2273,"ĠKlasse":2274,"ĠMus":2275,"ucker":2276,"ĠLeder":2277,"Ġeines":2278,".....":2279,"ĠHersteller":2280,"ĠBatterien":2281,"par":2282,"iegel":2283,"ckt":2284,"ĠStellen":2285,"punkt":2286,"ron":2287,"Ġmin":2288,"Ã¼ckt":2289,"Ġknapp":2290,"phone":2291,"sgesamt":2292,"Ġwahr":2293,"ĠKarton":2294,"Ġerh":2295,"gang":2296,"Ġschmal":2297,"ĠErfÃ¼llt":2298,"Ã¶ren":2299,"Ġerfolg":2300,"schirm":2301,"ĠBer":2302,"annend":2303,"lappt":2304,"ĠErgeb":2305,"ru":2306,"ĠKarten":2307,"Ġdenke":2308,"reut":2309,"Ġwunderbar":2310,"ĠÃ¼berzeugt":2311,"fl":2312,"Ġu":2313,"utzt":2314,"igung":2315,"ĠDanke":2316,"ĠHe":2317,"Ġgefunden":2318,"ĠWerk":2319,"ĠWeihn":2320,"ĠKissen":2321,"ĠVergleich":2322,"opp":2323,"Ġdeswegen":2324,"packen":2325,"ĠðŁĳį":2326,"nitt":2327,"Ã¼hr":2328,"ĠtÃ¤glich":2329,"Ġhinter":2330,"Ġbenutze":2331,"ĠSau":2332,"ierung":2333,"Ã¼gel":2334,"ĠVerbindung":2335,"ĠService":2336,"ĠPo":2337,"ĠWind":2338,"ĠSchla":2339,"Ġqualitativ":2340,"wir":2341,"fÃ¤":2342,"Ã¤lter":2343,"teress":2344,"Ġdan":2345,"ĠAlternativ":2346,"Ġvert":2347,"ĠDen":2348,"ĠHier":2349,"ĠCo":2350,"ĠHab":2351,"ĠHÃ¤lt":2352,"lex":2353,"ĠInhalt":2354,"ĠGummi":2355,"ransport":2356,"nitten":2357,"tasche":2358,"Ġ9":2359,"ĠSh":2360,"ĠGarten":2361,"astatur":2362,"ĠFernbedienung":2363,"besch":2364,"Ġhoffe":2365,"ĠMÃ¤n":2366,"rag":2367,"Ġmehrere":2368,"ĠSocken":2369,"flÃ¤che":2370,"uchte":2371,"ĠgewÃ¶hn":2372,"ĠSomm":2373,"Ġbet":2374,"ĠWÃ¤":2375,"spiel":2376,"Ġmitgeliefer":2377,"wick":2378,"Ġgab":2379,"alte":2380,"Ġverk":2381,"Ġmanchmal":2382,"Ġbek":2383,"ive":2384,"ĠnÃ¤chsten":2385,"ĠÃ¼berrascht":2386,"ĠAm":2387,"ĠPack":2388,"ĠSchnell":2389,"ĠAnf":2390,"atsÃ¤chlich":2391,"Ġunbedingt":2392,"Ġdaran":2393,"ald":2394,"ĠFuÃŁ":2395,"Eine":2396,"ĠEuro":2397,"Ġvorgestellt":2398,"verlÃ¤ss":2399,"ĠGefÃ¼hl":2400,"Ġhervor":2401,"Ġwes":2402,"ĠwÃ¼n":2403,"Ġbrei":2404,"ĠDuft":2405,"ĠFÃ¤":2406,"orgen":2407,"ĠStand":2408,"Ġliegen":2409,"Also":2410,"etooth":2411,"schalten":2412,"ĠMann":2413,"Ġaufgrund":2414,"ĠSteck":2415,"erzen":2416,"Ġgebrauchen":2417,"ink":2418,"ichten":2419,"Ġjedes":2420,"Ġvollkommen":2421,"fÃ¤llt":2422,"ĠFazit":2423,"Ġstehen":2424,"Ġgefreut":2425,"ĠspÃ¤":2426,"stÃ¤ndig":2427,"ĠTrage":2428,"peratur":2429,"icken":2430,"zus":2431,"erkt":2432,"Ġzer":2433,"ĠMir":2434,"raum":2435,"ĠMinuten":2436,"ĠArbeit":2437,"fel":2438,"licht":2439,"itte":2440,"ĠKein":2441,"pfen":2442,"Ġleise":2443,"des":2444,"ĠLeben":2445,"ue":2446,"Ã¼tz":2447,"ĠGeh":2448,"ĠKette":2449,"Ġleichte":2450,"ĠKlar":2451,"klÃ¤r":2452,"ĠReiÃŁ":2453,"??":2454,"Ġfallen":2455,"ause":2456,"Ã¶st":2457,"rift":2458,"ĠMonate":2459,"iziert":2460,"ĠFr":2461,"ĠTÃ¼r":2462,"ĠDam":2463,"ĠSport":2464,"ĠGeb":2465,"ĠBatterie":2466,"setz":2467,"ĠÃ¶":2468,"arm":2469,"Ġfinden":2470,"etrieb":2471,"Ġsowie":2472,"Ġgegen":2473,"Ġverschen":2474,"ĠstÃ¤ndig":2475,"ĠÃ¶ffnen":2476,"chbar":2477,"ale":2478,"ĠDenn":2479,"ens":2480,"tens":2481,"Ġsollen":2482,"ollen":2483,"Ġwaschen":2484,"ĠUr":2485,"ĠFotos":2486,"ĠZusammen":2487,"ĠBluetooth":2488,"stÃ¤rke":2489,"hÃ¤nger":2490,"itzen":2491,"Ġerw":2492,"ĠtatsÃ¤chlich":2493,"zept":2494,"ĠgewÃ¼nscht":2495,"ĠpÃ¼nktlich":2496,"ĠRo":2497,"Ġgern":2498,"ĠKlebe":2499,"ĠMetall":2500,"ĠbenÃ¶tigt":2501,"cke":2502,"Ġhatten":2503,"ĠStaub":2504,"ĠGewicht":2505,"ĠKratzer":2506,"ax":2507,"Diese":2508,"Ġerfolgte":2509,"del":2510,"ĠHoch":2511,"ĠViel":2512,"schlÃ¼sse":2513,"Ġfalsch":2514,"hem":2515,"alender":2516,"Ġschwach":2517,"Ġextra":2518,"ĠFehler":2519,"ĠBenutzung":2520,"nicht":2521,"Ġch":2522,"testet":2523,"ĠÃ¤hn":2524,"indest":2525,"Ġheute":2526,"zimmer":2527,"als":2528,"ĠTro":2529,"ĠTastatur":2530,"ĠfÃ¼rs":2531,"ĠDafÃ¼r":2532,"SchÃ¶ne":2533,"Funktioniert":2534,"tem":2535,"Ġversp":2536,"lossen":2537,"einen":2538,"aby":2539,"ĠKu":2540,"ĠInsgesamt":2541,"Ã¼ÃŁe":2542,"ĠiPhone":2543,"ĠSommer":2544,"ĠJetzt":2545,"ahmen":2546,"ĠStecker":2547,"Ġneuen":2548,"ĠWerde":2549,"ĠÃĸff":2550,"Ġoriginal":2551,"Ġeinge":2552,"uche":2553,"rÃ¤gt":2554,"ĠHaltbarkeit":2555,"Ġgegangen":2556,"ramm":2557,"uchtet":2558,"Ġrutscht":2559,"Ġmei":2560,"ĠSache":2561,"Ġschn":2562,"irt":2563,"ĠHil":2564,"Ġbez":2565,"Ġunterwegs":2566,"gehen":2567,"ĠLÃ¤nge":2568,"ĠEmpfehlung":2569,"scheinlich":2570,"ĠAlternative":2571,"ahren":2572,"fernen":2573,"Ġetc":2574,"ĠSonnen":2575,"ĠMusik":2576,"ow":2577,"schn":2578,"Ġmitt":2579,"weil":2580,"ecken":2581,"ĠlÃ¶st":2582,"mel":2583,"eim":2584,"ĠSil":2585,"sse":2586,"Ġgeschickt":2587,"Ã¤use":2588,"ĠToller":2589,"urtstag":2590,"Ġirgendwie":2591,"ari":2592,"Ġscharf":2593,"mittel":2594,"ĠÃĦ":2595,"Ġgesagt":2596,"ĠStick":2597,"edig":2598,"eckern":2599,"ppen":2600,"Ġrichtige":2601,"ante":2602,"Ġentschieden":2603,"ĠAugen":2604,"ediglich":2605,"Wie":2606,"passen":2607,"Ġaufzu":2608,"Ġausprobiert":2609,"ĠÃ¤r":2610,"umpe":2611,"Ġ12":2612,"Ġgesehen":2613,"ĠWirkung":2614,"ĠheiÃŁ":2615,"ĠÃ¼br":2616,"CH":2617,"Da":2618,"sichtig":2619,"Ġblau":2620,"ĠBrille":2621,"ĠMesser":2622,"ĠDecke":2623,"ĠSam":2624,"Ġangesch":2625,"ĠSpr":2626,"ĠLeistungsverhÃ¤ltnis":2627,"Ġfehlen":2628,"Ġnutze":2629,"Ġschwarz":2630,"maschine":2631,"osten":2632,"Ġschreiben":2633,"ĠWohn":2634,"ĠNÃ¤h":2635,"bend":2636,"iver":2637,"ĠGerÃ¤":2638,"Ġgelesen":2639,"reme":2640,"ĠgÃ¼nstiger":2641,"ĠspÃ¤ter":2642,"In":2643,"Ġend":2644,"ans":2645,"Ġgetestet":2646,"ega":2647,"Ġkomp":2648,"racht":2649,"Ġworden":2650,"Ġkur":2651,"ĠBedien":2652,"Ġverf":2653,"ek":2654,"ĠHÃ¶":2655,"sprechen":2656,"OP":2657,"liegen":2658,"Ġebenfalls":2659,"ĠSchlÃ¼ssel":2660,"ĠEmpfehlenswert":2661,"Ġmeckern":2662,"Ġunge":2663,"nahme":2664,"Ġlocker":2665,"grÃ¶ÃŁ":2666,"itter":2667,"ĠPraktisch":2668,"ĠPunkte":2669,"ĠTem":2670,"order":2671,"immen":2672,"lÃ¤ser":2673,"ĠSchÃ¶ner":2674,"ĠKleid":2675,"ĠErgebnis":2676,"funktion":2677,"ischer":2678,"Einfach":2679,"verlÃ¤ssig":2680,"fallen":2681,"sehr":2682,"Ġel":2683,"itÃ¤t":2684,"Ġanbringen":2685,"Ġinteress":2686,"Ġsitzen":2687,"ile":2688,"Ġdachte":2689,"Ã¤l":2690,"ĠBel":2691,"abt":2692,"ĠFol":2693,"ĠLÃ¤":2694,"rot":2695,"gegen":2696,"Ġbew":2697,"Ġunseren":2698,"ĠBildern":2699,"Ġdort":2700,"ĠRahmen":2701,"aufe":2702,"ptisch":2703,"Gutes":2704,"ĠwÃ¼nschen":2705,"ller":2706,"halter":2707,"Ġ30":2708,"Produkt":2709,"pte":2710,"sÃ¤tzlich":2711,"Ġwichtig":2712,"anne":2713,"itzt":2714,"ĠTaschen":2715,"Ġoffen":2716,"Ġbesten":2717,"Ġunterschie":2718,"Ġzieht":2719,"Ġbleiben":2720,"Ġide":2721,"Ġinner":2722,"Ġtrage":2723,"ĠStabil":2724,"Ġentfernen":2725,"offt":2726,"Ġzweite":2727,"Ġschmeckt":2728,"Ġalten":2729,"gl":2730,"vent":2731,"wa":2732,"ĠMaus":2733,"ĠBlick":2734,"gÃ¤n":2735,"ĠSol":2736,"etzen":2737,"Ġeinfache":2738,"offer":2739,"Ġ:-)":2740,"ĠKleber":2741,"ĠGlÃ¼ck":2742,"Ġ&":2743,"ĠAng":2744,"ptop":2745,"ĠPanz":2746,"Ġinnen":2747,"gerlich":2748,"Ġeinzel":2749,"----":2750,"Ġbl":2751,"ĠPapier":2752,"dukte":2753,"Ġgeklappt":2754,"ragend":2755,"Ġleer":2756,"ĠModell":2757,"Mein":2758,"So":2759,"buch":2760,"gal":2761,"up":2762,"Ġnix":2763,"Ġeiniger":2764,"ĠTele":2765,"Ġerstmal":2766,"Ġwelches":2767,"Ġverschiedene":2768,"festigen":2769,"setzen":2770,"Ġhilfrei":2771,"Ġmontieren":2772,"ĠPin":2773,"Ġschlechte":2774,"Ġprob":2775,"asen":2776,"ochen":2777,"ĠRegen":2778,"Ġgesucht":2779,"Ġjederzeit":2780,"dicht":2781,"iele":2782,"Ġallen":2783,"ĠEmpf":2784,"ĠSachen":2785,"ĠDr":2786,"ĠMÃ¶glich":2787,"Ġliebt":2788,"Ġspannend":2789,"Ġdran":2790,"ĠÃ¶fter":2791,"ĠSicher":2792,"ition":2793,"ĠSpann":2794,"Ġerkennen":2795,"ĠBaby":2796,"genommen":2797,"Ã¼nst":2798,"ĠdrÃ¼cken":2799,"ĠSmartphone":2800,"ĠwÃ¤ren":2801,"Ġdanach":2802,"hand":2803,"Ġgro":2804,"ĠauÃŁ":2805,"iere":2806,"ĠgelÃ¶st":2807,"ĠGegen":2808,"stallation":2809,"ĠâĢ":2810,"Ġgegeben":2811,"Ġgeworden":2812,"Ġdarf":2813,"ĠOptisch":2814,"ĠReinigung":2815,"ĠHatte":2816,"ĠTOP":2817,"ingucker":2818,"ampe":2819,"Ġteur":2820,"ĠLieferzeit":2821,"ĠKaffee":2822,"oten":2823,"Ã¤um":2824,"ĠDing":2825,"ĠStr":2826,"Ã¼cke":2827,"rill":2828,"ontro":2829,"Ġfeststellen":2830,"ĠNachteil":2831,"aft":2832,"das":2833,"sau":2834,"ĠReg":2835,"ĠInter":2836,"Ġzweiten":2837,"ĠlÃ¶sen":2838,"ĠKatzen":2839,"behÃ¶r":2840,"ĠTemperatur":2841,"ce":2842,"esonder":2843,"ĠGr":2844,"ĠJacke":2845,"ĠStelle":2846,"kleber":2847,"ĠVielleicht":2848,"Ġunterschiedlich":2849,"mÃ¶glich":2850,"uhl":2851,"eige":2852,"ĠDann":2853,"ĠBefestig":2854,"Ġbestimmt":2855,"iff":2856,"Ġschauen":2857,"Ġgepasst":2858,"Ġmehrmal":2859,"Ġliebe":2860,"Meine":2861,"ĠdÃ¼r":2862,"Ġhart":2863,"ĠBeweg":2864,"ĠUrlaub":2865,"Ġeinstellen":2866,"licher":2867,"liches":2868,"ĠGrÃ¶ÃŁen":2869,"Ġlangsam":2870,"ĠFahrrad":2871,"ĠTelefon":2872,"QualitÃ¤t":2873,"kor":2874,"ub":2875,"wÃ¤":2876,"ware":2877,"Ã¼nstig":2878,"weile":2879,"auso":2880,"ĠInnen":2881,"Ġinsgesamt":2882,"Nicht":2883,"unk":2884,"schei":2885,"ĠNutzung":2886,"Leistungs":2887,"ĠLampen":2888,"bogen":2889,"ĠTablet":2890,"Top":2891,"geht":2892,"uell":2893,"Ġ..":2894,"ons":2895,"Ġvier":2896,"eter":2897,"ĠNe":2898,"Ã¤ndern":2899,"Ġstar":2900,"arbeiten":2901,"ĠLautstÃ¤rke":2902,"Ġverschiedenen":2903,"ĠhÃ¤ngen":2904,"ĠNeu":2905,"Ġneues":2906,"ĠBildschirm":2907,"lauf":2908,"Ġed":2909,"ichtung":2910,"ĠDauer":2911,"ĠBaum":2912,"ĠKontakt":2913,"ĠLei":2914,"ĠTut":2915,"schlieÃŁen":2916,"Ã¼llen":2917,"Ġnegativ":2918,"ĠSel":2919,"ausch":2920,"atisch":2921,"Ġbefestigen":2922,"Ġgeschnitten":2923,"gesetzt":2924,"Ġgehabt":2925,"Ġhilft":2926,"ĠLaptop":2927,"erglas":2928,"Ġversprochen":2929,"di":2930,"ĠKoffer":2931,"ĠEigentlich":2932,"Ġjem":2933,"Ġklap":2934,"allo":2935,"Ġjede":2936,"geschickt":2937,"afft":2938,"ĠSpielzeug":2939,"ĠOkay":2940,"kompl":2941,"ĠStift":2942,"ĠzuverlÃ¤ssig":2943,"ĠRie":2944,"ĠSchlaf":2945,"pro":2946,"ĠBall":2947,"ĠNun":2948,"ĠGerne":2949,"ĠWasch":2950,"Ġletzten":2951,"ĠSteckd":2952,"ĠSicht":2953,"ĠKÃ¶r":2954,"ĠHin":2955,"ĠWinter":2956,"Ġgebe":2957,"gelegt":2958,"Ġschlechter":2959,"ĠMatte":2960,"ĠChem":2961,"Ġaussieht":2962,"ĠReiÃŁverschluss":2963,"feh":2964,"nt":2965,"Ġx":2966,"ĠkÃ¼r":2967,"ĠHingucker":2968,"bew":2969,"Ġgewohnt":2970,"ĠgeschÃ¼tzt":2971,"Ġschlimm":2972,"Ġnaja":2973,"ĠGeburtstag":2974,"Tolle":2975,"hle":2976,"yst":2977,"ðŁı":2978,"sprecher":2979,"ĠLÃ¶cher":2980,"Ġarb":2981,"Ġtrocken":2982,"Tolles":2983,"ibel":2984,"leb":2985,"lebt":2986,"Ġnormalen":2987,"Ġ;)":2988,"Ġhilfreich":2989,"Ġans":2990,"omit":2991,"fekte":2992,"Ġex":2993,"ĠGerÃ¤u":2994,"ĠZustand":2995,"ĠMonat":2996,"sichtlich":2997,"Ar":2998,"waschen":2999,"ĠStrom":3000,"ĠSpÃ¼":3001,"bare":3002,"ĠInstallation":3003,"ĠReze":3004,"ĠMittel":3005,"rÃ¼her":3006,"ĠFlaschen":3007,"ĠRadio":3008,"ĠTasten":3009,"ĠVide":3010,"ĠStuf":3011,"ĠkÃ¶nnten":3012,"lerweile":3013,"ĠPower":3014,"ĠDennoch":3015,"Ġinnerhalb":3016,"Auf":3017,"Ġempfeh":3018,"Ġ!!!":3019,"ĠWunder":3020,"euchtung":3021,"ct":3022,"sste":3023,"Ġober":3024,"Ġvern":3025,"Ġfehl":3026,"Ġhandlich":3027,"ĠWerkzeug":3028,"ĠBeg":3029,"sendung":3030,"Ġenthalten":3031,"ppe":3032,"ĠRÃ¼ckseite":3033,"Ġbietet":3034,"ĠGlÃ¤ser":3035,"ĠHell":3036,"Ġmeines":3037,"Ġgenauso":3038,"Ġkeiner":3039,"Ġdurchaus":3040,"ĠZubehÃ¶r":3041,"box":3042,"ĠTouch":3043,"Man":3044,"bin":3045,"ehe":3046,"ĠSer":3047,"ĠBad":3048,"ĠLÃ¼":3049,"hler":3050,"Ġkamen":3051,"Ġgebraucht":3052,"**":3053,"hlt":3054,"ude":3055,"statt":3056,"Ġfein":3057,"aterial":3058,"ĠKla":3059,"tern":3060,"Ġbef":3061,"ĠNo":3062,"rechen":3063,"ikro":3064,"ĠFunktionen":3065,"ĠNÃ¤hte":3066,"Ġklappt":3067,"-/":3068,"Ġqu":3069,"inkt":3070,"Ġnimmt":3071,"ĠBÃ¼cher":3072,"ĠTransport":3073,"Ġetwa":3074,"ĠHandschuhe":3075,"ationen":3076,"gemessen":3077,"fil":3078,"messer":3079,"inken":3080,"achsen":3081,"ĠFest":3082,"ĠMaschine":3083,"ĠProdukte":3084,"lauch":3085,"ratzt":3086,"ses":3087,"Ġlecker":3088,"ory":3089,"ĠSchei":3090,"ĠAnwendung":3091,"fangs":3092,"Ġgebrochen":3093,"Ġdunkel":3094,"ĠÃ¼brig":3095,"Ġendlich":3096,"ĠhÃ¤ngt":3097,"Ġbeide":3098,"Ġwasser":3099,"Ġvorne":3100,"Ġreag":3101,"Ġpassend":3102,"Ġschicken":3103,"Ġ201":3104,"ĠSaug":3105,"ĠKlare":3106,"Hallo":3107,"bie":3108,"Ġsei":3109,"Ġzumindest":3110,"Ġgenutzt":3111,"ĠGehÃ¤use":3112,"Ġideal":3113,"Hab":3114,"ho":3115,"rut":3116,"wahl":3117,"Ġlaufen":3118,"ĠMas":3119,"lagen":3120,"ĠÃ¼berall":3121,"ienst":3122,"ĠArt":3123,"Ġtoller":3124,"Ġempfind":3125,"ĠLÃ¶sung":3126,"ĠAnfÃ¤nger":3127,"kn":3128,"uh":3129,"Ġakt":3130,"Ġalt":3131,"ĠGar":3132,"ĠMuss":3133,"gerissen":3134,"schied":3135,"Ã¤hlt":3136,"ĠÃ¤rgerlich":3137,"standen":3138,"Ġunkompl":3139,"ĠBed":3140,"ĠHei":3141,"serv":3142,"ĠBeste":3143,"ĠPanzerglas":3144,"AN":3145,"Im":3146,"Ġzeit":3147,"ĠAB":3148,"ikon":3149,"Ġcool":3150,"ĠdarÃ¼ber":3151,"Ġhinein":3152,"ĠKanten":3153,"Ġwahrscheinlich":3154,"Un":3155,"wÃ¼r":3156,"ina":3157,"Ã¼rtel":3158,"ĠSchle":3159,"arbe":3160,"Ġleichter":3161,"Ġspielen":3162,"ahlen":3163,"Ġwertig":3164,"ĠBÃ¼rste":3165,"Bei":3166,"Eigentlich":3167,"pr":3168,"eiger":3169,"schrank":3170,"ĠImmer":3171,"ĠNetz":3172,"Ġ15":3173,"ucken":3174,"Ġhinten":3175,"Ġklare":3176,"Ġanzubringen":3177,"mt":3178,"ossen":3179,"viel":3180,"yl":3181,"Ġeiniges":3182,"Ġgerissen":3183,"platte":3184,"ĠFilter":3185,"Ġalte":3186,"schlagbar":3187,"ĠChemie":3188,"Ġempfehle":3189,"gabe":3190,"man":3191,"Ġihre":3192,"ĠLautsprecher":3193,"ystem":3194,"Hat":3195,"wech":3196,"ĠmuÃŁ":3197,"ĠBesser":3198,"ĠFÃ¼ÃŁe":3199,"Ġbefestig":3200,"ĠAnhÃ¤nger":3201,"Ġziehen":3202,"Ġverwende":3203,"bÃ¼r":3204,"fle":3205,"gramm":3206,"Ġdauer":3207,"Ã¼gig":3208,"llos":3209,"ator":3210,"nete":3211,"Ġalleine":3212,"lass":3213,"Ġwenigen":3214,"ungsanleitung":3215,"ĠWeiter":3216,"ud":3217,"stabil":3218,"Ġha":3219,"ĠBetrieb":3220,"abzug":3221,"ĠMikro":3222,"ĠEcken":3223,"Ġwarum":3224,"ĠCD":3225,"ĠUnser":3226,"ĠWaschen":3227,"ĠBewertungen":3228,"tragen":3229,"Ġzeigt":3230,"Ġanf":3231,"Ġersch":3232,"ĠSchrei":3233,"gesehen":3234,"zeitig":3235,"Ã¼tze":3236,"klam":3237,"service":3238,"Sie":3239,"uhr":3240,"ĠfrÃ¼her":3241,"ĠKalender":3242,"ĠLoch":3243,"ĠHel":3244,"Ġrund":3245,"Ġstand":3246,"Ġstatt":3247,"umen":3248,"ĠAnt":3249,"ĠAnz":3250,"Ġabzug":3251,"werk":3252,"Ġtesten":3253,"ĠhÃ¶her":3254,"cm":3255,"Ġ....":3256,"ĠschÃ¼tzt":3257,"Ã¶nnte":3258,"Ġmehreren":3259,"komfort":3260,"Ġhervorragend":3261,"da":3262,"kauf":3263,"ĠwÃ¼r":3264,"ĠFig":3265,"ĠEffekt":3266,"beutel":3267,"Ã¤rbt":3268,"Ġdarin":3269,"ratze":3270,"ĠOberflÃ¤che":3271,"Ġwackelig":3272,"leider":3273,"Ġdank":3274,"anten":3275,"igem":3276,"ĠPC":3277,"schm":3278,"ĠMehr":3279,"Ġnachdem":3280,"achts":3281,"ĠErfahr":3282,"komme":3283,"ĠzusÃ¤tzlich":3284,"ĠAkkus":3285,"Ġerhofft":3286,"ĠSamsung":3287,"ĠRezepte":3288,"hÃ¤n":3289,"pol":3290,"Ġwech":3291,"denken":3292,"ertig":3293,"stellungen":3294,"ĠRech":3295,"VerhÃ¤ltnis":3296,"ĠStifte":3297,"hm":3298,"Ġsah":3299,"alk":3300,"ĠSchlauch":3301,"lltag":3302,"Ġstellen":3303,"Ġverloren":3304,"aun":3305,"sh":3306,"ĠerfÃ¼llen":3307,"annen":3308,"Ã¤tze":3309,"Ġpassiert":3310,"ĠHÃ¤nde":3311,"ĠFreundin":3312,"sauger":3313,"flas":3314,"zent":3315,"Ġus":3316,"Ġdauert":3317,"ĠFir":3318,"ĠSchnitt":3319,"Ġwirken":3320,"ĠstÃ¤r":3321,"etzteil":3322,"ringe":3323,"Ġgespannt":3324,"ĠSelbst":3325,"ĠABER":3326,"dauer":3327,"Ġunschlagbar":3328,"bereich":3329,"ĠFit":3330,"ĠTragen":3331,"amp":3332,"rÃ¤ger":3333,"Ã¼tzen":3334,"wicklung":3335,"nisse":3336,"Ġmus":3337,"Ã¤ck":3338,"ĠDoch":3339,"ĠKraft":3340,"ĠerklÃ¤r":3341,"ĠCreme":3342,"ĠDeswegen":3343,"geschenk":3344,"ĠKrit":3345,"Ġmitgelieferten":3346,"kraft":3347,"zeich":3348,"ĠnÃ¤":3349,"ĠDose":3350,"ĠPumpe":3351,"Ġladen":3352,"ĠBÃ¼gel":3353,"Ġangemessen":3354,"ĠRas":3355,"Ġ50":3356,"ĠMenge":3357,"ail":3358,"rig":3359,"ieb":3360,"ĠgrÃ¼n":3361,"Ġfrei":3362,"ĠDar":3363,"ĠHÃ¤tte":3364,"ĠNÃ¤":3365,"pern":3366,"ĠAnschluss":3367,"herm":3368,"Ã¤chst":3369,"ĠPerson":3370,"klebt":3371,"Ġabgebrochen":3372,"beschreibung":3373,"ĠGerÃ¤te":3374,"grÃ¶ÃŁe":3375,"pel":3376,"ĠBeh":3377,"ĠZudem":3378,"ips":3379,"ĠÃĸl":3380,"Ġmeisten":3381,"ĠBedienungsanleitung":3382,"ia":3383,"kzept":3384,"ĠPol":3385,"ĠTa":3386,"Ġrum":3387,"Schnell":3388,"ĠwÃ¤hr":3389,"Ġbringt":3390,"Ġkleben":3391,"ĠGesicht":3392,"SchÃ¶nes":3393,"ĠRezensionen":3394,"gung":3395,"Ġaut":3396,"Ġkosten":3397,"Ġauseinander":3398,"ĠDieser":3399,"ĠschÃ¶nen":3400,"ĠFreude":3401,"ĠEinziges":3402,"ĠDrucker":3403,"deckt":3404,"hÃ¤ngen":3405,"ium":3406,"utlich":3407,"Ġfindet":3408,"schig":3409,"abile":3410,"ĠKam":3411,"ĠstÃ¶r":3412,"ehme":3413,"ĠBohr":3414,"rundsÃ¤tzlich":3415,"auschen":3416,"ĠKor":3417,"ĠStory":3418,"ĠBeutel":3419,"Ġsicherlich":3420,"Ã¶tig":3421,"Ġangebracht":3422,"ĠschlieÃŁen":3423,"Ġeinzelnen":3424,"ock":3425,"Ġmerkt":3426,"utzen":3427,"ĠkrÃ¤":3428,"ĠGÃ¼rtel":3429,"ĠLeucht":3430,"tert":3431,"Ġinstall":3432,"ĠtrÃ¤gt":3433,"Ġ40":3434,"Ã¼ssig":3435,"ĠTee":3436,"ĠGenau":3437,"ĠLebens":3438,"isten":3439,"ustig":3440,"ĠhÃ¶ren":3441,"schauen":3442,"ĠHunde":3443,"ĠSchrau":3444,"ĠZur":3445,"ĠmÃ¼sste":3446,"kleben":3447,"ĠKÃ¼che":3448,"bildung":3449,"EN":3450,"ĠSomit":3451,"Ġeins":3452,"ĠKurz":3453,"ĠLauf":3454,"ĠLeicht":3455,"recht":3456,"Ġregel":3457,"gesp":3458,"ĠInternet":3459,"Artikel":3460,"griff":3461,"yp":3462,"Ġ!!":3463,"ĠzÃ¼gig":3464,"ĠKomm":3465,"ĠLaden":3466,"Ġdenen":3467,"stecken":3468,"ĠIhr":3469,"Ã¤tten":3470,"Ġbekomme":3471,"ĠRaum":3472,"ĠZwei":3473,"Ġentsprechend":3474,"brauchbar":3475,"ĠgÃ¼nstigen":3476,"Ġbefestigt":3477,"fÃ¤h":3478,"olt":3479,"sor":3480,"ĠSind":3481,"atzt":3482,"ĠLang":3483,"ĠNetzteil":3484,"reck":3485,"ĠKlett":3486,"Ġhandelt":3487,"ĠMÃ¤ngel":3488,"Ġarbeiten":3489,"bank":3490,"uter":3491,"ĠPositiv":3492,"Ã¶l":3493,"Ġschaut":3494,"schend":3495,"ĠTest":3496,"Ġintens":3497,"ĠVerhÃ¤ltnis":3498,"olfen":3499,"ĠRÃ¼cken":3500,"Ġbedingt":3501,"fÃ¼hrung":3502,"ĠWeihnachts":3503,"ĠSilikon":3504,"Ġkurze":3505,"ĠBefestigung":3506,"ĠSpÃ¼l":3507,"ĠÃ¼b":3508,"ĠPat":3509,"weiÃŁ":3510,"ĠRÃ¼cksendung":3511,"Ġnormale":3512,"Ġgedauert":3513,"Ã¤lfte":3514,"ĠFolien":3515,"dt":3516,"hil":3517,"lampe":3518,"Ġzeigen":3519,"ĠAbend":3520,"auscht":3521,"ĠSpiegel":3522,"Ġgenommen":3523,"Ã¤uÃŁ":3524,"ĠLadekabel":3525,"ĠHaken":3526,"Ġungeeignet":3527,"ĠMÃ¶glichkeit":3528,"wÃ¤sche":3529,"bald":3530,"ohlen":3531,"Ġeingesch":3532,"ĠKarte":3533,"ĠHosen":3534,"ðŁĳį":3535,"ritt":3536,"ronen":3537,"fÃ¤llig":3538,"Hatte":3539,"Kl":3540,"echt":3541,"sehen":3542,"ĠGed":3543,"ĠGrad":3544,"ĠThem":3545,"amil":3546,"euer":3547,"ĠEinziger":3548,"ostet":3549,"Ġausprobieren":3550,"ĠKundenservice":3551,"ĠPackung":3552,"eben":3553,"ĠÃ¤uÃŁ":3554,"Ġunbrauchbar":3555,"ĠGrill":3556,"ĠFach":3557,"ĠRest":3558,"ĠAngeb":3559,"ĠOhren":3560,"ĠbemÃ¤n":3561,"ider":3562,"stehen":3563,"Ġkor":3564,"ĠNegativ":3565,"ĠZahn":3566,"ĠumstÃ¤ndlich":3567,"ungsbed":3568,"ĠgrÃ¶ÃŁere":3569,"jekt":3570,"zÃ¼":3571,"ĠPart":3572,"Ã¼rftig":3573,"ĠWÃ¤r":3574,"Dieses":3575,"Ġgelungen":3576,"Ġstabiler":3577,"ĠDieses":3578,"Ġplatz":3579,"ĠTrain":3580,"ĠHilfe":3581,"fehler":3582,"Ġwollen":3583,"Ã¤ht":3584,"alen":3585,"ionen":3586,"Ġbestell":3587,"ĠUnterschied":3588,"Ġnervig":3589,"ĠKritik":3590,"sk":3591,"ĠFen":3592,"ĠTipp":3593,"ĠErst":3594,"ĠlieÃŁ":3595,"ĠNichts":3596,"uster":3597,"ĠLeute":3598,"ĠChina":3599,"ĠKapseln":3600,"Ġedel":3601,"ĠKÃ¶rper":3602,"Ġreagiert":3603,"Ġusw":3604,"ret":3605,"ĠAlle":3606,"ĠStuhl":3607,"ĠAbsolut":3608,"ĠDadurch":3609,"ĠvollstÃ¤ndig":3610,"Ġdicker":3611,"ĠApple":3612,"ĠKÃ¼hl":3613,"nach":3614,"Ġsicht":3615,"Ġakzept":3616,"ĠhÃ¤uf":3617,"ĠfÃ¼n":3618,"ĠMang":3619,"ĠSchrank":3620,"ilch":3621,"Ġkleinere":3622,"ĠHandt":3623,"baren":3624,"ĠwunderschÃ¶n":3625,"weilig":3626,"ĠwÃ¤hrend":3627,"Kann":3628,"Ġdrau":3629,"Ġdopp":3630,"Ġsau":3631,"Ġbel":3632,"Ġerrei":3633,"ĠVent":3634,"ĠQu":3635,"endet":3636,"Ġweitere":3637,"ĠAuspacken":3638,"Ġ;-)":3639,"ĠMotor":3640,"bewahr":3641,"IN":3642,"air":3643,"zeigt":3644,"ĠY":3645,"ala":3646,"elfen":3647,"Ġlediglich":3648,"ĠWim":3649,"ĠVerwendung":3650,"ĠStra":3651,"reu":3652,"ĠZwecke":3653,"ĠKnopf":3654,"Ġneben":3655,"Ġverschenkt":3656,"enkt":3657,"ĠTÃ¼":3658,"ĠVort":3659,"Ġsollten":3660,"ĠSternen":3661,"liegt":3662,"Ġbrauche":3663,"Ġbrauchbar":3664,"Ġleuchtet":3665,"ĠKnÃ¶pfe":3666,"Ġirgendw":3667,"Na":3668,"habe":3669,"zer":3670,"Ġzweit":3671,"cknet":3672,"ĠTherm":3673,"steckt":3674,"ĠVielen":3675,"usst":3676,"leicht":3677,"Ġbesseres":3678,"ĠMenschen":3679,"Ġhalb":3680,"Ġmontiert":3681,"ErfÃ¼llt":3682,"ĠLÃ¼fter":3683,"rich":3684,"Ġ0":3685,"Ġehr":3686,"ĠAlltag":3687,"Ġschief":3688,"deut":3689,"ĠWecker":3690,"ÃŁe":3691,"Ġmangel":3692,"Ġtrin":3693,"adellos":3694,"ĠMatratze":3695,"Ġniedr":3696,"ĠLadegerÃ¤t":3697,"Ġgetragen":3698,"ĠFehl":3699,"Ġminimal":3700,"gert":3701,"setzt":3702,"wagen":3703,"ieben":3704,"schnelle":3705,"ĠHals":3706,"Ġanfangs":3707,"ĠdaÃŁ":3708,"Ġabzu":3709,"ptik":3710,"ĠErf":3711,"lassen":3712,"ĠgroÃŁer":3713,"Ġunserem":3714,"Ã¤ndert":3715,"ook":3716,"ĠglÃ¼ck":3717,"Ġgleichen":3718,"ĠBereich":3719,"Ġunkompliziert":3720,"Macht":3721,"pd":3722,"zip":3723,"Ġmega":3724,"Ġzweck":3725,"Ġlos":3726,"ĠHÃ¤lfte":3727,"ĠTV":3728,"ĠWert":3729,"ĠRoll":3730,"Ġabziehen":3731,"Ġegal":3732,"eller":3733,"Ġziehe":3734,"Ã¼hlt":3735,"ĠBeleuchtung":3736,"ĠHelligkeit":3737,"ungsbedÃ¼rftig":3738,"Was":3739,"over":3740,"ĠMÃ¤":3741,"amen":3742,"ĠEinst":3743,"Ġentfern":3744,"ĠzurÃ¼ckgeschickt":3745,"ahlt":3746,"ĠWeihnachten":3747,"Ġchem":3748,"Ġjemand":3749,"ib":3750,"ite":3751,"eicher":3752,"Ġgrau":3753,"Ġglau":3754,"anger":3755,"ĠSinn":3756,"Ġzerk":3757,"scheiden":3758,"ĠSchick":3759,"Ġmittel":3760,"ĠAnder":3761,"osition":3762,"ĠEinzig":3763,"Ġbesteht":3764,"schuh":3765,"Ġmittlerweile":3766,"ĠSerie":3767,"ĠVentil":3768,"oben":3769,"erweise":3770,"Ã¼m":3771,"arkt":3772,"ĠMÃ¼ll":3773,"Ġaufpassen":3774,"ĠSpitze":3775,"Ġentsprechen":3776,"ppich":3777,"deckung":3778,"ĠBisher":3779,"ĠZusammenbau":3780,"lang":3781,"ĠSek":3782,"ĠVari":3783,"weite":3784,"fÃ¼hlt":3785,"Ġunserer":3786,"Ġgleiche":3787,"ĠwÃ¼rden":3788,"ICH":3789,"Ã¼hl":3790,"ĠDusch":3791,"ĠPaar":3792,"ĠFle":3793,"ĠFamil":3794,"gew":3795,"lege":3796,"Ġmehrfach":3797,"adset":3798,"ĠWirklich":3799,"ĠMitte":3800,"Ġwackelt":3801,"ĠTragekomfort":3802,"Bis":3803,"Etwas":3804,"Ġnehme":3805,"utr":3806,"utze":3807,"ĠhÃ¤tten":3808,"ĠBau":3809,"irr":3810,"ĠRing":3811,"umfang":3812,"ĠBecher":3813,"Ġgeholfen":3814,"ĠReise":3815,"ĠChar":3816,"Ġsolide":3817,"Ġklebt":3818,"ĠÃĦr":3819,"ĠPinsel":3820,"\".":3821,"ode":3822,"Ġ)":3823,"Ġihm":3824,"schÃ¶ne":3825,"ĠKar":3826,"ĠEinbau":3827,"ĠAufkleber":3828,"richtung":3829,"solute":3830,"drÃ¼ckt":3831,"Ġleuchten":3832,"Ġgross":3833,"ĠvernÃ¼n":3834,"ĠAngebot":3835,"ĠFenster":3836,"lieferung":3837,"station":3838,"Ġkinder":3839,"ĠPort":3840,"ĠBesonder":3841,"ĠEle":3842,"Ġtadellos":3843,"alitÃ¤t":3844,"anzen":3845,"ĠJe":3846,"Ġstabilen":3847,"ĠSchwÃ¤":3848,"Ġaussehen":3849,"ĠHÃ¤nd":3850,"Ġnervt":3851,"Ġwesentlich":3852,"setzung":3853,"Ġwechseln":3854,"Wenn":3855,"ĠPlay":3856,"ĠKost":3857,"Ġansprechend":3858,"Ġbewer":3859,"ĠEinsch":3860,"ĠHandgel":3861,"rÃ¶sse":3862,"Ġriechen":3863,"ĠDeut":3864,"Ġfreund":3865,"ĠMaske":3866,"ĠWimpern":3867,"Mit":3868,"na":3869,"inkel":3870,"Ġnutz":3871,"ĠSuche":3872,"aren":3873,"Ġeinzu":3874,"Ġfix":3875,"Ġlag":3876,"Ġverg":3877,"lasen":3878,"ĠAuswahl":3879,"imer":3880,"leistungs":3881,"ĠRegal":3882,"preis":3883,"ull":3884,"ĠnÃ¼tz":3885,"ĠKÃ¶nnte":3886,"ĠLes":3887,"terne":3888,"Ġgekommen":3889,"ĠverstÃ¤ndlich":3890,"legt":3891,"ĠAngenehm":3892,"wertig":3893,"ĠSchutzhÃ¼lle":3894,"ulver":3895,"Ġfalsche":3896,"ĠFitn":3897,"Sp":3898,"bungen":3899,"ient":3900,"ight":3901,"schicken":3902,"ĠNatÃ¼rlich":3903,"Ġdrehen":3904,"ĠKleine":3905,"ĠSchutzfolie":3906,"ĠFerns":3907,"Be":3908,"Ganz":3909,"Mir":3910,"alle":3911,"eilt":3912,"Ġunver":3913,"ater":3914,"ĠHinter":3915,"ĠTer":3916,"Ġinstabil":3917,"stellend":3918,"Ġpassgenau":3919,"kla":3920,"ling":3921,"Ġ?":3922,"ĠSor":3923,"ĠDV":3924,"schaft":3925,"ĠHu":3926,"ĠHaupt":3927,"roh":3928,"ĠMaÃŁ":3929,"Ġklapp":3930,"Ġspielt":3931,"ĠVersion":3932,"Ġverstauen":3933,"schlieÃŁ":3934,"Ġangeschlossen":3935,"ĠauÃŁer":3936,"fre":3937,"ĠFutter":3938,"urde":3939,"ocher":3940,"stellbar":3941,"illig":3942,"rinzip":3943,"Ġverliert":3944,"rÃ¤nkt":3945,"ĠAussehen":3946,"ĠPull":3947,"ĠFÃ¤cher":3948,"flasche":3949,"Ã¤m":3950,"ĠauÃŁen":3951,"ĠHD":3952,"raun":3953,"ierten":3954,"ĠAutor":3955,"ĠenttÃ¤uschend":3956,"ĠDeko":3957,"ĠTeppich":3958,"ĠOhrringe":3959,"ĠEinfache":3960,"Ġmussten":3961,"dchen":3962,"itel":3963,"kopf":3964,"ph":3965,"sich":3966,"eichen":3967,"Ġse":3968,"Ġeingebaut":3969,"ĠFlÃ¤":3970,"ĠEcke":3971,"ĠSchalter":3972,"ĠNot":3973,"raf":3974,"ischend":3975,"ĠNaht":3976,"âĢľ":3977,"Ġzerb":3978,"ĠâĢŀ":3979,"ontroller":3980,"ĠbemÃ¤ngeln":3981,"Ġentfernt":3982,"Ger":3983,"Wer":3984,"min":3985,"nur":3986,"wachsen":3987,"zung":3988,"ane":3989,"ĠfÃ¼hr":3990,"Ġfertig":3991,"ĠPrima":3992,"ĠHause":3993,"ertigt":3994,"ierer":3995,"Ġherum":3996,"ĠMarke":3997,"Ġverschenken":3998,"ĠHÃ¶he":3999,"chn":4000,"Ġunbe":4001,"Ã¤ge":4002,"Ġschla":4003,"ĠWe":4004,"Ġverz":4005,"Ġtief":4006,"verpackung":4007,"ĠBezug":4008,"indestens":4009,"ĠWird":4010,"ĠfÃ¼hlen":4011,"ĠMinus":4012,"Guter":4013,"ĠStufe":4014,"ĠerklÃ¤rt":4015,"lesen":4016,"Ġwissen":4017,"inen":4018,"Ġfe":4019,"ĠBass":4020,"ĠMÃ¼":4021,"Ġvergleich":4022,"Ġaufgebaut":4023,"Ġstra":4024,"oment":4025,"bekommen":4026,"Ġlieben":4027,"Ġsonder":4028,"Ġschlicht":4029,"ĠMac":4030,"Ġmitgelieferte":4031,"ĠerwÃ¤hn":4032,"ĠLÃ¤sst":4033,"ĠMangel":4034,"by":4035,"bÃ¤nder":4036,"ĠâĤ¬":4037,"stÃ¼ck":4038,"Ġzudem":4039,"ĠDu":4040,"sser":4041,"ĠNoch":4042,"ĠHandyhÃ¼lle":4043,"Ġfunktionierte":4044,"Ġbringen":4045,"ĠStaubsauger":4046,"Ġinteressant":4047,"ĠstÃ¶rend":4048,"praktisch":4049,"ĠÃ¤lter":4050,"iner":4051,"Ġung":4052,"Ġkalt":4053,"Ġfarb":4054,"ĠRÃ¤":4055,"ĠOhne":4056,"weis":4057,"ĠBrief":4058,"Ġversucht":4059,"Ġschwarze":4060,"Ġrichtigen":4061,"ĠgewÃ¶hnungsbedÃ¼rftig":4062,"zusehen":4063,"ĠSpannung":4064,"20":4065,"Ge":4066,"Optisch":4067,"bett":4068,"glas":4069,"ibr":4070,"Ġbitte":4071,"Ġfahren":4072,"ĠEinstellung":4073,"Ġeinfacher":4074,"ĠAbbildung":4075,"Ġtollen":4076,"Ġselten":4077,"Ġries":4078,"ĠiPad":4079,"inks":4080,"Ġkompakt":4081,"hause":4082,"ise":4083,"kasten":4084,"ratz":4085,"sa":4086,"ube":4087,"Ġsucht":4088,"Ġsuchen":4089,"iet":4090,"unÃ¤chst":4091,"Ġis":4092,"ĠFan":4093,"ĠLeg":4094,"ĠWeg":4095,"Ġsowas":4096,"Ġausgel":4097,"ĠSoft":4098,"wendig":4099,"Ġhochwertigen":4100,"zwischen":4101,"Ġverstehen":4102,"Ġverschw":4103,"ĠHeadset":4104,"ĠDamit":4105,"ĠNote":4106,"Ġautom":4107,"ĠSekunden":4108,"Ġ'":4109,"Ġsor":4110,"stra":4111,"Ġunn":4112,"Ġfall":4113,"ĠBade":4114,"ĠFe":4115,"Ġerg":4116,"stelle":4117,"Ġauszu":4118,"Ġbevor":4119,"ĠVerl":4120,"uchs":4121,"dus":4122,"ĠCase":4123,"ĠAufbewahr":4124,"Ġbrauchte":4125,"ĠSonne":4126,"ĠWÃ¤sche":4127,"Ġprobiert":4128,"Ġempfindlich":4129,"Sind":4130,"ball":4131,"les":4132,"rein":4133,"enden":4134,"eif":4135,"Ġsinn":4136,"Ġmo":4137,"ĠSollte":4138,"Ġbauen":4139,"Ġlegen":4140,"ĠBrau":4141,"ĠKerzen":4142,"ĠHÃ¼llen":4143,"ĠMutter":4144,"ĠTrin":4145,"Ġsowohl":4146,"Ġerne":4147,"ĠSchon":4148,"ĠSchrift":4149,"Ġverbogen":4150,"Ã¤tter":4151,"bring":4152,"Ã¼hle":4153,"Ġprodukt":4154,"rifft":4155,"Ġniedlich":4156,"ĠAuÃŁen":4157,"Ġbreit":4158,"schneiden":4159,"bÃ¼rste":4160,"ĠRechnung":4161,"ĠglÃ¼cklich":4162,"10":4163,"hose":4164,"kann":4165,"wind":4166,"eils":4167,"stru":4168,"Ġmax":4169,"ktion":4170,"ĠMess":4171,"ĠEt":4172,"ĠEcht":4173,"Ġaufgefallen":4174,"ĠKleider":4175,"artig":4176,"maÃŁen":4177,"ĠPlus":4178,"Ġgestaltet":4179,"ippen":4180,"ĠCover":4181,"Ġfehlte":4182,"ĠstÃ¤rker":4183,"ĠThema":4184,"ĠDVD":4185,"kam":4186,"klasse":4187,"ui":4188,"ĠSu":4189,"ĠhÃ¶rt":4190,"Ġkusch":4191,"Ġlieferung":4192,"ĠFÃ¼ll":4193,"ĠMÃ¼tze":4194,"ĠEdel":4195,"reich":4196,"ĠSchirm":4197,"Ġstabile":4198,"ĠgroÃŁes":4199,"Ã¶ffnet":4200,"ĠMagnete":4201,"erkette":4202,"Ġpassieren":4203,"rÃ¤nk":4204,"Ġdunk":4205,"SchÃ¶ner":4206,"ĠBewegung":4207,"fÃ¤hig":4208,"vt":4209,"Ġsobald":4210,"iefel":4211,"Ġgenial":4212,"gebrau":4213,"ĠdrÃ¼ckt":4214,"ĠnÃ¤chste":4215,"ĠVorteil":4216,"ĠHÃ¤ndler":4217,"HÃ¤lt":4218,"gf":4219,"kissen":4220,"ĠSystem":4221,"Ġkauf":4222,"Ġkaufe":4223,"ĠPad":4224,"atch":4225,"schrauben":4226,"ĠHaben":4227,"ĠMuster":4228,"Ġmanchen":4229,"Ġruh":4230,"ome":4231,"ott":4232,"lÃ¤sst":4233,"Ġ:(":4234,"aumen":4235,"itzer":4236,"Ġstecken":4237,"ĠBÃ¼ro":4238,"Toller":4239,"Ġweshalb":4240,"ĠÃĸffnen":4241,"ĠSteckdose":4242,"ĠdrauÃŁen":4243,"gut":4244,"ry":4245,"enne":4246,"attet":4247,"etail":4248,"schnitt":4249,"Ġlohnt":4250,"Ġlustig":4251,"wasser":4252,"Ġstimmen":4253,"Ġstinkt":4254,"umpf":4255,"Dieser":4256,"mals":4257,"ĠspÃ¼r":4258,"Ġlangleb":4259,"ĠKindern":4260,"ĠHaptik":4261,"Ġirgendwann":4262,"ĠFernseher":4263,"Gen":4264,"hirt":4265,"ring":4266,"sÃ¤tze":4267,"vest":4268,"esse":4269,"Ġnot":4270,"ĠSens":4271,"ĠBauch":4272,"Ġgutem":4273,"ĠFinde":4274,"gefÃ¼hl":4275,"chtung":4276,"Ġbeurt":4277,"isches":4278,"Ġew":4279,"ĠGeschirr":4280,"ĠGanzen":4281,"Ġheller":4282,"Ġerkannt":4283,"ĠÃĸffnung":4284,"wÃ¼rdig":4285,"hmen":4286,"iste":4287,"machen":4288,"nÃ¤":4289,"zess":4290,"ĠqualitÃ¤t":4291,"Ġske":4292,"Ġweder":4293,"Ġmindestens":4294,"ĠSei":4295,"rop":4296,"roffen":4297,"ĠWen":4298,"ssache":4299,"Ġallzu":4300,"ĠAnbie":4301,"olgt":4302,"Ġweicher":4303,"appe":4304,"Ġgeladen":4305,"bracht":4306,"Ġhochwertiger":4307,"Ġverbesser":4308,"ĠðŁĺĬ":4309,"Ġteurer":4310,"ĠPowerbank":4311,"ĠFirma":4312,"kun":4313,"ult":4314,"Ġdanke":4315,"streifen":4316,"Ã¼se":4317,"ĠDinge":4318,"ĠGÃ¼nstig":4319,"ĠEis":4320,"Ġverrut":4321,"rahmen":4322,"ĠÃ¼bert":4323,"Ġperfekte":4324,"Ġ:-":4325,"affen":4326,"Ġverbinden":4327,"Ġhohen":4328,"etour":4329,"Ġvermutlich":4330,"ĠShirt":4331,"ĠEmpfang":4332,"Ġkeinerlei":4333,"Naja":4334,"ĠKostÃ¼m":4335,"Ġskeptisch":4336,"kunft":4337,"gr":4338,"welt":4339,"weder":4340,"chern":4341,"Ġkennt":4342,"ĠBitte":4343,"ĠFuss":4344,"ĠHo":4345,"ĠgeÃ¶ffnet":4346,"Ġtau":4347,"ĠStein":4348,"ĠStÃ¤nder":4349,"Ġ18":4350,"Ġweiteren":4351,"ĠReklam":4352,"ĠlÃ¤ngere":4353,"ĠVerbesser":4354,"Ġmitgeliefert":4355,"pdate":4356,"utral":4357,"Von":4358,"hang":4359,"haben":4360,"wort":4361,"zz":4362,"Ġwitz":4363,"ĠSand":4364,"ĠFal":4365,"Ġanzusehen":4366,"ĠRolle":4367,"ischt":4368,"Ġvorsichtig":4369,"ĠJeder":4370,"rime":4371,"ĠNachdem":4372,"Ġlangweilig":4373,"book":4374,"Ġleben":4375,"Ġrot":4376,"Ġrutschen":4377,"Ware":4378,"ĠKleidung":4379,"Ġbekam":4380,"zusetzen":4381,"--------":4382,"ðŁı»":4383,"ĠScheibe":4384,"Ġsichtbar":4385,"ICHT":4386,"bringung":4387,"awei":4388,"cre":4389,"karte":4390,"nehm":4391,"sie":4392,"wor":4393,"steht":4394,"ĠPost":4395,"ĠBalk":4396,"ĠLo":4397,"ĠLediglich":4398,"ĠHÃ¶r":4399,"ĠTÃ¼cher":4400,"ĠSchne":4401,"ĠNett":4402,"ĠStunde":4403,"ometer":4404,"Ġweiterhin":4405,"tliche":4406,"ĠSchub":4407,"ĠWarum":4408,"ĠVersuch":4409,"ĠBeschÃ¤":4410,"ĠdÃ¼nner":4411,"Ġgleichzeitig":4412,"Ġerforder":4413,"Ã¤hrt":4414,"Ġempfohlen":4415,"ĠHammer":4416,"ĠWÃ¤re":4417,"Ã¤ckchen":4418,"ĠPersonen":4419,"leistungsverhÃ¤ltnis":4420,"Zu":4421,"wischen":4422,"ĠSe":4423,"ĠSender":4424,"Ġlief":4425,"ĠFeucht":4426,"ĠWetter":4427,"Ġgearbeitet":4428,"Ġverarbeiten":4429,"Ġmanche":4430,"ĠStreifen":4431,"Ġzufriedenstellend":4432,"ĠController":4433,"Ġgeklebt":4434,"ĠEngl":4435,"baum":4436,"ĠzusÃ¤tz":4437,"Ġgarnicht":4438,"uld":4439,"ĠKÃ¼chen":4440,"Ġbreiter":4441,"ĠWohnung":4442,"Ġmangelhaft":4443,"50":4444,"ftet":4445,"pad":4446,"uert":4447,"erell":4448,"Ġmorgen":4449,"Ġlinks":4450,"ĠMilch":4451,"ĠTasse":4452,"stecker":4453,"ĠVoll":4454,"Ġwarten":4455,"ĠRecht":4456,"Ġhohe":4457,"Ġhalben":4458,"Ġschneiden":4459,"ĠErfahrung":4460,"ĠBesonders":4461,"ischendurch":4462,"ts":4463,"ehn":4464,"Ġflex":4465,"achtet":4466,"ĠMund":4467,"Ġverd":4468,"rekt":4469,"mmern":4470,"spar":4471,"Ġleichten":4472,"Ġspr":4473,"Ġwobei":4474,"Ġgesam":4475,"Ġgeholt":4476,"Ġkompliziert":4477,"ĠGewinde":4478,"ĠEnttÃ¤u":4479,"ĠMotiv":4480,"ĠGroÃŁen":4481,"ĠFingerab":4482,"Ġaufzubauen":4483,"ĠDreh":4484,"zeichnet":4485,"ĠfÃ¼nf":4486,"produkt":4487,"Ġzurecht":4488,"cknen":4489,"ĠschÃ¼tzen":4490,"Ġlangen":4491,"ĠLust":4492,"ĠTuch":4493,"orn":4494,"ĠWo":4495,"old":4496,"ĠQualitativ":4497,"Ġpasste":4498,"ĠSpeicher":4499,"verschlÃ¼sse":4500,"Ġgering":4501,"ĠlÃ¤dt":4502,"assung":4503,"Ġdarum":4504,"essert":4505,"stands":4506,"ĠMini":4507,"ĠgestÃ¶rt":4508,"ĠBoxen":4509,"Ġglatt":4510,"Ġschwarzen":4511,"Ġangeboten":4512,"Ġintensiv":4513,"kÃ¼n":4514,"selt":4515,"ehlt":4516,"ĠDienst":4517,"schnit":4518,"ĠFÃ¤llt":4519,"ĠLin":4520,"ĠMak":4521,"hren":4522,"ufen":4523,"blasen":4524,"Ġunteren":4525,"ĠEnkel":4526,"ĠLeuchte":4527,"Ġkonnten":4528,"Ġeinzeln":4529,"Ġempfinde":4530,"Ġflach":4531,"ĠSchraube":4532,".)":4533,"dacht":4534,"ikt":4535,"ift":4536,"sinn":4537,"uhe":4538,"ve":4539,"erung":4540,"eidet":4541,"Ġmm":4542,"ĠGurt":4543,"ĠBrot":4544,"Ġerle":4545,"ĠSchlei":4546,"senden":4547,"Ġsteif":4548,"icke":4549,"fÃ¼g":4550,"ĠSohle":4551,"echn":4552,"ĠParty":4553,"Ġakzeptabel":4554,"Ġglaube":4555,"Ġbeurteilen":4556,"dy":4557,"ende":4558,"ies":4559,"Ã¼ften":4560,"Ġhelfen":4561,"ĠEigen":4562,"Ġaufladen":4563,"raubt":4564,"alles":4565,"ĠAbdeckung":4566,"rÃ¤glich":4567,"kku":4568,"Ġjedenfalls":4569,"ĠVorg":4570,"dreht":4571,"wenden":4572,"haltung":4573,"ĠBettwÃ¤sche":4574,"ĠAnzeige":4575,"ĠBehÃ¤lter":4576,"mus":4577,"Ġdiver":4578,"Ġunpraktisch":4579,"Ġfil":4580,"itten":4581,"ĠGet":4582,"ĠLack":4583,"ĠEx":4584,"ĠWack":4585,"Ġverh":4586,"Ġbewegen":4587,"ĠjÃ¤hr":4588,"ĠHandys":4589,"Ġrechts":4590,"ĠdÃ¼nne":4591,"ĠReich":4592,"ĠPunktabzug":4593,"gemein":4594,"Ġsolche":4595,"ĠDurchmesser":4596,"ĠKatze":4597,"ĠKomp":4598,"ĠSoftware":4599,"vtl":4600,"Ġewig":4601,"ĠBalkon":4602,"kocher":4603,"mer":4604,"eisen":4605,"Ġhoff":4606,"itor":4607,"Ġzuerst":4608,"emmen":4609,"ĠGem":4610,"ĠBÃ¤":4611,"ĠFlie":4612,"ĠFrage":4613,"Ġersetzt":4614,"ssp":4615,"ĠIP":4616,"Ġtransport":4617,"ĠstÃ¶ren":4618,"ĠProgramm":4619,"Ġ16":4620,"ĠspÃ¤t":4621,"Ġwodurch":4622,"Ġangenehmer":4623,"ĠgehÃ¶rt":4624,"Ġbilliger":4625,"Ġwelcher":4626,"Ġ60":4627,"ĠWieder":4628,"ĠglÃ¤n":4629,"ĠKleiner":4630,"fahren":4631,"gÃ¤ngig":4632,"ĠVideo":4633,"ĠFitness":4634,"LAN":4635,"Ãľ":4636,"Ġbricht":4637,"ĠPa":4638,"Ġgewaschen":4639,"eitig":4640,"pft":4641,"ame":4642,"warz":4643,"ĠSoweit":4644,"ĠAusfÃ¼hrung":4645,"ĠweiÃŁe":4646,"gehalten":4647,"ĠgewÃ¶hnt":4648,"Ġehrlich":4649,"ĠHuawei":4650,"ĠReklamation":4651,"if":4652,"sache":4653,"anken":4654,"ĠnÃ¶tig":4655,"ĠWa":4656,"ĠWeile":4657,"Ġgestellt":4658,"leichen":4659,"Ġentscheiden":4660,"Ġzweimal":4661,"ĠEndlich":4662,"Ã¶ffel":4663,"Ġhaltbar":4664,"ĠFÃ¤den":4665,"ĠauÃŁerdem":4666,"Shirt":4667,"bungs":4668,"mo":4669,"Ã¼gend":4670,"Ġbald":4671,"ichtet":4672,"tete":4673,"alax":4674,"ĠDaumen":4675,"auern":4676,"Ġles":4677,"ĠBrei":4678,"ĠanschlieÃŁen":4679,"ord":4680,"orben":4681,"ilder":4682,"ĠSteine":4683,"rech":4684,"lade":4685,"ĠErwachsen":4686,"Ġanderer":4687,"rillen":4688,"aster":4689,"ĠLichterkette":4690,"Ġdeutsche":4691,"Ġverbaut":4692,"ĠPfl":4693,"Ġ80":4694,"ĠMarken":4695,"ĠKugeln":4696,"halterung":4697,"film":4698,"zÃ¼ge":4699,"ĠVentilator":4700,"ĠFlecken":4701,"ĠHandgelenk":4702,"Ġsonderlich":4703,"ĠFeuchtigkeit":4704,"alaxy":4705,"Per":4706,"digen":4707,"heits":4708,"zum":4709,"Ġbo":4710,"Ġfair":4711,"ĠDosen":4712,"ĠBet":4713,"ĠFa":4714,"ĠWahl":4715,"ĠRollen":4716,"Ã¤nde":4717,"ĠProdukten":4718,"Ġ14":4719,"Ġ24":4720,"Ġgeschenkt":4721,"ĠFilme":4722,"ĠText":4723,"Ġerkennt":4724,"ĠKanne":4725,"Ġletzte":4726,"ĠStandard":4727,"Ġeleg":4728,"Ġmehrmals":4729,"ĠdÃ¼rfte":4730,"ĠGerÃ¤usch":4731,"ĠVariante":4732,"Ġnutzbar":4733,"Aus":4734,"bindung":4735,"Ġeh":4736,"Ġachten":4737,"schrift":4738,"ĠFrei":4739,"ĠHob":4740,"Ġanziehen":4741,"Ġgebracht":4742,"ĠRob":4743,"ram":4744,"omp":4745,"ĠAbst":4746,"Ġgelegen":4747,"Ġdurchsichtig":4748,"ĠAnfangs":4749,"ĠLieferumfang":4750,"ĠFrauen":4751,"ĠAngst":4752,"ĠSteckdosen":4753,"wechsel":4754,"ĠFiguren":4755,"Ġinstallieren":4756,"ĠTraining":4757,"ĠEinsteiger":4758,"kant":4759,"uen":4760,"Ġsim":4761,"Ġsagt":4762,"Ġgreifen":4763,"Ġminder":4764,"Ġeingestellt":4765,"ĠDaten":4766,"ĠDetail":4767,"ĠPr":4768,"ĠBlasen":4769,"ĠKur":4770,"ĠFast":4771,"ĠerhÃ¤lt":4772,"andt":4773,"ollten":4774,"anzeige":4775,"ĠBildqualitÃ¤t":4776,"ĠReisen":4777,"ĠgrÃ¶ÃŁeren":4778,"ĠLiegt":4779,"Ġholen":4780,"ĠTonqualitÃ¤t":4781,"Ġfreue":4782,"ĠschlieÃŁt":4783,"ĠGerÃ¤usche":4784,"ĠnÃ¤mlich":4785,"ĠregelmÃ¤ÃŁig":4786,"ĠSpÃ¼lmaschine":4787,"ĠWÃ¤rme":4788,"ĠnÃ¼tzlich":4789,"rasch":4790,"stahl":4791,"innen":4792,"ĠPassen":4793,"Ã¶p":4794,"ĠGrÃ¶sse":4795,"ĠBH":4796,"ĠEher":4797,"ĠIhn":4798,"ĠPreisleistung":4799,"Ġallein":4800,"Ġseiner":4801,"geladen":4802,"Ġgeschmack":4803,"Ġverbunden":4804,"ĠÃ¤hnliches":4805,"ĠKugel":4806,"ĠStabilitÃ¤t":4807,"ĠSicherheit":4808,"Ġwasserdicht":4809,"ĠReichweite":4810,"elle":4811,"fol":4812,"Ã¼tlich":4813,"ĠAust":4814,"ĠPosition":4815,"els":4816,"Ġleistung":4817,"ĠGalaxy":4818,"ĠFeuer":4819,"ĠLaufen":4820,"ĠHau":4821,"ions":4822,"ĠStiefel":4823,"ĠProduktbeschreibung":4824,"werte":4825,"ĠzurÃ¼ckschicken":4826,"richten":4827,"ingend":4828,"ĠVorsicht":4829,"Ġebenso":4830,"ĠArbeits":4831,"gehend":4832,"ĠGegensatz":4833,"ĠFamilie":4834,"Ġautomatisch":4835,"ĠTrink":4836,"creen":4837,"Pro":4838,"fa":4839,"kaufen":4840,"lose":4841,"material":4842,"zuf":4843,"ĠSa":4844,"Ã¤be":4845,"Ġkostet":4846,"ĠPrime":4847,"ĠGeist":4848,"ĠBÃ¼":4849,"lichkeit":4850,"Ã¤tigen":4851,"ĠHandlung":4852,"ĠInform":4853,"Ġangenehmes":4854,"Ġkomisch":4855,"ĠTages":4856,"oole":4857,"ĠBrust":4858,"windigkeit":4859,"Ab":4860,"Kam":4861,"mp":4862,"ieÃŁen":4863,"ĠgrÃ¶":4864,"Ġkenne":4865,"teuert":4866,"atum":4867,"ĠFeder":4868,"ĠHig":4869,"ĠHoff":4870,"ĠPreises":4871,"ĠZÃ¤":4872,"ĠKling":4873,"asteln":4874,"Ġgeschafft":4875,"decke":4876,"ĠgÃ¼nstige":4877,"ĠTabletten":4878,"ĠÃ¤hnlich":4879,"Ġexakt":4880,"Ġdoppelt":4881,"Ġtrinken":4882,"ĠElekt":4883,"gebrauch":4884,"Gesch":4885,"betrieb":4886,"satzt":4887,"tisch":4888,"Ġmann":4889,"Ã¼gen":4890,"ĠSk":4891,"Ġkrie":4892,"Ġvolle":4893,"Ġlose":4894,"ĠBÃ¤nder":4895,"ĠMacken":4896,"ĠWÃ¼r":4897,"ĠWLAN":4898,"ĠVom":4899,"Ġausget":4900,"Ġrau":4901,"Ġaller":4902,"ĠweiÃŁen":4903,"rÃ¤z":4904,"Ġfester":4905,"ĠReihe":4906,"ĠHerz":4907,"ĠPassgenau":4908,"ĠGesamt":4909,"kosten":4910,"Ġelekt":4911,"ĠVideos":4912,"Unser":4913,"reten":4914,"ĠhÃ¤ufig":4915,"ĠSchwÃ¤chen":4916,"ĠMaÃŁe":4917,"ĠEnglisch":4918,"ĠVorgÃ¤nger":4919,"?!":4920,"Aber":4921,"co":4922,"kontakt":4923,"Ġdu":4924,"Ġnass":4925,"ehrt":4926,"ĠMÃ¶":4927,"ĠWitz":4928,"Ġvergeben":4929,"Ġauspacken":4930,"ray":4931,"hnung":4932,"gerÃ¤u":4933,"ĠSpass":4934,"ĠHandtasche":4935,"ĠGest":4936,"ĠDazu":4937,"Ġherunter":4938,"Ġerstaun":4939,"ĠLeuchten":4940,"loss":4941,"obil":4942,"Ġschmecken":4943,"ĠAusspar":4944,"ids":4945,"ventuell":4946,"ĠSchlechte":4947,"ĠKritikpunkt":4948,"Ġschlafen":4949,"ĠAnbieter":4950,"dose":4951,"sand":4952,"iegen":4953,"Ġmeist":4954,"Ġkg":4955,"ones":4956,"Ġfind":4957,"Ġschrei":4958,"schw":4959,"Ġdahin":4960,"rav":4961,"raht":4962,"ĠZimmer":4963,"ĠProf":4964,"Ġgeliefer":4965,"......":4966,"Ġeinzig":4967,"Ġversuchen":4968,"ĠXL":4969,"sprach":4970,"ĠHochzeit":4971,"Ġbezahlt":4972,"Ġkorrekt":4973,"ST":4974,"bum":4975,"iden":4976,"jÃ¤hr":4977,"ment":4978,"nd":4979,"tag":4980,"igkeiten":4981,"Ġzuvor":4982,"ĠPrinzip":4983,"ĠFunk":4984,"ĠTechn":4985,"ĠSchaum":4986,"Ġverschl":4987,"ilber":4988,"Ġstyl":4989,"ĠAnschlÃ¼sse":4990,"ĠAnbringung":4991,"ĠCl":4992,"Ġbesseren":4993,"Ġgeschm":4994,"lieb":4995,"ĠDefekt":4996,"Ġzwischendurch":4997,"Ġausgepackt":4998,"ĠViele":4999,"ĠRiecht":5000,"ĠBallons":5001,"bination":5002,"ĠHelm":5003,"ĠCharakt":5004,"Ġerneut":5005,"Funktion":5006,"ager":5007,"do":5008,"dienst":5009,"gossen":5010,"zahl":5011,"unt":5012,"einbar":5013,"ĠSal":5014,"ĠAkt":5015,"emmt":5016,"ĠFans":5017,"ĠLit":5018,"gegeben":5019,"ĠWech":5020,"ĠSchere":5021,"iker":5022,"btisch":5023,"ĠBeispiel":5024,"ĠSchul":5025,"drÃ¼cken":5026,"Ġnutzt":5027,"Ġnochmals":5028,"ĠFlug":5029,"Ġordnung":5030,"ĠgewÃ¼nsch":5031,"ĠMagneten":5032,"ĠtÃ¤glichen":5033,"ĠKlebeband":5034,"Ġkompat":5035,"stattung":5036,"ĠPatronen":5037,"GrundsÃ¤tzlich":5038,"bchen":5039,"ey":5040,"fr":5041,"farbe":5042,"laufen":5043,"¸ı":5044,"ï¸ı":5045,"Ġâ":5046,"ĠSw":5047,"ĠSÃ¼ÃŁ":5048,"ĠBart":5049,"ĠBillig":5050,"ĠLog":5051,"ĠSchau":5052,"ĠSchrit":5053,"Ã¶rse":5054,"Ġgefehlt":5055,"Ġrepar":5056,"gessen":5057,"Ġtechn":5058,"ĠMonitor":5059,"ĠmÃ¶gen":5060,"Ġpassende":5061,"ĠVorder":5062,"echan":5063,"Ġverlieren":5064,"scheinend":5065,"ĠObwohl":5066,"Ġfrisch":5067,"ĠPolster":5068,"ĠkrÃ¤ftig":5069,"ĠLebensdauer":5070,"Ġbewerten":5071,"ĠPullover":5072,"ĠWaage":5073,"\",":5074,"Haben":5075,"Zum":5076,"ille":5077,"seh":5078,"wÃ¤r":5079,"Ġsehe":5080,"Ġmach":5081,"ĠmÃ¤ÃŁ":5082,"ĠBeine":5083,"ĠKoch":5084,"ĠFing":5085,"reiber":5086,"ĠWelt":5087,"ĠNICHT":5088,"ĠPreisklasse":5089,"Ġschwerer":5090,"icro":5091,"drehen":5092,"Ġrutsch":5093,"ĠPfanne":5094,"ĠMeter":5095,"ĠSchmuck":5096,"ĠAngaben":5097,"ĠBedarf":5098,"Ġfalls":5099,"ĠEdelstahl":5100,"Ġlanglebig":5101,"besonder":5102,"ezie":5103,"Ġ%":5104,"enke":5105,"ĠgrundsÃ¤tzlich":5106,"Ġmass":5107,"igar":5108,"ĠPool":5109,"ĠPulver":5110,"Ġscheinen":5111,"schrau":5112,"ĠGrÃ¼n":5113,"ĠKÃ¤":5114,"ĠHem":5115,"ĠHÃ¼bsch":5116,"ĠEben":5117,"ĠTr":5118,"ĠTitel":5119,"Ġankam":5120,"annten":5121,"steck":5122,"Ġausgeben":5123,"ĠRund":5124,"isst":5125,"ĠStre":5126,"ĠSturz":5127,"Ġevtl":5128,"ape":5129,"ĠLeistungs":5130,"Ã¼hlen":5131,"rÃ¤cht":5132,"ĠWirkt":5133,"zieh":5134,"Ġlegt":5135,"haltsam":5136,"Ġpreiswert":5137,"ĠLiebe":5138,"ĠKons":5139,"ows":5140,"ðŁı¼":5141,"ĠHeiz":5142,"ĠGeduld":5143,"ĠKÃ¼hlschrank":5144,"ĠHandtuch":5145,"freund":5146,"ĠRÃ¤der":5147,"Ġriesig":5148,"Tut":5149,"ĠSc":5150,"ĠSeit":5151,"ĠblÃ¶":5152,"Ġkauft":5153,"Ġschar":5154,"ĠLecker":5155,"ĠTier":5156,"Ġangeht":5157,"ĠNormal":5158,"Ġabgesch":5159,"ĠUpdate":5160,"becher":5161,"ĠJa":5162,"eilung":5163,"rip":5164,"pport":5165,"ĠNagel":5166,"stÃ¤nde":5167,"ĠÃľbung":5168,"aÃŁt":5169,"ĠGebrauchs":5170,"Ġgetan":5171,"lÃ¶sung":5172,"Nachdem":5173,"setzbar":5174,"Ġprobieren":5175,"Ġsinnvoll":5176,"MI":5177,"fo":5178,"Ġunz":5179,"ĠPlast":5180,"ĠBack":5181,"ĠLesen":5182,"ĠTrÃ¤ger":5183,"Ġauszusetzen":5184,"ĠRom":5185,"ĠPreisleistungsverhÃ¤ltnis":5186,"ĠZucker":5187,"ĠStau":5188,"ĠSpielen":5189,"ĠBequem":5190,"ĠAbwicklung":5191,"Ġgelegt":5192,"schluÃŁ":5193,"ĠlÃ¤ngerem":5194,"Ġreichen":5195,"ĠLiebl":5196,"ĠBÃ¼rsten":5197,"Ġverschm":5198,"Ġgebaut":5199,"Ġkurzen":5200,"mÃ¶glichkeiten":5201,"ĠUnsere":5202,"ĠFigur":5203,"Ġzweites":5204,"ĠErfolg":5205,"sparend":5206,"Kabel":5207,"Vor":5208,"fig":5209,"noch":5210,"super":5211,"sicher":5212,"eitet":5213,"stes":5214,"Ġmer":5215,"ino":5216,"ĠunschÃ¶n":5217,"Ã¤den":5218,"ichtige":5219,"schnell":5220,"Ġlala":5221,"ĠGibt":5222,"ĠBes":5223,"ĠBir":5224,"ĠLad":5225,"ĠMÃ¼n":5226,"ĠEi":5227,"ĠTief":5228,"Ġangenommen":5229,"Ġind":5230,"Ġbeige":5231,"rain":5232,"ĠZoll":5233,"Ã¤nglich":5234,"omben":5235,"weisen":5236,"Ġeuch":5237,"ĠErsatzt":5238,"Ġ25":5239,"ĠGerade":5240,"ĠJob":5241,"Ġrest":5242,"Ġschlechten":5243,"Ġfestgestellt":5244,"Ġreibungs":5245,"ĠIdeal":5246,"ratzen":5247,"ĠÃ¼berzeugend":5248,"ahnsinn":5249,"Ġabgezogen":5250,"ĠHinweis":5251,"istenz":5252,"ĠKlettverschluss":5253,"ĠFingern":5254,"30":5255,"ekte":5256,"sÃ¤chlich":5257,"trag":5258,"Ġeignet":5259,"iels":5260,"Ġgr":5261,"aser":5262,"Ġeindeut":5263,"schalt":5264,"ĠExt":5265,"ĠWh":5266,"Ġinte":5267,"Ġbean":5268,"lech":5269,"ĠNad":5270,"ĠStange":5271,"allem":5272,"ĠAbstand":5273,"ĠAufgrund":5274,"Ġdekor":5275,"Ġeigenen":5276,"ĠLichter":5277,"Ġbrauchen":5278,"Ġpraktische":5279,"wohn":5280,"Ġdeutsch":5281,"ĠAutos":5282,"ĠheiÃŁt":5283,"!!!!!!!!":5284,"nahmen":5285,"ĠRock":5286,"ĠeinigermaÃŁen":5287,"ĠStufen":5288,"gesprochen":5289,"Ġzerkratzt":5290,"brille":5291,"wenn":5292,"Ġnich":5293,"ĠAchtung":5294,"ĠDem":5295,"Ġschafft":5296,"ĠKont":5297,"ĠWinkel":5298,"Ġgepol":5299,"Ġaufbauen":5300,"Ġauftragen":5301,"Ġtr":5302,"ĠNie":5303,"ĠRes":5304,"Ã¤ng":5305,"ĠÃ¼berteuert":5306,"uckt":5307,"blick":5308,"Ġentweder":5309,"ĠOrg":5310,"Ġgeschlossen":5311,"indern":5312,"Ġangezeigt":5313,"Ġangegossen":5314,"Ġihnen":5315,"Ġkomme":5316,"Ġerster":5317,"Ġprom":5318,"ĠWasserkocher":5319,"klein":5320,"ĠGeschmackssache":5321,"Ġdicke":5322,"ĠSchwierig":5323,"ĠLieber":5324,"ĠAdvent":5325,"rÃ¤nke":5326,"ĠSchmutz":5327,"Ġaufgegeben":5328,"lexa":5329,"ĠSchreibtisch":5330,"ĠkrÃ¤ft":5331,"jektiv":5332,"Ġchemisch":5333,"Ġkuschelig":5334,"ĠSensor":5335,"ĠAustausch":5336,".,":5337,"bes":5338,"mann":5339,"od":5340,"yn":5341,"eindruck":5342,"Ġundicht":5343,"Ġkratz":5344,"ĠDro":5345,"ĠFel":5346,"ĠLenk":5347,"ĠTopf":5348,"decken":5349,"Ġverarbei":5350,"Ġausgefallen":5351,"leben":5352,"ĠRot":5353,"ismus":5354,"Ġ11":5355,"ĠSpiele":5356,"Ġbestelle":5357,"Ġspitze":5358,"uerung":5359,"zieht":5360,"drÃ¼cke":5361,"Ã¼bsche":5362,"Ġerfolgt":5363,"ĠflÃ¼ssig":5364,"ĠGriffe":5365,"ĠkÃ¼rzer":5366,"ction":5367,"ĠmittelmÃ¤ÃŁig":5368,"ĠfÃ¼hrt":5369,"Ġ:-(":5370,"cc":5371,"ee":5372,"fri":5373,"gute":5374,"punkte":5375,"ĠunmÃ¶glich":5376,"Ġkalte":5377,"Ġfroh":5378,"ĠDan":5379,"ĠGÃ¤":5380,"ĠHitze":5381,"ĠHome":5382,"ĠMusste":5383,"ĠMega":5384,"ĠMoment":5385,"ĠEier":5386,"ĠSchok":5387,"Ġtyp":5388,"Ġdagegen":5389,"Ġklob":5390,"Ġstren":5391,"ump":5392,"ĠAnbringen":5393,"leiter":5394,"Ġechte":5395,"ĠJog":5396,"astrop":5397,"boden":5398,"fÃ¼hrt":5399,"ĠWindows":5400,"spieler":5401,"ĠSchneller":5402,"ĠTouchs":5403,"ĠAntwort":5404,"Ġkompatibel":5405,"ĠKonsistenz":5406,"blich":5407,"hei":5408,"seits":5409,"ernen":5410,"iegt":5411,"stert":5412,"asy":5413,"ĠmÃ¼h":5414,"ĠSehen":5415,"Ã¤ss":5416,"Ġeingesetzt":5417,"ĠkÃ¼nst":5418,"Ġflau":5419,"Ġzuhause":5420,"ĠDrei":5421,"scha":5422,"ure":5423,"urm":5424,"rost":5425,"ĠMel":5426,"Ġreg":5427,"umpen":5428,"iene":5429,"Ġwenige":5430,"ester":5431,"Ġdarunter":5432,"Ġangef":5433,"ĠGeldbeutel":5434,"aschinen":5435,"ĠSchluss":5436,"Ġrobu":5437,"ĠPuzz":5438,"ĠSauger":5439,"ĠTropfen":5440,"ĠSchlafzimmer":5441,"ĠWaschmaschine":5442,"hilfe":5443,"ĠMinuspunkt":5444,"Ġgesamte":5445,"Ã¶psel":5446,"Ġintegr":5447,"Ent":5448,"HL":5449,"bÃ¶rse":5450,"ca":5451,"karten":5452,"vert":5453,"iebt":5454,"ance":5455,"ĠSend":5456,"Ġunbesch":5457,"Ġbrechen":5458,"Ġhaupt":5459,"Ġfumm":5460,"ĠAhnung":5461,"ĠIr":5462,"Ġto":5463,"ĠVert":5464,"lefon":5465,"ĠNase":5466,"ĠRinge":5467,"ĠStar":5468,"arbeit":5469,"ĠÃ¼berein":5470,"ĠÃ¼berstanden":5471,"Ġseinem":5472,"ĠGefÃ¤llt":5473,"Ġspezie":5474,"ĠdrÃ¼ber":5475,"Ġunterst":5476,"Ġkurzem":5477,"ĠUhren":5478,"ummi":5479,"ĠlÃ¤ngeren":5480,"ĠÃľberrasch":5481,"Ġwertigen":5482,"Ġirgendwo":5483,"ĠFlop":5484,"ĠLEDs":5485,"ĠhÃ¶ch":5486,"ĠHaushalt":5487,"ĠFront":5488,"scheibe":5489,"ĠScheiben":5490,"ĠThermometer":5491,"Ġkinderleicht":5492,"Genau":5493,"ĠPlastikt":5494,"HÃ¼lle":5495,"Ġgriff":5496,"Ġwollten":5497,"Ġblo":5498,"ond":5499,"ĠAbl":5500,"ĠDabei":5501,"ĠMich":5502,"ĠMicro":5503,"ĠTor":5504,"Ġbeiliegen":5505,"raut":5506,"warten":5507,"Ġumge":5508,"ĠgerÃ¤t":5509,"ĠBean":5510,"rim":5511,"Ġangenehme":5512,"esso":5513,"ession":5514,"ĠgrÃ¶ÃŁe":5515,"ĠBeschichtung":5516,"ĠMeiner":5517,"Ġhochwertige":5518,"antie":5519,"ĠNav":5520,"Ã¼bel":5521,"Ġnormalerweise":5522,"appen":5523,"eintrÃ¤cht":5524,"izz":5525,"innt":5526,"Ġangegebenen":5527,"feld":5528,"melder":5529,"ĠGerÃ¤ten":5530,"Ġbewegt":5531,"Soweit":5532,"ĠStrand":5533,"Ġstarke":5534,"ĠSaugleistung":5535,"Ġerscheint":5536,"ĠHintergrund":5537,"ĠBeschÃ¤dig":5538,"prÃ¼":5539,"rt":5540,"ĠÃ¤ndern":5541,"Ġsetzen":5542,"Ġsterne":5543,"unkel":5544,"Ġeinschalten":5545,"bern":5546,"ĠFer":5547,"urs":5548,"ĠHalten":5549,"rocknet":5550,"Ġinvest":5551,"Ġvergessen":5552,"Ġausger":5553,"ĠRÃ¤nder":5554,"ama":5555,"ĠAnd":5556,"ĠAnten":5557,"Ġabgefallen":5558,"ikation":5559,"weils":5560,"Ġechter":5561,"Ġvorgesehen":5562,"Ġentgegen":5563,"weren":5564,"ĠBuchst":5565,"Ġvoller":5566,"Ġeigene":5567,"ĠðŁĳ":5568,"Ġkleineren":5569,"Ġverbessert":5570,"Wirklich":5571,"beitet":5572,"Ġverwendbar":5573,"Ġfreuen":5574,"ĠMotive":5575,"ĠSolar":5576,"Ġunterschiedliche":5577,"laufzeit":5578,"ĠTipps":5579,"ĠTÃ¼te":5580,"ĠMÃ¤dchen":5581,"Ġzerbrochen":5582,"Ġunglaub":5583,"ĠHobby":5584,"ĠAbstrich":5585,"Ġreibungslos":5586,"Auch":5587,"futter":5588,"mach":5589,"ziert":5590,"ĠSD":5591,"Ġaust":5592,"Ã¶s":5593,"Ã¼re":5594,"ĠBlau":5595,"ĠKer":5596,"ĠKosten":5597,"ĠEd":5598,"ĠVibr":5599,"Ġran":5600,"ĠRut":5601,"pfer":5602,"ĠErn":5603,"Ġdiesmal":5604,"ĠAllem":5605,"ĠlÃ¤ÃŁt":5606,"Ġdringend":5607,"Ġjeweils":5608,"Ġselben":5609,"ĠSchulter":5610,"ĠMitt":5611,"ĠgemÃ¼tlich":5612,"Ġhandhaben":5613,"Ġengl":5614,"Verarbeitung":5615,"ĠÃ¼berzeugen":5616,"ĠHÃ¤nden":5617,"Ġscharfkant":5618,"siehe":5619,"ĠZÃ¤hne":5620,"!)":5621,"Am":5622,"Book":5623,"Wunder":5624,"haus":5625,"ifte":5626,"li":5627,"uff":5628,"anter":5629,"Ġbele":5630,"Ġeinsetzbar":5631,"ĠzunÃ¤chst":5632,"Ġfol":5633,"ĠfÃ¤ngt":5634,"igungs":5635,"itch":5636,"ĠDopp":5637,"Ġschaltet":5638,"elkontakt":5639,"urte":5640,"ĠEing":5641,"orgt":5642,"ĠRichtung":5643,"ampen":5644,"weiter":5645,"ĠSpitzen":5646,"Ã¶rter":5647,"Ġgeraten":5648,"ĠCool":5649,"ĠAbsolute":5650,"Ġ36":5651,"Ġerwarte":5652,"Schade":5653,"braucht":5654,"essel":5655,"Ġberichten":5656,"Ġhochwertiges":5657,"ĠAkkulaufzeit":5658,"ĠFunktionalitÃ¤t":5659,"hÃ¶ren":5660,"Ansich":5661,"ĠOberteil":5662,"ĠGrundsÃ¤tzlich":5663,"ĠGroÃŁe":5664,"Ġmeistens":5665,"Ġblaue":5666,"ĠverfÃ¤rbt":5667,"ĠÃ¶fters":5668,"Ġstarken":5669,"Ġaktiv":5670,"schmerzen":5671,"ĠTaste":5672,"Ġnotwendig":5673,"Ġwitzig":5674,"Ġflexibel":5675,"ĠStauraum":5676,"Ġeindeutig":5677,"schaften":5678,"hÃ¶":5679,"haar":5680,"line":5681,"out":5682,"zig":5683,"eid":5684,"Ġsilber":5685,"Ġbraun":5686,"Ġhielt":5687,"ĠAlexa":5688,"ĠKaufen":5689,"ĠFell":5690,"ĠHoffe":5691,"ĠMass":5692,"ĠMark":5693,"Ġinkl":5694,"Ġaufs":5695,"Ġtrau":5696,"isiert":5697,"Ġweiche":5698,"ĠEinstellungen":5699,"Ġeventuell":5700,"ahre":5701,"Ġgenerell":5702,"Ġreklam":5703,"ĠKlem":5704,"ĠangekÃ¼n":5705,"ĠGeldbÃ¶rse":5706,"hafte":5707,"ĠAuge":5708,"Ġnahe":5709,"Ġschmale":5710,"Ġschneidet":5711,"rott":5712,"Ã¼nstiger":5713,"ĠBaumarkt":5714,"problem":5715,"Ġoberen":5716,"ĠÃ¤uÃŁerst":5717,"ĠvernÃ¼nftig":5718,"ĠerwÃ¤hnt":5719,"ĠBreite":5720,"ĠblÃ¶d":5721,"En":5722,"farben":5723,"gurt":5724,"hol":5725,"ii":5726,"idu":5727,"mig":5728,"ollt":5729,"erz":5730,"enken":5731,"Ġsenden":5732,"ieg":5733,"unehmen":5734,"Ġmache":5735,"Ã¤te":5736,"schalter":5737,"ĠLi":5738,"Ġanschauen":5739,"ĠSchwarz":5740,"ĠRisse":5741,"ĠStaff":5742,"entsprechend":5743,"ividu":5744,"Ġ13":5745,"Ġeinfachen":5746,"blatt":5747,"Ġgelaufen":5748,"ĠAufladen":5749,"ĠgewÃ¤hlt":5750,"indert":5751,"platten":5752,"Ġgesendet":5753,"egenheit":5754,"ĠWarm":5755,"teln":5756,"Ġschwier":5757,"etzten":5758,"ignal":5759,"ĠUmwelt":5760,"ippt":5761,"Ġneutral":5762,"Ġarbeitet":5763,"ides":5764,"Ġpositiven":5765,"ĠAlbum":5766,"ĠSticker":5767,"ĠWohnzimmer":5768,"Ġaktuell":5769,"ĠRasierer":5770,"Ġbestellte":5771,"struktion":5772,"Ġmaximal":5773,"Ġruhig":5774,"ĠglÃ¤nzen":5775,"ĠHighl":5776,"ĠLiter":5777,"besondere":5778,"IE":5779,"inke":5780,"Ġnette":5781,"Ġkontakt":5782,"Ã¼rze":5783,"Ġluft":5784,"ĠBund":5785,"ĠKids":5786,"irgend":5787,"ĠWagen":5788,"Ġgebrauch":5789,"Ġaufgeh":5790,"ĠNatur":5791,"edu":5792,"ĠProduktes":5793,"Ġeinfaches":5794,"ags":5795,"orts":5796,"Ġfehler":5797,"ĠðŁ¤":5798,"ĠNachtrag":5799,"Verpackung":5800,"deckel":5801,"ĠPflege":5802,"ĠbenÃ¶tige":5803,"achtens":5804,"Ġoriginalen":5805,"Ġbefindet":5806,"Schneller":5807,"ĠWeihnachtsgeschenk":5808,"ĠVerbesserung":5809,"Ġerledigt":5810,"Ġgepolstert":5811,"Ġklobig":5812,"EI":5813,"oÃŁen":5814,"ente":5815,"ieÃŁ":5816,"Ġweh":5817,"arn":5818,"also":5819,"ĠDach":5820,"ĠSchwer":5821,"Ġmitnehmen":5822,"Ġausgesch":5823,"ĠNerv":5824,"riedig":5825,"ĠEinkauf":5826,"leisch":5827,"ĠÃ¼berlegen":5828,"spÃ¼":5829,"ickel":5830,"fÃ¼ll":5831,"ĠJo":5832,"Ġentsp":5833,"brett":5834,"Ã¤hlen":5835,"Ġausreichen":5836,"ĠUmt":5837,"ĠKnie":5838,"Ġbesonderes":5839,"Ġsoliden":5840,"ĠKombination":5841,"ergie":5842,"Ġsowieso":5843,"ĠLeichte":5844,"ampoo":5845,"ĠvernÃ¼nft":5846,"ĠSupport":5847,"ĠRobust":5848,"ĠWechsel":5849,"Keine":5850,"sal":5851,"zweck":5852,"ŃĲ":5853,"ĠAir":5854,"ĠDinger":5855,"ĠPe":5856,"schlei":5857,"ĠHal":5858,"ĠEssen":5859,"ĠWurde":5860,"ĠgefÃ¼hlt":5861,"Ġinzwischen":5862,"Ġverstellen":5863,"ĠaufhÃ¤ngen":5864,"ĠZwischen":5865,"ierend":5866,"Ã¤nd":5867,"ĠEinige":5868,"Ġkleinem":5869,"Ġvorstellen":5870,"Ġgerecht":5871,"Ġbislang":5872,"ĠGeschichten":5873,"Ġdrunter":5874,"Ġbeschweren":5875,"astisch":5876,"Ã¼ssigkeit":5877,"Ġbillige":5878,"Ġstellt":5879,"Ġrosa":5880,"Ġdrinnen":5881,"ĠMake":5882,"ĠÃ¶ffnet":5883,"ĠKlebestreifen":5884,"ĠeingeschrÃ¤nkt":5885,"ĠPlayer":5886,"klappen":5887,"Ġverrutscht":5888,"ĠFalsche":5889,"ĠSchnee":5890,"Ġmorgens":5891,"Perfekt":5892,"ĠTouchscreen":5893,"ĠhauptsÃ¤chlich":5894,"WÃ¼rde":5895,"gn":5896,"iemlich":5897,"Ã¼che":5898,"ĠBein":5899,"ĠFÃ¼":5900,"ĠFragen":5901,"ĠMisch":5902,"ĠEltern":5903,"ĠTeller":5904,"Ġanstatt":5905,"Ġinform":5906,"Ġverw":5907,"ĠRÃ¤um":5908,"isk":5909,"Ġentsprach":5910,"Ġleichtes":5911,"Ġdreht":5912,"Ġgibts":5913,"Ġweiteres":5914,"ĠReakt":5915,"Ġselbe":5916,"Ġunterhaltsam":5917,"ðŁĺ":5918,"ĠManchmal":5919,"ĠdÃ¼nnen":5920,"ĠPlatte":5921,"hÃ¶rern":5922,"rÃ¼m":5923,"Ġlauter":5924,"Ġfunktional":5925,"Ġbemerkt":5926,"ĠDamen":5927,"Einfache":5928,"Ġbewusst":5929,"gÃ¤nzung":5930,"Ġdauerhaft":5931,"ĠMikrofon":5932,"Ġrundum":5933,"ĠErfahrungen":5934,"ĠDeutsch":5935,"Ġvergleichen":5936,"ĠDusche":5937,"ĠJederzeit":5938,"Ãľber":5939,"Ġausgetauscht":5940,"gerÃ¤usche":5941,"riedigend":5942,"ĠUmtausch":5943,"Beim":5944,"beln":5945,"bÃ¼gel":5946,"je":5947,"pumpe":5948,"Ã¼te":5949,"Ġnah":5950,"are":5951,"ĠDi":5952,"Ġscheinbar":5953,"ĠLange":5954,"roid":5955,"ĠTimer":5956,"ĠWor":5957,"ĠprÃ¤z":5958,"Ġaufgeladen":5959,"ĠNacken":5960,"ĠAnwend":5961,"Ġabnehmen":5962,"weisung":5963,"angabe":5964,"ĠenthÃ¤lt":5965,"Ã¤rben":5966,"Ġdurchdacht":5967,"ppchen":5968,"ĠRezess":5969,"........":5970,"ĠDisplays":5971,"appy":5972,"ĠSchwach":5973,"ĠLadestation":5974,"Ġrutschig":5975,"probieren":5976,"Ġhoher":5977,"Ã¼nktliche":5978,"ĠNummern":5979,"ĠMarkt":5980,"meldung":5981,"Ġeinzelne":5982,"unkeln":5983,"Ġ2018":5984,"Klein":5985,"Ġvergleichbar":5986,"ĠzusÃ¤tzliche":5987,"ĠWackelkontakt":5988,"Ġelegant":5989,":)":5990,"ON":5991,"heiten":5992,"iÃŁ":5993,"ou":5994,"oss":5995,"chlich":5996,"Ġabend":5997,"einfach":5998,"Ġgingen":5999,"asi":6000,"Ġeinget":6001,"Ġfuss":6002,"ĠAqu":6003,"ĠDicht":6004,"atik":6005,"Ã¼rzt":6006,"elte":6007,"Ġlanger":6008,"rollen":6009,"ĠMau":6010,"ĠWatt":6011,"ĠWatch":6012,"Ġgebl":6013,"Ġgepl":6014,"Ġgezogen":6015,"ĠbeeintrÃ¤cht":6016,"ĠRiss":6017,"ĠZahlen":6018,"isieren":6019,"ĠAnlage":6020,"ĠErachtens":6021,"geld":6022,"gelaufen":6023,"werter":6024,"Ġdezent":6025,"Ġbenutz":6026,"Ġdargestellt":6027,"stÃ¤nd":6028,"board":6029,"ĠUnterseite":6030,"ĠUnterhaltung":6031,"Ġenorm":6032,"ĠHaaren":6033,"Ġnormaler":6034,"Ġgestern":6035,"ĠArbeiten":6036,"Ġtrocknen":6037,"handlich":6038,"Ġansich":6039,"holen":6040,"knopf":6041,"ĠGarantie":6042,"skalender":6043,"ĠHDMI":6044,"Ġsepar":6045,"strahl":6046,"rÃ¤nkungen":6047,"standslos":6048,"schnittlich":6049,"ĠFliesen":6050,"ĠmÃ¤ÃŁig":6051,"ĠGÃ¤ste":6052,"AB":6053,"Material":6054,"Ob":6055,"bis":6056,"mÃ¶":6057,"ote":6058,"rand":6059,"erklÃ¤r":6060,"Ġgrob":6061,"ĠSamm":6062,"Ġungenau":6063,"ckner":6064,"ĠPor":6065,"ĠPhil":6066,"ĠPizz":6067,"ĠschlÃ¤":6068,"schung":6069,"ĠFort":6070,"ĠTats":6071,"ĠTeilen":6072,"Ġanscheinend":6073,"Ġverurs":6074,"ĠrÃ¼ck":6075,"ĠgenÃ¼gend":6076,"Ġgelohnt":6077,"ĠAufwand":6078,"Ġspiel":6079,"ruckt":6080,"Ġerstattet":6081,"ĠReifen":6082,"ĠWeiÃŁ":6083,"Ġbehalte":6084,"istisch":6085,"Ġerkenn":6086,"renz":6087,"ĠErwartung":6088,"Ġfalschen":6089,"Ġtrocknet":6090,"lÃ¶sen":6091,"ĠfrÃ¼h":6092,"fluss":6093,"Ġbezahlen":6094,"ĠBewegungs":6095,"korb":6096,"iebig":6097,"ĠKorb":6098,"ĠAndere":6099,"ĠAufbewahrungs":6100,"ĠEtui":6101,"Ġerforderlich":6102,"Ġgelegentlich":6103,"ĠInformationen":6104,"ĠMÃ¶bel":6105,"ĠTechnik":6106,"ombenfest":6107,"ĠAndroid":6108,"ĠBuchstaben":6109,"UN":6110,"hat":6111,"mas":6112,"Ġset":6113,"Ġat":6114,"einsatz":6115,"Ġwin":6116,"ĠSzen":6117,"ĠSÃ¤ge":6118,"Ã¤digt":6119,"Ġeingerissen":6120,"ĠfÃ¤hrt":6121,"ĠDir":6122,"Ġlernen":6123,"ĠgefÃ¼llt":6124,"ĠgedrÃ¼ckt":6125,"Ġerhe":6126,"Ġpr":6127,"rade":6128,"ĠZiff":6129,"amin":6130,"ĠOut":6131,"Ġabsolute":6132,"wartet":6133,"Ġeffekt":6134,"Ġdessen":6135,"Ã¤rter":6136,"ĠGeschwindigkeit":6137,"Ġsparen":6138,"ĠBuches":6139,"Ġwenigstens":6140,"schieben":6141,"ĠBlÃ¤tter":6142,"Ġbrauch":6143,"ummel":6144,"Ġabsoluter":6145,"Ġ200":6146,"gemacht":6147,"teilung":6148,"ĠMÃ¤nner":6149,"wickelt":6150,"Ġbekannt":6151,"???":6152,"armband":6153,"ĠHÃ¶hen":6154,"ĠSolide":6155,"ĠTemperaturen":6156,"Ġunterschiedlichen":6157,"scheidung":6158,"dient":6159,"ĠBeginn":6160,"filter":6161,"ĠSchlecht":6162,"bÃ¼rsten":6163,"Ġinstalliert":6164,"odell":6165,"phones":6166,"ĠMÃ¼he":6167,"Ġdunkler":6168,"ĠPads":6169,"ĠLocken":6170,"Ġhoffentlich":6171,"Ġtransportieren":6172,"Ġerstaunlich":6173,"Ġindividu":6174,"ĠSchwierigkeiten":6175,"Ġflauschig":6176,"Hand":6177,"PD":6178,"PS":6179,"XL":6180,"ellen":6181,"fertigt":6182,"greifen":6183,"leh":6184,"nungen":6185,"pu":6186,"ton":6187,"Ġmachte":6188,"Ã¤mm":6189,"Ġblieb":6190,"Ġeinsetzen":6191,"Ġeinstellbar":6192,"Ġzuges":6193,"schau":6194,"Ġliefer":6195,"ĠFett":6196,"ĠTre":6197,"ĠWichtig":6198,"Ġerz":6199,"Ã¤tt":6200,"Ġbeweg":6201,"Ġbedenken":6202,"ĠStativ":6203,"ĠAngel":6204,"Ġweiss":6205,"ĠHandschuh":6206,"ĠCan":6207,"Ġ38":6208,"bruch":6209,"ĠZukunft":6210,"hÃ¤ltn":6211,"ĠwÃ¤hlen":6212,"Ġteuren":6213,"ĠBlut":6214,"ĠreiÃŁt":6215,"ĠÃľbergang":6216,"ĠFlÃ¼ssigkeit":6217,"Ġausgest":6218,"Ġausgezeichnet":6219,"ĠerhÃ¶":6220,"ĠMÃ¤ngeln":6221,"ĠSprache":6222,"ĠGrunde":6223,"Ġfehlten":6224,"Ġquiet":6225,"ĠNÃ¤gel":6226,"ĠHosentasche":6227,"Ġsaugt":6228,"ĠEinschrÃ¤nkungen":6229,"ĠTerr":6230,"schlieÃŁend":6231,"ĠunnÃ¶tig":6232,"ĠBÃ¤lle":6233,"Geschmack":6234,"ĠAdventskalender":6235,"ĠÃľberraschung":6236,"Bo":6237,"EIN":6238,"Nur":6239,"Set":6240,"Viel":6241,"kÃ¶":6242,"lig":6243,"papier":6244,"sieht":6245,"Ġsamm":6246,"inner":6247,"Ġunhandlich":6248,"Ġfiel":6249,"ĠPh":6250,"ĠPÃ¤ckchen":6251,"ĠGraf":6252,"ĠHÃ¼":6253,"ĠMix":6254,"Ġanst":6255,"reichen":6256,"Ġaufget":6257,"ĠVit":6258,"Ġausschalten":6259,"Ġbeachten":6260,"leuchte":6261,"ĠRost":6262,"rax":6263,"ĠZange":6264,"ĠZigar":6265,"Ġnachbe":6266,"Ġallgemein":6267,"sprÃ¼":6268,"Ġvorallem":6269,"blau":6270,"ĠgroÃŁartig":6271,"ĠOrt":6272,"tzlich":6273,"lÃ¤uft":6274,"enkte":6275,"utton":6276,"Ġpassenden":6277,"ĠKopfhÃ¶rern":6278,"ĠVorstellungen":6279,"hahn":6280,"imeter":6281,"Ġseitlich":6282,"ĠdÃ¼nnes":6283,"ĠWeise":6284,"ĠKnÃ¶":6285,"zeuge":6286,"Ġordentliche":6287,"Ġhalbe":6288,"Ġ90":6289,"ĠDampf":6290,"Ġmehrmaligem":6291,"ĠkÃ¼rzen":6292,"ĠBesteck":6293,"wechs":6294,"Ġdauerte":6295,"Ġbestellten":6296,"ĠNettes":6297,"auernd":6298,"Ġsimpel":6299,"Ġelektr":6300,"Ġprompt":6301,"ĠAntenne":6302,"ĠangekÃ¼ndigt":6303,"AT":6304,"Finde":6305,"Ja":6306,"LÃ¤":6307,"UR":6308,"Um":6309,"sÃ¤":6310,"ule":6311,"volle":6312,"Ġ=":6313,"Ġon":6314,"Ġwusste":6315,"Ġnirgend":6316,"ĠSl":6317,"ĠSitzt":6318,"Ġbein":6319,"onen":6320,"Ġform":6321,"ĠGold":6322,"ĠFliegen":6323,"ĠMe":6324,"ĠMed":6325,"ĠTassen":6326,"Ġankommt":6327,"Ġgebo":6328,"ĠSchloss":6329,"Ġverbr":6330,"Ġauft":6331,"Ġausg":6332,"ĠNamen":6333,"Ġretour":6334,"Ġwarme":6335,"ĠRÃ¤ndern":6336,"ierter":6337,"ĠVerpack":6338,"aming":6339,"isplay":6340,"geruch":6341,"ĠHandling":6342,"geleg":6343,"Ġvorn":6344,"Ġgeringen":6345,"Ġdritten":6346,"ĠRezept":6347,"ĠzurÃ¼cksenden":6348,"Ġerstes":6349,"antwor":6350,"wiesen":6351,"ĠÃľbungen":6352,"Ġbilligen":6353,"ĠhinterlÃ¤sst":6354,"Ġbetrifft":6355,"ĠSilber":6356,"ĠÃ¼brigen":6357,"ĠGeburtstags":6358,"ĠWunderschÃ¶n":6359,"polster":6360,"Ġerreicht":6361,"ĠÃ¤ltere":6362,"reiniger":6363,"Ġmodern":6364,"Ġdiverse":6365,"ĠPflanzen":6366,"omputer":6367,"ĠDetails":6368,"ĠgrÃ¶sser":6369,"ĠHoffnung":6370,"ĠKlingel":6371,"ĠPassgenauigkeit":6372,"ĠDanach":6373,"akte":6374,"bet":6375,"grÃ¼n":6376,"merk":6377,"ys":6378,"Ġmel":6379,"ins":6380,"Ã¼ten":6381,"ĠSat":6382,"ĠSha":6383,"Ġunauf":6384,"Ġiden":6385,"test":6386,"auglich":6387,"atronen":6388,"eling":6389,"etwas":6390,"ĠBast":6391,"ĠLÃ¶ffel":6392,"ĠHeim":6393,"ĠEl":6394,"Ġand":6395,"ĠplÃ¶":6396,"ĠSchale":6397,"ĠSchÃ¤den":6398,"Ġversen":6399,"Ġmitte":6400,"Ġausfallen":6401,"ragt":6402,"Ġnachvoll":6403,"ĠEinmal":6404,"leid":6405,"spielen":6406,"Ġ17":6407,"Schm":6408,"ĠEnd":6409,"Ġkomfort":6410,"ĠDisplayschutz":6411,"ĠArmbÃ¤nder":6412,"gefÃ¤hr":6413,"izierte":6414,"ĠbestÃ¤tigen":6415,"idee":6416,"Ġrote":6417,"ĠFahrt":6418,"ĠKonstruktion":6419,"ĠÃ¼berraschend":6420,"Ġgespielt":6421,"ĠZufriedenheit":6422,"ĠðŁĳįðŁı»":6423,"Ã¼nstige":6424,"Ġfreundlich":6425,"Ġeinzustellen":6426,"GerÃ¤t":6427,"ĠAufbewahrung":6428,"ĠMakel":6429,"ĠRoman":6430,"Ġscharfkantig":6431,"ĠTatsache":6432,"ĠGrafik":6433,"AS":6434,"Farbe":6435,"Klasse":6436,"aste":6437,"bir":6438,"besser":6439,"illen":6440,"kg":6441,"lin":6442,"lan":6443,"unikation":6444,"anhÃ¤nger":6445,"ĠBor":6446,"irn":6447,"ĠWÃ¶rter":6448,"ĠSchein":6449,"ĠSchlÃ¤":6450,"Ġteils":6451,"Ġsiehe":6452,"ĠausfÃ¼hr":6453,"ĠPreiswert":6454,"sensor":6455,"umin":6456,"ackt":6457,"ĠStimm":6458,"spann":6459,"Ġdrum":6460,"adet":6461,"Ġtelefon":6462,"ĠUhrzeit":6463,"Ġschicke":6464,"rans":6465,"ĠKomfort":6466,"Ġplus":6467,"paratur":6468,"ĠErgebnisse":6469,"ĠAnforder":6470,"Ġjedesmal":6471,"ĠNeben":6472,"ĠBaumw":6473,"ĠKlammern":6474,"Ġaltes":6475,"ĠStrahler":6476,"ĠFehlkauf":6477,"ĠÃĦrmel":6478,"Ġfarblich":6479,"Ġlesbar":6480,"ĠCharaktere":6481,"Ġstreng":6482,"astrophe":6483,"ĠkÃ¼nstlich":6484,"ĠSendung":6485,"iÃŁchen":6486,"Ġgeblieben":6487,"Ġerkennbar":6488,"Praktisch":6489,"UT":6490,"cei":6491,"gaben":6492,"kur":6493,"met":6494,"musch":6495,"mpel":6496,"oÃŁ":6497,"zut":6498,"Â°":6499,"Ġ.....":6500,"Ġgeil":6501,"Ġgrad":6502,"anlage":6503,"Ġnen":6504,"ĠSignal":6505,"Ġfett":6506,"ĠHart":6507,"ĠMorgen":6508,"ĠWÃ¼n":6509,"ĠSchÃ¤r":6510,"Ġverdient":6511,"ĠRat":6512,"geliefert":6513,"Ġvorbei":6514,"wertung":6515,"gebracht":6516,"Ġspannen":6517,"Ġhergestellt":6518,"Ġgenauer":6519,"ĠArtikelbeschreibung":6520,"logen":6521,"Ġinsbesondere":6522,"zeugt":6523,"Versand":6524,"ĠGlÃ¼h":6525,"ĠKleink":6526,"ĠFahrzeug":6527,"ĠSchnÃ¼r":6528,"flÃ¤chen":6529,"ĠsÃ¼ÃŁe":6530,"ĠMail":6531,"000":6532,"Ġpositive":6533,"ĠModelle":6534,"iegelt":6535,"Ġdaneben":6536,"Ġverteilt":6537,"ĠDarum":6538,"ĠLeuchtkraft":6539,"ĠTÃ¼ten":6540,"Ġunbequem":6541,"Ġausgelaufen":6542,"Ġverbesserungs":6543,"nehmbar":6544,"ĠFingerabdruck":6545,"sspuren":6546,"Ġinvestieren":6547,"ĠMittlerweile":6548,"ĠHighlight":6549,"ĠbeeintrÃ¤chtigt":6550,"ceiver":6551,"99":6552,"IT":6553,"OS":6554,"Ste":6555,"mess":6556,"rum":6557,"ieber":6558,"unken":6559,"Ġgol":6560,"Ġgucken":6561,"Ġwann":6562,"inten":6563,"ĠungefÃ¤hr":6564,"unge":6565,"ĠAction":6566,"bereit":6567,"ĠPS":6568,"atmig":6569,"Ġschieben":6570,"ĠGing":6571,"ĠGren":6572,"ÃŁlich":6573,"Ġpfle":6574,"ĠSchritt":6575,"Ã¤tzen":6576,"ĠVo":6577,"Ġras":6578,"hrt":6579,"ĠZelt":6580,"Ġnachts":6581,"ufe":6582,"ikel":6583,"ĠSpray":6584,"Ġvorder":6585,"fÃ¼gt":6586,"Ġkeines":6587,"Ã¤rgert":6588,"Ġsport":6589,"sonst":6590,"enkel":6591,"bstil":6592,"Ġhingegen":6593,"ĠSchuhen":6594,"Ġprodu":6595,"ĠPlatten":6596,"ĠVersandkosten":6597,"ĠDecken":6598,"Ġdicken":6599,"Ġbequemer":6600,"Ġsteckt":6601,"ĠEntfern":6602,"ĠFormen":6603,"ĠReinigungs":6604,"ĠZusatz":6605,"Ġvermeiden":6606,"ĠgegenÃ¼ber":6607,"Ġobere":6608,"Ġquasi":6609,"Ġplatzsparend":6610,"ĠLegg":6611,"ĠLieblings":6612,"Endlich":6613,"HÃ¤tte":6614,"cl":6615,"fs":6616,"keln":6617,"markt":6618,"Ġur":6619,"chel":6620,"iell":6621,"unsch":6622,"Ġalter":6623,"Ġwider":6624,"Ġmatt":6625,"Ġbasteln":6626,"Ġbombenfest":6627,"Ġheil":6628,"Ġkochen":6629,"ĠkÃ¼hl":6630,"ĠDHL":6631,"ĠDÃ¼bel":6632,"ĠDunkel":6633,"aube":6634,"Ġschrauben":6635,"ĠKlass":6636,"Ġangesprochen":6637,"Ġessen":6638,"Ġsooo":6639,"Ġersetzen":6640,"Ġint":6641,"ĠSchild":6642,"Ġverarbeitung":6643,"Ġverklebt":6644,"ĠverfÃ¼g":6645,"Ġtiefer":6646,"Ġausgeb":6647,"ĠNutz":6648,"ila":6649,"ĠVerd":6650,"Ġweitem":6651,"weich":6652,"ĠÃ¼berlebt":6653,"icks":6654,"ĠErgÃ¤nzung":6655,"Ġgeringer":6656,"Ġgerochen":6657,"ĠCap":6658,"Ġgefertigt":6659,"ĠGeschick":6660,"Ġgewissen":6661,"Ã¼hen":6662,"ĠNachbar":6663,"ĠSchule":6664,"ĠStempel":6665,"ĠMaterialien":6666,"ĠFilz":6667,"ĠWasserhahn":6668,"Ġgehofft":6669,"ĠSony":6670,"stÃ¤nder":6671,"ĠSchutzglas":6672,"ĠNachtlicht":6673,"ĠEinzel":6674,"ĠSchwester":6675,"Ġsolchen":6676,"ĠEntspricht":6677,"ĠSchuhgrÃ¶ÃŁe":6678,"ĠKater":6679,"ĠKlangqualitÃ¤t":6680,"ĠMax":6681,"ĠKompl":6682,"Ġbieten":6683,"ĠBelast":6684,"ĠEmpfÃ¤nger":6685,"Ġjemanden":6686,"ĠFestplatte":6687,"ĠLese":6688,"ĠFlÃ¤chen":6689,"ĠBriefkasten":6690,"ĠNotebook":6691,"ĠSeife":6692,"ĠSchubladen":6693,"ĠbloÃŁ":6694,"Ġunglaublich":6695,"ĠStaffel":6696,"Ġabends":6697,"kÃ¶mm":6698,"ĠplÃ¶tzlich":6699,"bus":6700,"nimmt":6701,"normal":6702,"ole":6703,"uder":6704,"ers":6705,"Ġwor":6706,"Ã¼ssen":6707,"Ġbild":6708,"arre":6709,"ĠAcc":6710,"ĠDraht":6711,"Ġschlei":6712,"Ġlicht":6713,"abiner":6714,"ĠKil":6715,"urcht":6716,"ĠHub":6717,"gebe":6718,"Ġtrag":6719,"leder":6720,"lseitig":6721,"oppen":6722,"ĠÃ¼bersichtlich":6723,"Ġeasy":6724,"ĠSieb":6725,"ĠAufsÃ¤tze":6726,"ĠKlingen":6727,"maÃŁ":6728,"Ġgesetzt":6729,"Ġangezogen":6730,"Ġangenehmen":6731,"ĠKinderzimmer":6732,"ĠlÃ¤ngerer":6733,"eichnen":6734,"Ġbedient":6735,"Ġkomplette":6736,"schuhen":6737,"ĠApps":6738,"Ġhelle":6739,"ĠSchnur":6740,"ĠbenÃ¶tig":6741,"ĠSchmerzen":6742,"behÃ¤lter":6743,"ĠRohr":6744,"ĠkÃ¼rze":6745,"ĠLeuchtmittel":6746,"ĠLangzeit":6747,"ĠHandtÃ¼cher":6748,"Ġniedrig":6749,"ĠLego":6750,"ĠAktiv":6751,"ĠSchokol":6752,"ĠunbeschÃ¤digt":6753,"ĠDoppel":6754,"AR":6755,"Danke":6756,"ES":6757,"LL":6758,"Leicht":6759,"aa":6760,"frage":6761,"gs":6762,"haut":6763,"mut":6764,"mehr":6765,"nes":6766,"ugen":6767,"uern":6768,"enz":6769,"Ġdeckt":6770,"einigt":6771,"Ġmon":6772,"Ġnein":6773,"Ġhaar":6774,"Ġzuviel":6775,"ĠPop":6776,"atzen":6777,"schale":6778,"Ġla":6779,"ĠLeine":6780,"ĠEimer":6781,"ĠTab":6782,"ĠTotal":6783,"Ġanstandslos":6784,"ĠWeich":6785,"ĠSchÃ¼tzt":6786,"ĠSchweiÃŁ":6787,"ĠIsol":6788,"Ġrasch":6789,"ĠRetour":6790,"ĠVerf":6791,"ĠVerz":6792,"Ġstimm":6793,"ĠStyl":6794,"Ġdementsprechend":6795,"lende":6796,"ĠAnsicht":6797,"rauen":6798,"ĠDass":6799,"gerÃ¤te":6800,"spro":6801,"ĠSpannend":6802,"Ġentsteht":6803,"Ġgeringe":6804,"ĠCam":6805,"Ġ39":6806,"Ġgeld":6807,"ĠAufsatz":6808,"ĠAufdruck":6809,"ontage":6810,"ĠWerte":6811,"ĠBlumen":6812,"Ġbeginnt":6813,"Ġbesitzt":6814,"Ġenger":6815,"ĠKatastrophe":6816,"ĠðŁĺī":6817,"ĠKante":6818,"Ġ70":6819,"Ġhinterlassen":6820,"ĠTÃ¼ren":6821,"ĠHochwertig":6822,"ĠdÃ¼rfen":6823,"knÃ¶pfe":6824,"flekt":6825,"ĠKommunikation":6826,"Ġverzichten":6827,"----------------":6828,"Ġfairen":6829,"sehbar":6830,"Ġbeanstanden":6831,"rÃ¼mpfe":6832,"GrÃ¶ÃŁ":6833,"Re":6834,"Sehen":6835,"ake":6836,"matte":6837,"zunehmen":6838,"unnen":6839,"stab":6840,"ara":6841,"Ġkabel":6842,"Ġfeucht":6843,"ĠfÃ¤rbt":6844,"ita":6845,"ement":6846,"ĠPrax":6847,"Ġleck":6848,"ĠGas":6849,"ĠGitter":6850,"ĠFalten":6851,"ĠLu":6852,"ĠWC":6853,"ocht":6854,"Ġgesteckt":6855,"ĠgeÃ¤ndert":6856,"ĠSchal":6857,"Ġverwir":6858,"Ġtauschen":6859,"Ġtrain":6860,"Ġredu":6861,"ĠZehen":6862,"ĠStÃ¶r":6863,"Ġabger":6864,"ĠEinwandfrei":6865,"ĠEinrichtung":6866,"ike":6867,"Ġentstehen":6868,"ĠgerÃ¤um":6869,"ĠCamp":6870,"schlauch":6871,"glichen":6872,"Ġneuer":6873,"ĠKaufpreis":6874,"Ġvollen":6875,"Ġunsauber":6876,"Ġschwitzt":6877,"zieher":6878,"ervor":6879,"haken":6880,"ĠGanze":6881,"Angenehm":6882,"ĠHerren":6883,"ĠFreunde":6884,"ĠlÃ¶ste":6885,"ĠGewissen":6886,"Ġpreislich":6887,"gemÃ¤ÃŁ":6888,"mÃ¤ÃŁige":6889,"ĠMontag":6890,"âĢĻ":6891,"ĠnÃ¤chstes":6892,"Ġhalte":6893,"ĠZusÃ¤tzlich":6894,"ĠSchmeckt":6895,"Ġnettes":6896,"ĠTracker":6897,"ĠReiÃŁverschlÃ¼sse":6898,"ĠMÃ¶glichkeiten":6899,"Ġletztendlich":6900,"ĠSchreibstil":6901,"ĠÃ¼blich":6902,"ĠMacBook":6903,"ĠÃ¼bertrieben":6904,"ĠSwitch":6905,"freundlich":6906,"Ġdekorativ":6907,"ynch":6908,"ĠBeanstand":6909,"ĠNavi":6910,"ĠGlÃ¼hbir":6911,"Den":6912,"Durch":6913,"Positiv":6914,"kamera":6915,"lÃ¼ften":6916,"macht":6917,"maschinen":6918,"Ġ!!!!":6919,"erei":6920,"Ġml":6921,"ĠhÃ¤rter":6922,"telt":6923,"itu":6924,"iten":6925,"Ġlinken":6926,"ĠKart":6927,"ĠKrÃ¤":6928,"ĠKeller":6929,"ĠHut":6930,"ĠHalte":6931,"ĠMama":6932,"ĠEtik":6933,"ĠTiere":6934,"reib":6935,"Ġgebogen":6936,"ĠSchlie":6937,"ĠSchabl":6938,"leuchten":6939,"ĠRasen":6940,"Ġklass":6941,"umor":6942,"ĠAnsprÃ¼":6943,"ĠBestens":6944,"ĠArme":6945,"ĠInteress":6946,"ĠSofa":6947,"heben":6948,"ĠAuftragen":6949,"gebung":6950,"gebnis":6951,"ĠherkÃ¶mm":6952,"ĠVerarbeitungs":6953,"Ġcoole":6954,"rÃ¤g":6955,"Ġschlechtes":6956,"Ġgehe":6957,"ĠPlane":6958,"ĠreiÃŁen":6959,"ĠPerlen":6960,"ĠfÃ¼hle":6961,"ĠIdeen":6962,"Ġstell":6963,"Ġverlief":6964,"Ġvorherigen":6965,"Ġverstehe":6966,"ĠGlitzer":6967,"ĠheiÃŁen":6968,"ĠReinigen":6969,"azitÃ¤t":6970,"ĠShampoo":6971,"iveau":6972,"ĠAngabe":6973,"ĠdÃ¼rftig":6974,"ĠRiemen":6975,"Ġhaften":6976,"ĠAutorin":6977,"ĠVerlÃ¤nger":6978,"ĠGemÃ¼se":6979,"ĠErwachsene":6980,"Ġkriegt":6981,"Ġstylisch":6982,"Ġmassiv":6983,"ĠDrohne":6984,"ĠmÃ¼hsam":6985,"Ġangefangen":6986,"ĠReaktion":6987,"Des":6988,"bi":6989,"becken":6990,"holz":6991,"part":6992,"rone":6993,"vie":6994,"ym":6995,"Ġem":6996,"Ġggf":6997,"Ã¤ft":6998,"Ġhaut":6999,"Ġfern":7000,"Ġvari":7001,"ĠPappe":7002,"Ã¼rzen":7003,"eten":7004,"achs":7005,"achtel":7006,"ĠBrillen":7007,"ĠFein":7008,"ĠWel":7009,"ĠWeil":7010,"Ġdenken":7011,"annte":7012,"Ġvergebe":7013,"Ġdavor":7014,"Ġware":7015,"pfel":7016,"ĠObst":7017,"ĠStÃ¤r":7018,"reativ":7019,"Ã¼nd":7020,"spl":7021,"ĠgenÃ¤ht":7022,"ĠOrden":7023,"ĠInner":7024,"ĠAufnahme":7025,"ĠAufnahmen":7026,"Ġlieb":7027,"ĠwofÃ¼r":7028,"Ġhinaus":7029,"geschmack":7030,"ĠschwergÃ¤ngig":7031,"Ġlangem":7032,"Ġlangatmig":7033,"ĠgrÃ¶ÃŁte":7034,"Ġihrer":7035,"klar":7036,"undert":7037,"Ġbesitze":7038,"ĠGeschmacksache":7039,"Anfangs":7040,"Ġstarker":7041,"Ġbeheben":7042,"beleuchtung":7043,"ĠVerbind":7044,"Ġglatte":7045,"ĠbeschÃ¤ft":7046,"ĠToil":7047,"ĠGenial":7048,"spruch":7049,"ĠSchlag":7050,"wirkung":7051,"Ġverteilen":7052,"Ġverkratzt":7053,"riftung":7054,"ontroll":7055,"ĠvernÃ¤ht":7056,"gewÃ¶hn":7057,"ĠEnttÃ¤uschung":7058,"Ġreparieren":7059,"tragung":7060,"ĠVibration":7061,"spÃ¼ler":7062,"ĠprÃ¤zise":7063,"Ben":7064,"gÃ¤nge":7065,"hatte":7066,"mes":7067,"ÃĦ":7068,"Ġeig":7069,"stifte":7070,"ines":7071,"igran":7072,"ĠAt":7073,"ĠDPD":7074,"ĠBit":7075,"ĠFÃ¼hlt":7076,"ĠHol":7077,"ĠTeuer":7078,"Ġsoviel":7079,"Ġerinn":7080,"Ġruck":7081,"ĠRa":7082,"ĠZwar":7083,"ĠProt":7084,"ĠStangen":7085,"enner":7086,"Ã¼nger":7087,"ĠQualitÃ¤ts":7088,"eisterung":7089,"Ã¤ltig":7090,"verhÃ¤ltn":7091,"Ġgelb":7092,"ĠGef":7093,"Ġkeinem":7094,"Ġgekostet":7095,"Ã¤rchen":7096,"ĠInn":7097,"Ġgefiel":7098,"werker":7099,"immel":7100,"altung":7101,"Ġdaraus":7102,"ĠWarte":7103,"Ġschwere":7104,"ĠselbsterklÃ¤r":7105,"ĠReis":7106,"attung":7107,"Ġbestimm":7108,"Ġstelle":7109,"ĠBrett":7110,"Ġrobuster":7111,"ĠAussage":7112,"ĠPuppe":7113,"Ġverkauft":7114,"Ã¼tzung":7115,"Ġerworben":7116,"ĠTrockner":7117,"arium":7118,"ĠSprach":7119,"Ġfehlende":7120,"ĠLÃ¤uft":7121,"ĠBefestigungs":7122,"****":7123,"Ġanfangen":7124,"ĠanfÃ¤nglich":7125,"ĠRechner":7126,"ĠKarabiner":7127,"ĠIhnen":7128,"ĠSchauspieler":7129,"ĠPhilips":7130,"UNG":7131,"ĠCamping":7132,"KE":7133,"Rie":7134,"gÃ¼nstig":7135,"jacke":7136,"land":7137,"oder":7138,"Ġ*":7139,"cho":7140,"eift":7141,"Ġsech":7142,"stÃ¼cke":7143,"ehl":7144,"ĠSack":7145,"Ġfeine":7146,"ĠDos":7147,"ĠDien":7148,"Ġlade":7149,"ĠKÃ¶n":7150,"ĠKÃ¤ufer":7151,"ĠFla":7152,"ĠMechan":7153,"ĠTank":7154,"ĠTraum":7155,"genÃ¤ht":7156,"Ġerzie":7157,"Ġpol":7158,"ĠScharn":7159,"Ã¤tigt":7160,"Ġausb":7161,"ĠNette":7162,"ĠNasen":7163,"ĠRichtig":7164,"Ġwirk":7165,"ĠPreislich":7166,"ĠVerst":7167,"ison":7168,"ĠStÃ¶":7169,"ĠStart":7170,"ffer":7171,"olf":7172,"regal":7173,"Ã¼nder":7174,"ĠProdukts":7175,"gerung":7176,"ftung":7177,"Ġleiser":7178,"ahrscheinlich":7179,"ĠComputer":7180,"Ġgelassen":7181,"werfer":7182,"eug":7183,"geburtstag":7184,"ĠReparatur":7185,"opfhÃ¶rer":7186,"platz":7187,"Ġgesund":7188,"ĠTeilweise":7189,"ĠKinderwagen":7190,"ĠUntergrund":7191,"iment":7192,"ĠDekor":7193,"izer":7194,"ĠEinzige":7195,"Ġbehand":7196,"ĠHalterungen":7197,"ĠModus":7198,"Ġverschickt":7199,"Ġfreut":7200,"ĠKaffeem":7201,"Ã¼hren":7202,"Ġbetr":7203,"Ġoffensichtlich":7204,"udio":7205,"hÃ¤nde":7206,"ĠLaufzeit":7207,"ĠGedanken":7208,"ĠZahnbÃ¼rste":7209,"deutet":7210,"ĠSalz":7211,"ĠVorderseite":7212,"ĠIrgend":7213,"maske":7214,"ĠGeburtstagsgeschenk":7215,"ĠverfÃ¼gbar":7216,"ĠkÃ¼rzester":7217,"He":7218,"aill":7219,"kon":7220,"kauft":7221,"sweise":7222,"winkel":7223,"ĠsÃ¤u":7224,"stange":7225,"stuhl":7226,"Ġwind":7227,"anen":7228,"ande":7229,"antel":7230,"anschluss":7231,"Ġungen":7232,"onna":7233,"Ġfarbe":7234,"igit":7235,"etisch":7236,"ĠGleich":7237,"ĠKop":7238,"ĠKamer":7239,"ĠTh":7240,"ĠTur":7241,"Ġant":7242,"Ġgez":7243,"ĠVol":7244,"ĠbefÃ¼llen":7245,"ĠNr":7246,"ierbar":7247,"Ġklingt":7248,"ĠOn":7249,"ĠStil":7250,"anzt":7251,"anzug":7252,"reffen":7253,"ĠErstattung":7254,"Ã¶rper":7255,"Ġmalen":7256,"werden":7257,"werklich":7258,"Ġreal":7259,"Ġrechten":7260,"ĠAufhÃ¤n":7261,"Ġspart":7262,"ĠGrÃ¶ÃŁer":7263,"ĠEnergie":7264,"Ġrechtzeitig":7265,"ĠJahres":7266,"ĠBoard":7267,"rÃ¤sen":7268,"lieder":7269,"Ġpraktischer":7270,"aktor":7271,"aktiv":7272,"ĠRÃ¼ckgabe":7273,"ĠGeschmacklich":7274,"vorgang":7275,"Ġbedien":7276,"Ã¶tige":7277,"Ġniem":7278,"Ġmagnet":7279,"Ġaussp":7280,"ĠEntscheidung":7281,"Ġgetr":7282,"schlieÃŁt":7283,"Ġarg":7284,"Erst":7285,"ĠÃ¼ben":7286,"ĠSprÃ¼h":7287,"Ġverfliegt":7288,"ĠâĢĵ":7289,"Ġmehrmaligen":7290,"Ġhaftet":7291,"flaschen":7292,"ĠBohrer":7293,"ĠZurÃ¼ck":7294,"ĠHalsband":7295,"Ġfixieren":7296,"ĠFlÃ¤che":7297,"Ġverschwunden":7298,"Ġverbessern":7299,"ĠAussparungen":7300,"Ġgelieferte":7301,"ĠbeigefÃ¼g":7302,"Ġfummelig":7303,"ĠðŁĳĮ":7304,"Ġenglisch":7305,"ĠVerpackungs":7306,"ynchron":7307,"ĠselbsterklÃ¤rend":7308,"80":7309,"adem":7310,"creme":7311,"fit":7312,"iser":7313,"lere":7314,"Ġdoll":7315,"Ġsens":7316,"ĠgÃ¤be":7317,"angt":7318,"anweisung":7319,"Ã¼lt":7320,"Ġnetter":7321,"Ã¤hl":7322,"Ã¤bchen":7323,"Ġbere":7324,"ĠbiÃŁchen":7325,"Ġzuge":7326,"bereitung":7327,"ĠPrei":7328,"ĠBrem":7329,"able":7330,"ĠKusch":7331,"Ġanspr":7332,"Ġanpassen":7333,"mme":7334,"Ġgezeigt":7335,"Ġausgelegt":7336,"ĠrÃ¼ber":7337,"Ġwarmen":7338,"ilden":7339,"ĠStd":7340,"ĠStahl":7341,"ĠStÃ¼hle":7342,"ĠAnzug":7343,"Ġabgeben":7344,"Ġschnellen":7345,"usive":7346,"leiste":7347,"sprÃ¼n":7348,"bezug":7349,"Ġumgehend":7350,"autom":7351,"ĠAbn":7352,"Ġgekn":7353,"Ġ44":7354,"ĠGerÃ¤tes":7355,"ĠZustellung":7356,"ĠWerbung":7357,"wendet":7358,"Ġkaput":7359,"ĠBeschriftung":7360,"Ġeigentliche":7361,"Ġallemal":7362,"gefahr":7363,"ĠUmfang":7364,"ĠEinzelt":7365,"ĠSchwimm":7366,"Ã¤hrung":7367,"Ġroch":7368,"erstattung":7369,"ĠSmartphones":7370,"ĠschlieÃŁlich":7371,"temperatur":7372,"own":7373,"schneider":7374,"ĠTaschenlampe":7375,"upi":7376,"ĠHeiÃŁ":7377,"griffen":7378,"ĠLangleb":7379,"reuz":7380,"ĠLeser":7381,"GefÃ¤llt":7382,"Ġsorgt":7383,"ĠFÃ¼llung":7384,"Ġverrutschen":7385,"Unsere":7386,"ĠSchaumstoff":7387,"Ġscharfe":7388,"ĠPuzzle":7389,"ĠMassage":7390,"Ġgerechtfertigt":7391,"Ġanstren":7392,"ĠZigaretten":7393,"Ġnirgends":7394,"ĠÃ¼brigens":7395,"ĠBorsten":7396,"ĠSchÃ¤rfe":7397,"Akku":7398,"Wurde":7399,"bad":7400,"datum":7401,"fession":7402,"ohne":7403,"wanne":7404,"zur":7405,"Ġsub":7406,"Ġwahnsinn":7407,"ini":7408,"Ã¤re":7409,"Ġfliegen":7410,"ĠAlter":7411,"ĠDreck":7412,"Ġschreck":7413,"Ġschaffen":7414,"schchen":7415,"Ġlust":7416,"Ġlog":7417,"ĠBahn":7418,"ĠFassung":7419,"ĠFleisch":7420,"ire":7421,"ĠHy":7422,"ĠTip":7423,"ĠanschlieÃŁend":7424,"ĠWander":7425,"Ġgeg":7426,"ĠpaÃŁt":7427,"Ġaufger":7428,"ĠbefÃ¼llt":7429,"reisen":7430,"ĠNiveau":7431,"ackern":7432,"ladung":7433,"gerecht":7434,"ĠErste":7435,"Ġumgehen":7436,"verstÃ¤ndlich":7437,"Ġgereinigt":7438,"ernt":7439,"abell":7440,"Ġliest":7441,"Schon":7442,"Ġbeschreiben":7443,"Ã¤uschen":7444,"Ġuntere":7445,"ĠZuhause":7446,"ĠEnden":7447,"schiede":7448,"ĠSteuerung":7449,"ĠVorhang":7450,"ĠgleichmÃ¤ÃŁig":7451,"ĠGeschmacks":7452,"ĠLieder":7453,"ĠLiege":7454,"istole":7455,"Ġhohem":7456,"ĠSchnalle":7457,"ĠZumindest":7458,"ĠToner":7459,"ĠAlarm":7460,"ĠKundendienst":7461,"flÃ¼ssig":7462,"ĠFÃ¤lle":7463,"????":7464,"temonna":7465,"Ġeingepackt":7466,"ĠSonnenschutz":7467,"eimer":7468,"Insgesamt":7469,"Ġnegativen":7470,"ĠKlappe":7471,"Ġerreichen":7472,"Bisher":7473,"schlieÃŁlich":7474,"ĠHÃ¶rer":7475,"ĠFavor":7476,"Ġgeschmacklich":7477,"folien":7478,"ĠGestank":7479,"ĠProfi":7480,"ĠgewÃ¼nschte":7481,"Ġverarbeitete":7482,"ĠAbstrichen":7483,"ĠRutsch":7484,"Ġschwieriger":7485,"ĠBewegungsmelder":7486,"Ġeffektiv":7487,"ĠunauffÃ¤llig":7488,"Ġversendet":7489,"ĠAnforderungen":7490,"Ġgolden":7491,"DE":7492,"Mo":7493,"azon":7494,"dio":7495,"hel":7496,"pass":7497,"samer":7498,"âŃĲ":7499,"Ã¼len":7500,"ĠSim":7501,"Ã¤cher":7502,"ĠAch":7503,"Ġzugestellt":7504,"Ġzugelegt":7505,"ĠDichtung":7506,"ĠPar":7507,"ĠBier":7508,"ĠBill":7509,"ĠBio":7510,"Ġderen":7511,"ĠKo":7512,"ĠKamm":7513,"ĠKiste":7514,"ĠLG":7515,"ĠLed":7516,"ĠEgal":7517,"ĠThe":7518,"ĠTeig":7519,"ore":7520,"Ġdenkt":7521,"Ġern":7522,"Ġpunkt":7523,"ĠSchaden":7524,"Ġverpackung":7525,"ĠauffÃ¤llt":7526,"aufnahme":7527,"Ġklemmt":7528,"ĠStark":7529,"Ġumgesetzt":7530,"Ġimmernoch":7531,"ĠCont":7532,"wertige":7533,"ĠBedenken":7534,"ĠAuflage":7535,"ĠKlinge":7536,"artikel":7537,"Ã¤uscht":7538,"opft":7539,"ĠZug":7540,"stiges":7541,"ĠWasserdicht":7542,"ĠBlitz":7543,"antiert":7544,"Ġbesorgen":7545,"ĠFalls":7546,"ĠUmsetzung":7547,"Ġirre":7548,"Ġschlucken":7549,"ĠgestoÃŁen":7550,"Ġsolange":7551,"Ġrollt":7552,"Ġverstaut":7553,"ĠverstÃ¤r":7554,"ĠgÃ¼nstiges":7555,"schlafen":7556,"Ġbiegen":7557,"Ġup":7558,"Ã¼hrung":7559,"Ġverkn":7560,"Ġhervorragen":7561,"ĠSicherheits":7562,"mÃ¶glichkeit":7563,"Ġnegative":7564,"Ġnegatives":7565,"ĠMittelmÃ¤ÃŁig":7566,"Ġbefinden":7567,"ĠgrÃ¼ndlich":7568,"ĠKommt":7569,"ĠIhre":7570,"Ġklappte":7571,"ĠBadezimmer":7572,"ĠzusÃ¤tzlichen":7573,"ĠFingerabdrÃ¼cke":7574,"Ġminderwertig":7575,"ĠWÃ¼rfel":7576,"ĠAussparung":7577,"Ġfolgen":7578,"Ġreklamiert":7579,"Ġseparat":7580,"ĠMeer":7581,"Schmeckt":7582,"ĠSchokolade":7583,"temonnaie":7584,"__":7585,"gibt":7586,"use":7587,"xx":7588,"zeiten":7589,"eier":7590,"Ġdoo":7591,"Ġdreck":7592,"stein":7593,"Ġgrei":7594,"Ġunf":7595,"Ã¤ten":7596,"Ġzerst":7597,"Ġfrieden":7598,"ĠDatum":7599,"ĠDunkeln":7600,"schaltet":7601,"Ġliefert":7602,"ĠBlech":7603,"ĠKetten":7604,"ĠKey":7605,"ĠTrans":7606,"ĠanfÃ¤llig":7607,"gezogen":7608,"ĠWegen":7609,"ĠWollte":7610,"Ġpf":7611,"ĠverschlieÃŁen":7612,"Ġaufbringen":7613,"ĠVÃ¶":7614,"ĠRÃ¶":7615,"ĠZiemlich":7616,"Ġstinken":7617,"Ġabgerissen":7618,"ĠEinstell":7619,"zustellen":7620,"endes":7621,"!!!!!":7622,"Ġamazon":7623,"schland":7624,"Ġperman":7625,"Ġrechte":7626,"ĠMatten":7627,"Ġvielseitig":7628,"ĠBosch":7629,"Ġbereit":7630,"Ġeinziges":7631,"Ġzusammengebaut":7632,"ĠHerstell":7633,"ĠHerbst":7634,"ĠPerÃ¼cke":7635,"ĠFreunden":7636,"Ġhelles":7637,"ĠSets":7638,"Ġverstanden":7639,"ĠKleinen":7640,"ĠKleines":7641,"ĠKleingeld":7642,"Ġbrennt":7643,"ĠMenÃ¼":7644,"ĠAufbauanleitung":7645,"ĠHeute":7646,"ĠðŁĳįðŁı¼":7647,"Ã¤lte":7648,"scheiben":7649,"ĠBegeisterung":7650,"Ġ2017":7651,"rutschen":7652,"wÃ¼rfel":7653,"ĠSchreib":7654,"ĠHelfer":7655,"ĠNÃ¤he":7656,"Ġkostenlos":7657,"ĠLebensmittel":7658,"ĠIhren":7659,"Ġkorrig":7660,"ĠMotorrad":7661,"ĠEinstieg":7662,"ĠFamilien":7663,"201":7664,"ballons":7665,"ĠSeifen":7666,"ĠWenig":7667,"ĠHocker":7668,"ĠIPhone":7669,"Ġverschlossen":7670,"Ġtechnisch":7671,"Ġrestlichen":7672,"ĠNadeln":7673,"Ġspeziell":7674,"Ġerheblich":7675,"ĠZiffern":7676,"Ġindividuell":7677,"Ġkomfortabel":7678,"ĠverbesserungswÃ¼rdig":7679,"ĠGrenzen":7680,"GrÃ¶ÃŁe":7681,"Ġsechs":7682,"Echt":7683,"Passen":7684,"Tasche":7685,"UP":7686,"Vom":7687,"Viele":7688,"hÃ¤nge":7689,"karton":7690,"mobil":7691,"ov":7692,"ober":7693,"ocken":7694,"prÃ¤":7695,"sfÃ¤hig":7696,"ulen":7697,"erken":7698,"eiter":7699,"Ġsort":7700,"stern":7701,"eingesch":7702,"ĠSessel":7703,"utscht":7704,"Ġeinstecken":7705,"Ġzb":7706,"ĠAN":7707,"ĠDok":7708,"ĠPech":7709,"Ã¼rf":7710,"schÃ¤":7711,"ĠGurte":7712,"ĠFasch":7713,"ropfen":7714,"ĠMill":7715,"ĠTÃ¶":7716,"ĠTick":7717,"ĠTÃ¶pfe":7718,"Ġanz":7719,"ĠannÃ¤":7720,"ĠWunsch":7721,"ĠSchÃ¼ssel":7722,"chtig":7723,"Ġverbraucht":7724,"Ġthe":7725,"andet":7726,"ĠVier":7727,"ĠausfÃ¤llt":7728,"Ġbeeindruck":7729,"ĠNutzen":7730,"Ġwarte":7731,"iefach":7732,"Ġkling":7733,"Ġklang":7734,"ĠStu":7735,"ĠStab":7736,"ĠStirn":7737,"Ġabgesehen":7738,"ĠEinstellen":7739,"eister":7740,"Ġ19":7741,"gelt":7742,"halte":7743,"Ġentstanden":7744,"Ġentdeckt":7745,"Ġgereicht":7746,"ĠCon":7747,"schlÃ¼ssel":7748,"Ġrech":7749,"ĠAuflÃ¶sung":7750,"Ġ42":7751,"ĠRegel":7752,"Ġangepasst":7753,"Ġ500":7754,"geschichte":7755,"ĠMale":7756,"echnet":7757,"Ġseitdem":7758,"Ġhandy":7759,"ĠNachteile":7760,"Ġverbiegen":7761,"ĠSchwanger":7762,"ĠGlanz":7763,"Ġangegebene":7764,"Ġgetroffen":7765,"ĠFormat":7766,"ĠRadi":7767,"Ġflott":7768,"ĠBilderrahmen":7769,"Ġvermute":7770,"Ġblauen":7771,"ĠSchlÃ¼sselanhÃ¤nger":7772,"ĠFolge":7773,"ĠBabys":7774,"Ã¤umt":7775,"Ġempfindliche":7776,"ĠMikrof":7777,"ĠJeans":7778,"ĠDeutschland":7779,"Ġklappen":7780,"Ġfesten":7781,"ĠerwÃ¤hnen":7782,"Ġsorgf":7783,"lesbar":7784,"ĠBrauchbar":7785,"Shirts":7786,"ĠHaust":7787,"ĠTrinkflasche":7788,"Ġrutschfest":7789,"schrauber":7790,"ĠHemd":7791,"ĠLadung":7792,"ĠErsatzteil":7793,"Ġbeleuchtet":7794,"Ġtraurig":7795,"ĠMischung":7796,"ĠAnwendungen":7797,"ĠRezessionen":7798,"ĠerzÃ¤hlt":7799,"Ġwahnsinnig":7800,"funktioniert":7801,"fos":7802,"faktor":7803,"gle":7804,"hieb":7805,"ima":7806,"pten":7807,"patronen":7808,"rend":7809,"zial":7810,"chem":7811,"Ġdest":7812,"Ġsper":7813,"Ġsatt":7814,"Ġgrade":7815,"Ġbiss":7816,"ĠhÃ¼lle":7817,"Ġkrit":7818,"ĠAro":7819,"ĠDiff":7820,"ĠDicke":7821,"ĠDAB":7822,"bereitet":7823,"Ġschau":7824,"ettel":7825,"Ġlinke":7826,"ĠBal":7827,"ĠBank":7828,"ĠFlex":7829,"kten":7830,"ĠTun":7831,"Ġanges":7832,"Ġerleich":7833,"Ġverzogen":7834,"Ġversprechen":7835,"Ġaufgerissen":7836,"ĠauslÃ¼ften":7837,"Ġbedeckt":7838,"Ġbedeutet":7839,"leg":7840,"ĠNutze":7841,"Ġriss":7842,"ĠRos":7843,"ĠRichtige":7844,"ĠZeug":7845,"reg":7846,"Ġweichen":7847,"ĠUV":7848,"spitzen":7849,"herum":7850,"angaben":7851,"ĠSpe":7852,"ots":7853,"otos":7854,"ĠBesten":7855,"ĠBekann":7856,"ĠSobald":7857,"Ġgehts":7858,"Ġ45":7859,"ammt":7860,"Ġhinzu":7861,"Ġ:/":7862,"Ġprofession":7863,"ĠMantel":7864,"Ġpraktisches":7865,"klemmen":7866,"ĠUnterst":7867,"ĠUnterlage":7868,"eichert":7869,"Ġwarmes":7870,"Ġschlank":7871,"Ġbestehen":7872,"ĠAuff":7873,"Wird":7874,"ĠPfeile":7875,"fÃ¼hren":7876,"vollstÃ¤ndig":7877,"ĠReiniger":7878,"gehÃ¤use":7879,"Ġunangenehmer":7880,"Ġunangenehmen":7881,"ĠgewÃ¶hnen":7882,"Ġbreite":7883,"uelle":7884,"Ġoriginale":7885,"ĠHilft":7886,"ĠSonnenschirm":7887,"ĠStrumpf":7888,"ontrolle":7889,"ĠLeiste":7890,"Ġansehen":7891,"ĠBegleiter":7892,"ĠstÃ¤rk":7893,"ĠRollo":7894,"Ġfreundlichen":7895,"ĠspÃ¼rbar":7896,"ĠSchleif":7897,"Ġfilm":7898,"Ġfiligran":7899,"ĠjÃ¤hrigen":7900,"betriebnahme":7901,"jÃ¤hrige":7902,"door":7903,"ĠGebrauchsanweisung":7904,"ĠBirnen":7905,"ĠJoggen":7906,"Ġrobuste":7907,"ĠunterstÃ¼tzt":7908,"ĠErnÃ¤hrung":7909,"outube":7910,"Ġverursacht":7911,"ĠTerrasse":7912,"antwortet":7913,"zutragen":7914,"ĠEntfernung":7915,"Ġstellte":7916,"ĠSchwangerschaft":7917,"Trotz":7918,"binden":7919,"ging":7920,"groÃŁ":7921,"mÃ¼ll":7922,"risch":7923,"teile":7924,"ĠÃ¤ndert":7925,"eide":7926,"Ġdet":7927,"Ġdos":7928,"Ġsetzt":7929,"iche":7930,"intens":7931,"arsam":7932,"ĠhÃ¼bsche":7933,"ĠkÃ¼":7934,"Ġkratzt":7935,"igin":7936,"itt":7937,"ĠDort":7938,"ĠPan":7939,"ĠPark":7940,"atische":7941,"schle":7942,"schaut":7943,"Ġlack":7944,"Ġletzt":7945,"ĠGrau":7946,"ĠGag":7947,"ĠGaming":7948,"ĠButter":7949,"ĠKÃ¤lte":7950,"ĠFisch":7951,"ĠFant":7952,"ĠTÃ¶ne":7953,"termin":7954,"orie":7955,"Ġert":7956,"Ġplastik":7957,"Ġputzen":7958,"Ġverbl":7959,"Ġverform":7960,"ĠverÃ¤ndert":7961,"Ġtrifft":7962,"Ã¤tsel":7963,"Ġdamals":7964,"reise":7965,"pflege":7966,"ĠZw":7967,"ĠVerpackt":7968,"ĠVerschlÃ¼sse":7969,"Ġstarten":7970,"ĠStation":7971,"ffekte":7972,"ĠAnkunft":7973,"weiss":7974,"Ġwiederum":7975,"Ġkleinsten":7976,"eistet":7977,"ĠErk":7978,"gelassen":7979,"otten":7980,"ĠCro":7981,"ĠCup":7982,"Ġ35":7983,"auswahl":7984,"schenken":7985,"schlÃ¤":7986,"ĠWaren":7987,"ĠManche":7988,"Ġlanges":7989,"Ġgemessen":7990,"dreher":7991,"echselt":7992,"haften":7993,"nittert":7994,"Ġriesen":7995,"Ġerfahren":7996,"ĠGebrauchsspuren":7997,"ĠBatteriefach":7998,"ĠMinute":7999,"zeugen":8000,"ĠBruch":8001,"gemeinen":8002,"Ġsolides":8003,"ĠBenutz":8004,"fÃ¼hrend":8005,"ĠKonkur":8006,"Ġtropft":8007,"ĠKratzern":8008,"ĠKratzbaum":8009,"Ġschmalen":8010,"ĠCouch":8011,"uellen":8012,"ĠPinz":8013,"ĠFestiv":8014,"ĠAnzahl":8015,"ĠFire":8016,"ĠÃ¼bel":8017,"Ġniedriger":8018,"ĠPulli":8019,"Ġergiebig":8020,"ĠGeschirrspÃ¼ler":8021,"ĠEiswÃ¼rfel":8022,"Ġspringt":8023,"ĠjÃ¤hrige":8024,"Ġgelieferten":8025,"ĠSchritte":8026,"fristig":8027,"Ġgriffig":8028,"prÃ¼ft":8029,"machung":8030,"jeden":8031,"ĠPortemonnaie":8032,"ĠFortsetzung":8033,"Box":8034,"ĠVitamin":8035,"ĠSattel":8036,"Ġmittels":8037,"ĠursprÃ¼n":8038,"urchtbar":8039,"ĠPraxis":8040,"Riecht":8041,"Ġanspruchs":8042,"HD":8043,"Pl":8044,"SD":8045,"bilder":8046,"forder":8047,"grau":8048,"garten":8049,"helfen":8050,"kop":8051,"lein":8052,"lungen":8053,"linge":8054,"mÃ¤":8055,"zeichen":8056,"Ġdient":8057,"Ġsamt":8058,"stÃ¶psel":8059,"Ġgre":8060,"Ġwicht":8061,"Ġmerk":8062,"inne":8063,"ĠSitzen":8064,"Ġuner":8065,"Ã¤llig":8066,"Ã¤hler":8067,"ĠzÃ¤hlt":8068,"Ġflie":8069,"ĠfÃ¼hl":8070,"bert":8071,"ĠlÃ¼ften":8072,"ĠBus":8073,"ĠBik":8074,"ĠKrim":8075,"ĠLight":8076,"ĠHP":8077,"ĠHard":8078,"ĠHervor":8079,"ĠHumor":8080,"ĠTape":8081,"geber":8082,"ĠgeÃ¤rgert":8083,"Ġmanuell":8084,"Ġtransp":8085,"Ġbeigeleg":8086,"Ġjeg":8087,"ĠZit":8088,"ĠVerÃ¤nder":8089,"senkel":8090,"ish":8091,"ĠOder":8092,"ĠStrÃ¼mpfe":8093,"ĠAnlieferung":8094,"ennung":8095,"Ġablesbar":8096,"Ġweis":8097,"ĠUlt":8098,"Ġmeins":8099,"ĠEiner":8100,"lappen":8101,"Ã¶rbar":8102,"ahrung":8103,"Ġanderem":8104,"Ġimmerhin":8105,"Ġgekauf":8106,"ĠInbetriebnahme":8107,"Ġdurchge":8108,"schlÃ¼ssen":8109,"ĠAufmachung":8110,"Ġdritte":8111,"Ġgewechselt":8112,"ĠReceiver":8113,"opfen":8114,"mail":8115,"ĠZeitpunkt":8116,"ĠKindergeburtstag":8117,"Ġzusamm":8118,"ĠBeschenkte":8119,"ĠðŁĻ":8120,"haber":8121,"log":8122,"Ã¤hig":8123,"aku":8124,"Ġgarantiert":8125,"Ġschmutz":8126,"mÃ¤ÃŁiger":8127,"Ġvorhersehbar":8128,"Ġglatten":8129,"Ġgetauscht":8130,"ograf":8131,"ĠBisschen":8132,"ĠBluse":8133,"ĠXXL":8134,"Ġlock":8135,"ĠAlu":8136,"Ġruntergefallen":8137,"ĠObjektiv":8138,"ĠHebel":8139,"ĠGummiband":8140,"spielzeug":8141,"Ġweswegen":8142,"ĠFrÃ¼h":8143,"Ġ120":8144,"Ġinteressiert":8145,"ĠPanzer":8146,"Aufgrund":8147,"ĠhÃ¶heren":8148,"ĠÃ¼blichen":8149,"Ġniedrigen":8150,"ĠSorten":8151,"ĠFedern":8152,"ĠEnttÃ¤uscht":8153,"Ġbeiliegenden":8154,"ĠBeschÃ¤digungen":8155,"ĠFÃ¼ÃŁen":8156,"Obwohl":8157,"ĠBelastung":8158,"ĠProtein":8159,"Ġniemand":8160,"ĠLanglebigkeit":8161,"Ġanstrengend":8162,"Ġdesto":8163,"Ear":8164,"GB":8165,"Licht":8166,"Noch":8167,"Sol":8168,"US":8169,"bit":8170,"ds":8171,"gummi":8172,"klappt":8173,"mein":8174,"mart":8175,"mutlich":8176,"oil":8177,"port":8178,"pÃ¤ck":8179,"eife":8180,"Ġsuche":8181,"unte":8182,"einstellung":8183,"Ã¼ge":8184,"Ã¼geln":8185,"ĠSur":8186,"ĠSatz":8187,"Ġblasen":8188,"Ġeinsatz":8189,"ĠzB":8190,"Ġkul":8191,"Ġfalten":8192,"empl":8193,"emente":8194,"Ġschalten":8195,"schon":8196,"ĠGro":8197,"ĠGrav":8198,"ĠBas":8199,"ĠBrÃ¼":8200,"ĠKasten":8201,"ĠKuchen":8202,"ĠFallen":8203,"ĠFrÃ¼":8204,"ĠMP":8205,"ĠTes":8206,"ĠTyp":8207,"Ġansprechen":8208,"Ġanbie":8209,"ĠWein":8210,"Ġgep":8211,"Ġgeachtet":8212,"Ġpu":8213,"Ġpink":8214,"ĠSchrott":8215,"Ġaufzutragen":8216,"Ġtag":8217,"Ã¤ttern":8218,"ĠausschlieÃŁlich":8219,"ĠRau":8220,"ĠZeiten":8221,"Ġstoff":8222,"Ġabgen":8223,"icker":8224,"Ġechten":8225,"gelesen":8226,"fÃ¼gung":8227,"verbrauch":8228,"verbindung":8229,"oto":8230,"ĠCent":8231,"ĠAblage":8232,"ĠGestell":8233,"ĠInfo":8234,"Ġdurchschnittlich":8235,"Ġgewisse":8236,"astet":8237,"pegel":8238,"ĠBody":8239,"Ġreinigt":8240,"ĠPlan":8241,"Ġbesorgt":8242,"affung":8243,"Ġzusammenbauen":8244,"wende":8245,"ĠFrech":8246,"Ã¤tzchen":8247,"Ġbisherigen":8248,"ĠBoxer":8249,"Ġroten":8250,"scheinen":8251,"ĠLÃ¶s":8252,"ĠMengen":8253,"getan":8254,"hinein":8255,"ĠAusserdem":8256,"lÃ¶cher":8257,"Ġgespart":8258,"Ġaufgegangen":8259,"ĠKappe":8260,"Ġschmaler":8261,"Ġvertragen":8262,"ĠÃ¤hnliche":8263,"Ġmittler":8264,"Ġfehlenden":8265,"ittert":8266,"ĠBlickfang":8267,"ĠAnti":8268,"ĠTafel":8269,"Ġintensiver":8270,"ĠAbends":8271,"ðŁĳįðŁĳį":8272,"ĠhÃ¤ufiger":8273,"Ġsaugen":8274,"Ġerreichbar":8275,"ĠYog":8276,"ĠÃĦrgerlich":8277,"ĠTermin":8278,"Ġverschwindet":8279,"Ġbox":8280,"ĠMÃ¼nzen":8281,"haare":8282,"ĠKlemm":8283,"Ġkontaktiert":8284,"ĠAquarium":8285,"ĠAngelegenheit":8286,"ĠCanon":8287,"ĠNachbarn":8288,"ĠDienste":8289,"rÃ¤sent":8290,"Ġdoof":8291,"Ġdetaill":8292,"15":8293,"Kein":8294,"KÃ¶nnte":8295,"Rei":8296,"Seit":8297,"Wollte":8298,"bund":8299,"ux":8300,"zin":8301,"zieren":8302,"Ġdauernd":8303,"Ġstet":8304,"Ġalternativ":8305,"ĠSen":8306,"ĠSort":8307,"ĠSauber":8308,"ong":8309,"aler":8310,"ĠDat":8311,"bereiten":8312,"ettet":8313,"Ġlila":8314,"ĠGÃ¼nstiger":8315,"ĠBÃ¶":8316,"ĠKolle":8317,"ĠKÃ¶pfe":8318,"ĠKochen":8319,"ĠFass":8320,"urf":8321,"ĠLand":8322,"ĠLippen":8323,"ĠHenkel":8324,"ĠMÃ¼cken":8325,"ĠTau":8326,"reiten":8327,"reichend":8328,"Ġgewartet":8329,"Ġersichtlich":8330,"Ġpacken":8331,"ĠauffÃ¤llig":8332,"ĠRauch":8333,"ĠRiegel":8334,"ĠRuhe":8335,"ilien":8336,"ĠZuf":8337,"Ġstumpf":8338,"ĠProzent":8339,"ument":8340,"umschlag":8341,"ĠOfen":8342,"ĠStiel":8343,"Ġnachge":8344,"lenden":8345,"Ġabf":8346,"Ġabwarten":8347,"Dies":8348,"Ġkleinste":8349,"spart":8350,"spad":8351,"spiels":8352,"ĠErklÃ¤r":8353,"Ġvieles":8354,"otion":8355,"ĠBeamer":8356,"ĠSogar":8357,"ĠlÃ¤stig":8358,"Ġlies":8359,"ĠlieÃŁen":8360,"Ġspricht":8361,"ĠspaÃŁ":8362,"Ġdruck":8363,"ĠAusschnitt":8364,"uerst":8365,"ĠFunktionieren":8366,"ĠRÃ¼ckerstattung":8367,"Ġdeutliche":8368,"atterien":8369,"Ġseitlichen":8370,"aker":8371,"ĠHermes":8372,"ĠOptimal":8373,"ĠArmatur":8374,"oogle":8375,"Ġbehoben":8376,"empfind":8377,"ĠBruder":8378,"Ġsolch":8379,"Ġversteht":8380,"Ġversand":8381,"azier":8382,"ĠBenutze":8383,"rÃ¤nkung":8384,"ĠBandage":8385,"ĠLaien":8386,"Stick":8387,"ĠKompr":8388,"stÃ¤rker":8389,"ĠSoundqualitÃ¤t":8390,"ĠKapazitÃ¤t":8391,"ĠHerstellers":8392,"fÃ¤cher":8393,"Ġverkehrt":8394,"Ġmittig":8395,"Ġmittlere":8396,"ĠBewegungen":8397,"licherweise":8398,"ĠGarage":8399,"ĠSchraub":8400,"ĠungÃ¼nstig":8401,"ĠBadewanne":8402,"ĠSchublade":8403,"ĠSpeicherkarte":8404,"Ġdiversen":8405,"ĠGetrÃ¤nk":8406,"Ġbohren":8407,"ĠgewÃ¼nschten":8408,"ĠNadel":8409,"ĠOrgan":8410,"liffen":8411,"ĠRÃ¤ume":8412,"ĠSzenen":8413,"Ġsammelt":8414,"wechslung":8415,"uminium":8416,"ĠAufhÃ¤ngung":8417,"ĠUnterstÃ¼tzung":8418,"jedenfall":8419,"^^":8420,"back":8421,"bahn":8422,"fuÃŁ":8423,"glÃ¤ser":8424,"heim":8425,"keine":8426,"kap":8427,"lÃ¤nge":8428,"mutter":8429,"modell":8430,"nchen":8431,"pulver":8432,"sert":8433,"ssten":8434,"to":8435,"tsam":8436,"uitiv":8437,"ven":8438,"wehr":8439,"Ġ****":8440,"chan":8441,"erlich":8442,"Ġsy":8443,"stchen":8444,"ĠSUP":8445,"Ġuneingesch":8446,"Ġbla":8447,"Ġeinger":8448,"onom":8449,"Ġfuer":8450,"Ġfrage":8451,"Ġfrag":8452,"ali":8453,"alien":8454,"ĠDÃ¼n":8455,"ĠDachte":8456,"ĠPal":8457,"ĠschÃ¤r":8458,"elten":8459,"scher":8460,"schreiber":8461,"ĠGit":8462,"ĠGad":8463,"ĠGPS":8464,"ĠBro":8465,"ĠBadem":8466,"ĠKreuz":8467,"ĠFin":8468,"ĠLook":8469,"ĠWort":8470,"Ġpen":8471,"ĠSchreiben":8472,"Ã¤ttert":8473,"ilt":8474,"pfchen":8475,"Ġjahr":8476,"raglich":8477,"ĠZeichen":8478,"ĠVerfÃ¼gung":8479,"Ġklemmen":8480,"Ġstunden":8481,"ĠProdu":8482,"lltÃ¤glich":8483,"ĠOff":8484,"Ġnacht":8485,"ĠAnhieb":8486,"edes":8487,"lad":8488,"hnen":8489,"weiÃŁt":8490,"ickeln":8491,"ĠSpuren":8492,"endlich":8493,"Ġentnehmen":8494,"ĠInse":8495,"ĠAufgabe":8496,"gebrochen":8497,"Ġsprich":8498,"Ġbeschri":8499,"ĠRealitÃ¤t":8500,"Ġseltsam":8501,"ungsver":8502,"fenster":8503,"ĠNichte":8504,"Ġstabiles":8505,"Ġechtes":8506,"ĠKabels":8507,"ĠBlatt":8508,"Ġjedenfall":8509,"mechan":8510,"Ġnormales":8511,"Ġwelchen":8512,"Ġkompletten":8513,"Ġhandwerklich":8514,"ĠGewalt":8515,"ĠModel":8516,"ĠKleinigkeiten":8517,"Ġrichtiger":8518,"schlagen":8519,"Ġsaubere":8520,"Ġordentlichen":8521,"ĠKonnte":8522,"ĠGesprÃ¤":8523,"Ġangeblich":8524,"ĠhÃ¶re":8525,"ĠwÃ¤rm":8526,"Ġmini":8527,"ĠBereits":8528,"Ã¼hrt":8529,"fÃ¤ll":8530,"ĠInhaltsst":8531,"ĠTragegefÃ¼hl":8532,"Ġerwischt":8533,"ĠSamen":8534,"Ġblick":8535,"ĠInnenseite":8536,"ĠNeue":8537,"bewahren":8538,"ĠKlammer":8539,"flecken":8540,"Ġerschwert":8541,"daher":8542,"hÃ¤ngig":8543,"ĠYou":8544,"ible":8545,"Ġentsprechende":8546,"ĠJeden":8547,"Ġkaufte":8548,"ĠFussel":8549,"pads":8550,"ĠEnkelin":8551,"ĠGetrÃ¤nke":8552,"Ġverhindern":8553,"Absolut":8554,"ĠPolsterung":8555,"ĠKochbuch":8556,"Ġrobusten":8557,"ĠEingang":8558,"Ġinklusive":8559,"ĠNerven":8560,"Ġwinzig":8561,"Ġausgestattet":8562,"ĠMixer":8563,"ĠBaumwolle":8564,"ĠSchnÃ¼rsenkel":8565,"ĠDunkelheit":8566,"Ġleckere":8567,"ĠAnsprÃ¼che":8568,"ĠsÃ¤ubern":8569,"ĠEinzelteile":8570,"ĠFrechheit":8571,"Besch":8572,"Bild":8573,"Geht":8574,"Hier":8575,"IG":8576,"Liefer":8577,"Pass":8578,"RO":8579,"Zur":8580,"brechen":8581,"gitter":8582,"horn":8583,"raten":8584,"val":8585,"wÃ¶hn":8586,"Ġsan":8587,"Ġmaterial":8588,"Ġmoment":8589,"andern":8590,"ehnt":8591,"ĠSÃ¼ÃŁe":8592,"ĠSaft":8593,"Ġunproblem":8594,"Ġbilden":8595,"Ġeinbauen":8596,"Ġzut":8597,"Ġzumal":8598,"Ġzulegen":8599,"Ġzugeschickt":8600,"ĠPutz":8601,"ates":8602,"Ã¼ren":8603,"etro":8604,"ĠGrÃ¼":8605,"ĠGUT":8606,"ĠBraun":8607,"Ġderzeit":8608,"urlaub":8609,"ĠLohnt":8610,"ĠLaufe":8611,"ĠLetzten":8612,"ĠHit":8613,"ĠHor":8614,"ĠMult":8615,"ĠTreiber":8616,"tent":8617,"Ġpar":8618,"Ġpur":8619,"Ġverstellbar":8620,"ĠIphone":8621,"Ġwiegt":8622,"Ġausziehen":8623,"Ġwars":8624,"ĠRÃ¤tsel":8625,"ĠPreise":8626,"pfl":8627,"ĠZut":8628,"Ġstaub":8629,"ume":8630,"ĠSty":8631,"olog":8632,"leiben":8633,"leidung":8634,"weif":8635,"gern":8636,"spuren":8637,"ĠErd":8638,"ĠErster":8639,"beute":8640,"Ġdesign":8641,"fÃ¼t":8642,"ĠJack":8643,"blÃ¤tter":8644,"ĠgenieÃŁen":8645,"ĠAbdeck":8646,"ĠGeschÃ¤ft":8647,"ĠAufteilung":8648,"rucksack":8649,"ĠProblemlos":8650,"Ġhiermit":8651,"gesendet":8652,"rÃ¤der":8653,"quid":8654,"kkus":8655,"ĠBlock":8656,"Ã¼sseln":8657,"ĠHeraus":8658,"gefunden":8659,"ĠDefin":8660,"sole":8661,"socken":8662,"ĠLiebes":8663,"Ġschmerz":8664,"ĠwunderschÃ¶ne":8665,"ĠLuftballons":8666,"ĠVerkÃ¤ufers":8667,"Ġ1000":8668,"ĠErsatzlieferung":8669,"Ġbrennen":8670,"okus":8671,"âĢ¦":8672,"ĠSchnor":8673,"Ġdunkle":8674,"Ġvorhandenen":8675,"ĠHeft":8676,"ĠAlternativen":8677,"ĠspÃ¤te":8678,"ĠGeburt":8679,"ĠÃ¤rgert":8680,"ĠgÃ¼nstigere":8681,"ĠwÃ¼nschenswert":8682,"Ġstarr":8683,"Ġunkomplizierte":8684,"ĠBedÃ¼rf":8685,"zentr":8686,"ĠerklÃ¤ren":8687,"ĠnÃ¤her":8688,"ĠBohrungen":8689,"Ġeingeschaltet":8690,"Ġsaug":8691,"gewicht":8692,"napf":8693,"Ġdunklen":8694,"ĠExempl":8695,"Ġhoffen":8696,"mpchen":8697,"Ġschreibt":8698,"Ġmachbar":8699,"ĠEbenso":8700,"Ġmerke":8701,"WunderschÃ¶n":8702,"Ġinformativ":8703,"Ġeingetroffen":8704,"Ġliefern":8705,"ĠScheinwerfer":8706,"Ġintuitiv":8707,"ĠbenÃ¶tigte":8708,"Ġabgerund":8709,"ĠgerÃ¤umig":8710,"ĠInneren":8711,"Benutze":8712,"ĠAbnutzung":8713,"ĠVÃ¶gel":8714,"Ġpermanent":8715,"ĠHerstellern":8716,"ĠFasching":8717,",...":8718,"40":8719,"Folie":8720,"Liegt":8721,"Mail":8722,"TE":8723,"deln":8724,"dosen":8725,"ister":8726,"kungen":8727,"uar":8728,"vel":8729,"zlich":8730,"Ġei":8731,"ĠÃ¤":8732,"Ġdimm":8733,"Ġsag":8734,"une":8735,"ĠalltÃ¤glich":8736,"ichert":8737,"asie":8738,"ĠSE":8739,"ĠSoll":8740,"ĠSCH":8741,"ĠSitu":8742,"Ġunw":8743,"ĠbrÃ¤":8744,"Ġbitter":8745,"Ġhakt":8746,"Ġheile":8747,"Ġkalten":8748,"Ġfant":8749,"Ġfurchtbar":8750,"ĠPap":8751,"Ã¼rt":8752,"schere":8753,"ĠBar":8754,"ĠBeinen":8755,"ĠMf":8756,"ĠMahl":8757,"ĠEspr":8758,"Ġanger":8759,"terung":8760,"neutral":8761,"ĠWahnsinn":8762,"Ġerwei":8763,"ssig":8764,"Ġwieso":8765,"Ġaushalten":8766,"ĠbefÃ¼r":8767,"aufwand":8768,"ĠZweit":8769,"inglich":8770,"ĠVerschlei":8771,"uma":8772,"ffe":8773,"uchter":8774,"recken":8775,"entwicklung":8776,"spiele":8777,"ĠSpiels":8778,"barer":8779,"beult":8780,"Ġumwelt":8781,"kommend":8782,"rist":8783,"Ġgekl":8784,"ĠSiehe":8785,"Ġgeschenk":8786,"ĠProblemen":8787,"ĠFarbton":8788,"Ġgenaue":8789,"ĠGeliefert":8790,"ĠNachfrage":8791,"esseln":8792,"Ġkombin":8793,"Ġbeginnen":8794,"ĠVorstellung":8795,"atterie":8796,"haltig":8797,"radio":8798,"ĠUmgebung":8799,"ulieren":8800,"Ġheut":8801,"Ġhebt":8802,"ĠGleit":8803,"ĠStÃ¼cke":8804,"Ġklebr":8805,"Ġabgegangen":8806,"wickeln":8807,"ĠFrucht":8808,"Ġchines":8809,"ĠHilfs":8810,"ĠSticks":8811,"Ġverflogen":8812,"Ġinteressante":8813,"ĠLÃ¤mpchen":8814,"Ġwichtigste":8815,"Ġteure":8816,"programm":8817,"Ġbefriedigend":8818,"ĠmuÃŁte":8819,"udeln":8820,"ĠPartner":8821,"ĠSchicke":8822,"ĠEinschrÃ¤nkung":8823,"ĠFitnes":8824,"Spiel":8825,"Ã¤mtliche":8826,"Ġfeste":8827,"ĠspÃ¼rt":8828,"Ġverhindert":8829,"ĠErwachsenen":8830,"ĠPflanz":8831,"ĠerhÃ¤ltlich":8832,"ĠSaison":8833,"ĠSchrittz":8834,"ĠHemden":8835,"ĠMÃ¼nz":8836,"Ġverarbeite":8837,"Ġaustauschen":8838,"ĠSammlung":8839,"ĠPizza":8840,"ĠAufbewahrungsbox":8841,"ĠKlassiker":8842,"ĠAroma":8843,"ĠGravur":8844,"Ġabgenutzt":8845,"Qualitativ":8846,"Sitzt":8847,"Tube":8848,"Zuerst":8849,"gsam":8850,"ooth":8851,"Ġdeck":8852,"ĠsÃ¼ss":8853,"Ġsorgen":8854,"Ġakku":8855,"steine":8856,"steigen":8857,"stift":8858,"Ġgumm":8859,"ĠSn":8860,"Ġit":8861,"Ġharte":8862,"ĠkÃ¼hlt":8863,"Ġkontroll":8864,"ĠAs":8865,"Ġzugreifen":8866,"ĠDart":8867,"elicht":8868,"elige":8869,"Ġlasse":8870,"ĠGott":8871,"ĠBug":8872,"ĠBasteln":8873,"abdeckung":8874,"ĠKal":8875,"ĠKok":8876,"ĠKlappt":8877,"ĠFaden":8878,"ktur":8879,"ror":8880,"ĠTel":8881,"Ġanwenden":8882,"gepackt":8883,"ĠWisch":8884,"mmel":8885,"ĠSchachtel":8886,"Ġverdeckt":8887,"Ġaufstellen":8888,"Ġaufwendig":8889,"ĠVan":8890,"ĠVater":8891,"Ġbeides":8892,"ĠRicht":8893,"ĠRauschen":8894,"Ġwirkte":8895,"ĠZiel":8896,"Ġkannte":8897,"Ġstramm":8898,"ĠProtag":8899,"umpt":8900,"ĠStabile":8901,"ĠStÃ¶psel":8902,"ielten":8903,"omb":8904,"leibt":8905,"opper":8906,"ĠÃ¼berragend":8907,"zellen":8908,"gelÃ¶st":8909,"ĠGerÃ¼che":8910,"ĠJÃ¤hr":8911,"vers":8912,"Ġgeruchs":8913,"ĠInfos":8914,"ĠgefÃ¤hr":8915,"ĠSohlen":8916,"hell":8917,"Ġsparsam":8918,"ĠKlam":8919,"Ġsonstiges":8920,"asta":8921,"adt":8922,"eigte":8923,"ĠBeide":8924,"Ġprogramm":8925,"quenz":8926,"ĠMaterials":8927,"Ġschweren":8928,"mension":8929,"wieder":8930,"ĠLamin":8931,"ummen":8932,"ĠRÃ¼ckmeldung":8933,"ĠGeschenkidee":8934,"Ġreichlich":8935,"Anschluss":8936,"ĠfunktionsfÃ¤hig":8937,"ĠAutom":8938,"ĠUmverpackung":8939,"schul":8940,"ĠOhrstecker":8941,"ĠBrunnen":8942,"ĠAudio":8943,"Ġdefekten":8944,"ĠDeckels":8945,"Ġbrach":8946,"ĠpersÃ¶nliche":8947,"festigkeit":8948,"ĠOberflÃ¤chen":8949,"ĠKunstleder":8950,"ĠAussen":8951,"ĠHausgebrauch":8952,"ĠWerkstatt":8953,"ĠWÃ¤schen":8954,"altete":8955,"ĠPackungen":8956,"Ġchic":8957,"ĠPraktische":8958,"Ġbeworben":8959,"ĠEmpfinden":8960,"ĠSicherung":8961,"Ġteureren":8962,"ĠSaugnÃ¤":8963,"shirt":8964,"ĠRasier":8965,"Ġirgendwel":8966,"rinzipiell":8967,"ĠWohl":8968,"modus":8969,"ĠFreizeit":8970,"ĠHaube":8971,"ĠElektron":8972,"Ġschreibe":8973,"Ġdahinter":8974,"ĠClip":8975,"Ġrepariert":8976,"ĠKÃ¤fig":8977,"ĠBesuch":8978,"ĠOrginal":8979,"ĠkrÃ¤ftiger":8980,"Ġnahezu":8981,"gnÃ¼gen":8982,"ĠMauspad":8983,"strahlung":8984,"ĠKnÃ¶chel":8985,"ĠBastel":8986,"muschel":8987,"ĠAccesso":8988,"Ġverwirrend":8989,"ĠSchablone":8990,"ĠbeschÃ¤ftigt":8991,"ĠDekoration":8992,"Ġbehandelt":8993,"ĠuneingeschrÃ¤nkt":8994,"ĠGadget":8995,"Ġmomentan":8996,"ĠDefinitiv":8997,"ĠProtagon":8998,",,":8999,",-":9000,"12":9001,"90":9002,"?)":9003,"AL":9004,"Alle":9005,"Buch":9006,"Fil":9007,"HR":9008,"Ide":9009,"Le":9010,"PP":9011,"ac":9012,"bein":9013,"disch":9014,"falt":9015,"friedigend":9016,"hosen":9017,"hÃ¼llen":9018,"jahr":9019,"ku":9020,"klass":9021,"lern":9022,"ml":9023,"ning":9024,"paket":9025,"pumpen":9026,"richtig":9027,"rÃ¼cken":9028,"uste":9029,"wach":9030,"eiÃŁen":9031,"Ġsuchte":9032,"Ġmessen":9033,"Ã¼glich":9034,"Ġunre":9035,"Ġkr":9036,"Ġkind":9037,"Ġkippt":9038,"onnen":9039,"Ġfliegt":9040,"ĠAA":9041,"ember":9042,"ĠPapp":9043,"ath":9044,"ĠschrÃ¤g":9045,"Ã¼rz":9046,"etall":9047,"scharf":9048,"schaffung":9049,"Ġlauf":9050,"ĠGo":9051,"ĠGehen":9052,"ĠGrip":9053,"ĠBam":9054,"abend":9055,"ĠHall":9056,"ĠMi":9057,"ĠEur":9058,"ĠEIN":9059,"dete":9060,"Ġankommen":9061,"reide":9062,"reiÃŁen":9063,"orfen":9064,"Ġsofern":9065,"Ġverab":9066,"Ġverstellt":9067,"ĠverÃ¤ndern":9068,"Ġmitgenommen":9069,"Ġmanch":9070,"Ġaufjedenfall":9071,"ĠIs":9072,"Ġbeob":9073,"aufsatz":9074,"aufÃ¤hig":9075,"Ġklingen":9076,"ĠProjekt":9077,"Ġablesen":9078,"ĠEinnahme":9079,"ĠÃ¼berlegt":9080,"spender":9081,"allerdings":9082,"Ġleidet":9083,"Ġumfang":9084,"verk":9085,"Ġgeruch":9086,"ĠBestellt":9087,"ĠBeurt":9088,"ĠOrd":9089,"ĠUniver":9090,"ĠAufgaben":9091,"ĠSupermarkt":9092,"Ġsprechen":9093,"ĠTopp":9094,"Ġ43":9095,"Ġgeschaut":9096,"ĠZuerst":9097,"rÃ¤umen":9098,"Ã¤chern":9099,"menge":9100,"ĠUnterschiede":9101,"losen":9102,"locken":9103,"Ã¤hte":9104,"ĠPerfekte":9105,"ĠChance":9106,"Ġbequeme":9107,"Ġverlangen":9108,"Ġpreiswerte":9109,"Ġkniff":9110,"ĠSchlaufe":9111,"ĠGummis":9112,"Ġversehen":9113,"Ġorange":9114,"ĠflÃ¼ss":9115,"ĠOberschen":9116,"fahrt":9117,"ĠKindle":9118,"ĠToaster":9119,"ĠPuppen":9120,"ĠAluminium":9121,"ĠSchlafen":9122,"wirkt":9123,"fÃ¤lle":9124,"ĠWÃ¤sch":9125,"ĠPacket":9126,"deshalb":9127,"ĠTrocken":9128,"ĠKult":9129,"owe":9130,"ĠÃĦhn":9131,"Ġinneren":9132,"upper":9133,"ĠâĢ¦":9134,"ĠNeues":9135,"ĠSichtschutz":9136,"Ġ2019":9137,"rutscht":9138,"ĠHeizung":9139,"Ġhalbwegs":9140,"Ġtrinke":9141,"ĠRoller":9142,"ĠNotfall":9143,"ĠPluspunkt":9144,"Ġerfordert":9145,"ĠEigenschaften":9146,"ĠBÃ¼ch":9147,"ĠLogo":9148,"Ġscharfen":9149,"ĠNormalerweise":9150,"Ġunzufrieden":9151,"ĠBirne":9152,"ĠExtra":9153,"Ġtrennen":9154,"Entspricht":9155,"ĠBeschÃ¤digung":9156,"hÃ¶he":9157,"Ġquietscht":9158,"LÃ¤sst":9159,"Ġonline":9160,"bessern":9161,"ĠRatgeber":9162,"ĠLeggings":9163,"Ã¼ndin":9164,"ĠsorgfÃ¤ltig":9165,"ĠRosa":9166,"Ġverformt":9167,"ĠKonkurrenz":9168,"Ġanspruchsvoll":9169,"spielsweise":9170,"ĠYouTube":9171,"Ġunproblematisch":9172,"ĠBedÃ¼rfnisse":9173,"70":9174,"AM":9175,"Immer":9176,"ader":9177,"bte":9178,"belt":9179,"finden":9180,"fassung":9181,"gy":9182,"ganz":9183,"kÃ¤":9184,"lungs":9185,"mÃ¤n":9186,"sind":9187,"tuch":9188,"user":9189,"Ġy":9190,"chig":9191,"chtet":9192,"eskop":9193,"Ġmissen":9194,"Ã¼l":9195,"ehÃ¶r":9196,"ĠunÃ¼ber":9197,"ĠunvollstÃ¤ndig":9198,"Ã¤lle":9199,"Ġbischen":9200,"Ġbildet":9201,"Ġhappy":9202,"Ġzahlen":9203,"Ġkm":9204,"teuer":9205,"Ġfangen":9206,"ĠfÃ¼llen":9207,"auss":9208,"ĠPant":9209,"ĠPrÃ¼":9210,"ĠPump":9211,"schade":9212,"ĠKEIN":9213,"ĠFrieden":9214,"ĠFÃ¶hn":9215,"ĠLeitung":9216,"ĠMade":9217,"ĠMist":9218,"ĠTed":9219,"Ġangeh":9220,"ĠanfÃ¼hlt":9221,"reiz":9222,"reibungen":9223,"gekommen":9224,"ĠWachs":9225,"ĠgefÃ¼hl":9226,"Ġerlebt":9227,"Ġinn":9228,"Ġpo":9229,"Ġverpacken":9230,"Ġmitten":9231,"Ġaufgenommen":9232,"Ġtagen":9233,"Ġtasche":9234,"Ġtreffen":9235,"ĠVis":9236,"Ġausgef":9237,"Ġbeein":9238,"rallen":9239,"ĠZent":9240,"ĠZeiger":9241,"ĠVerwend":9242,"ĠStroh":9243,"ĠSturm":9244,"ĠAnker":9245,"ĠAnspruch":9246,"olzen":9247,"Ġwaschbar":9248,"Ġweicht":9249,"dul":9250,"gerie":9251,"ĠÃ¼berzogen":9252,"ĠÃ¼bersehen":9253,"spekt":9254,"ickelt":9255,"ĠErfÃ¼llen":9256,"ĠJungs":9257,"versand":9258,"Ġgerechnet":9259,"osmet":9260,"wertiges":9261,"mittelt":9262,"ĠBefÃ¼llen":9263,"ĠAbzÃ¼ge":9264,"ĠAbwechslung":9265,"Ġ300":9266,"ĠGefahr":9267,"Ġdurchsicht":9268,"offeln":9269,"key":9270,"schlossen":9271,"eue":9272,"Ġdreh":9273,"iller":9274,"Ġhierbei":9275,"Ġangeben":9276,"agell":9277,"ĠAusstattung":9278,"ĠSternabzug":9279,"Ġunseres":9280,"Ġsehenswert":9281,"Ġberuh":9282,"etzer":9283,"Ġeigentlichen":9284,"ĠReiss":9285,"Ġbedruckt":9286,"ĠÃľberblick":9287,"Ġniemals":9288,"Ġdickeren":9289,"ĠmÃ¼ssten":9290,"ĠDellen":9291,"ĠbestÃ¤tigt":9292,"ĠSchwamm":9293,"Ġrollen":9294,"ĠFlach":9295,"ĠLieferanten":9296,"getasche":9297,"ĠðŁĺģ":9298,"Ġbemessen":9299,"aubsauger":9300,"ĠhÃ¼bsches":9301,"ĠMagnetverschluss":9302,"ĠGroÃŁer":9303,"Ġaufgeklebt":9304,"ĠGener":9305,"ĠModellen":9306,"ĠShorts":9307,"ĠÃ¤hnlichen":9308,"Ġteurere":9309,"ĠRegale":9310,"ĠTelefonieren":9311,"ĠoberflÃ¤":9312,"ĠBedingt":9313,"Und":9314,"ĠWeiterempfehlung":9315,"ĠHelium":9316,"ĠTaille":9317,"ĠGesichts":9318,"ĠWÃ¤rm":9319,"Ġplatziert":9320,"ĠTrainings":9321,"ĠfÃ¼ndig":9322,"ĠYoutube":9323,"ĠDuschkopf":9324,"ĠfÃ¼hren":9325,"Ġstrahlen":9326,"ĠDuschen":9327,"ĠFeatur":9328,"Ġergibt":9329,"ĠBrause":9330,"Ġtaugt":9331,"ĠLinsen":9332,"ĠKompakt":9333,"ĠglÃ¤nzt":9334,"ĠFeuerzeug":9335,"ĠRundum":9336,"Ġabgeschnitten":9337,"ĠLenker":9338,"ĠAblauf":9339,"ĠKerze":9340,"ĠschlÃ¤gt":9341,"Ġpriv":9342,"Ġnachbestellt":9343,"Ġtelefonieren":9344,"Ġspannende":9345,"intendo":9346,"Ġvorderen":9347,"ĠVerfÃ¤r":9348,"ĠInteressant":9349,"ĠStÃ¤rke":9350,"ĠOrdentlich":9351,"ĠVerbindungs":9352,"ĠVolumen":9353,"ĠirrefÃ¼hrend":9354,"ĠMillimeter":9355,"ĠannÃ¤her":9356,"ĠYoga":9357,"ĠSUPER":9358,"mechanismus":9359,"ĠSchrittzÃ¤hler":9360,"11":9361,"App":9362,"IM":9363,"KW":9364,"Or":9365,"TB":9366,"cover":9367,"dapter":9368,"fÃ¤nger":9369,"grad":9370,"kette":9371,"kÃ¶rper":9372,"lack":9373,"lampen":9374,"we":9375,"eifen":9376,"Ġdich":9377,"Ġduf":9378,"Ġwomit":9379,"Ġmiss":9380,"ĠSauer":9381,"Ġbunt":9382,"Ġhing":9383,"ĠhÃ¤ss":9384,"ĠhÃ¤nd":9385,"ĠzÃ¤h":9386,"Ġkennen":9387,"Ġkreativ":9388,"Ġzugesch":9389,"Ġvia":9390,"ĠDÃ¼":9391,"ĠDrit":9392,"ĠDown":9393,"ato":9394,"eldet":9395,"ĠGÃ¼nstige":9396,"ĠKÃ¶":9397,"ĠLatten":9398,"ĠHon":9399,"ĠMasse":9400,"ĠMacke":9401,"ĠEcho":9402,"ĠTom":9403,"ĠTri":9404,"ĠTeils":9405,"reibt":9406,"gestell":9407,"ÃŁer":9408,"Ġerscheinen":9409,"ĠverhÃ¤ltnis":9410,"Ġaufgestellt":9411,"Ġtat":9412,"ĠNetter":9413,"ĠNintendo":9414,"eschÃ¶n":9415,"ament":9416,"ĠOl":9417,"ĠOben":9418,"ĠStatt":9419,"Ġnachkaufen":9420,"ĠAnschaffung":9421,"Ġweist":9422,"ĠÃ¼bertragen":9423,"ĠÃ¼berleben":9424,"sph":9425,"ĠSpalt":9426,"ĠHandel":9427,"bares":9428,"bekommt":9429,"Ġums":9430,"ĠGern":9431,"Ġents":9432,"ĠCoole":9433,"ĠIntens":9434,"schlÃ¤ge":9435,"Ġspann":9436,"Ġgewusst":9437,"Schutz":9438,"adeln":9439,"Ġunterscheiden":9440,"Ġangep":9441,"geschwindigkeit":9442,"Ġtopp":9443,"quet":9444,"esselt":9445,"ĠFilmen":9446,"Ġkomische":9447,"ĠKabelb":9448,"Ġihrem":9449,"ĠschwÃ¤cher":9450,"Ġgemerkt":9451,"Ġdeutschen":9452,"ĠHerstellung":9453,"ĠSpielerei":9454,"ĠWochenende":9455,"Ġlaute":9456,"Ġfunktionell":9457,"ĠChips":9458,"ĠÃľberras":9459,"ĠÃľbersetzung":9460,"Ġstarkem":9461,"Ġ65":9462,"Ġverbindet":9463,"ĠKnick":9464,"ĠPunktzahl":9465,"Ġdreimal":9466,"Ã¤hrend":9467,"ĠÃĸsen":9468,"Ġweiches":9469,"ĠModi":9470,"Ġrosten":9471,"scheinungen":9472,"ĠFlÃ¼ssig":9473,"ĠSchraubendreher":9474,"fÃ¼hrer":9475,"ĠSmooth":9476,"ĠKonzept":9477,"Ġanzuschauen":9478,"Ġanzuwenden":9479,"Ġvermisse":9480,"Ġminus":9481,"ĠShop":9482,"ĠverspÃ¤":9483,"ĠeingedrÃ¼ckt":9484,"ĠSonnenbrille":9485,"weilige":9486,"Ġelastisch":9487,"ĠFolgen":9488,"Ġwichtigsten":9489,"ventil":9490,"ĠRiesen":9491,"ĠWaschbecken":9492,"ĠKlapp":9493,"Ġseid":9494,"ĠanfÃ¤ngt":9495,"zeichnung":9496,"ĠZweifel":9497,"sorgung":9498,"ĠThemen":9499,"Ġhalbes":9500,"ĠVarianten":9501,"ĠPortm":9502,"Ġfixiert":9503,"ĠWeb":9504,"ĠMundstÃ¼ck":9505,"face":9506,"ĠBÃ¼chern":9507,"ndl":9508,"ĠFlugzeug":9509,"Ġâĺ":9510,"ĠGrÃ¼nden":9511,"schaltung":9512,"ĠFelgen":9513,"ĠCooles":9514,"Ġausreichende":9515,"ĠvernÃ¼nftige":9516,"Ġfusselt":9517,"Ġidentisch":9518,"ĠWÃ¼nschen":9519,"Ġproduziert":9520,"ĠVerarbeitungsqualitÃ¤t":9521,"ĠVerlÃ¤ngerung":9522,"verhÃ¤ltniss":9523,"ĠungenÃ¼gend":9524,"ĠPreiss":9525,"ĠContra":9526,"ĠBekannten":9527,"ĠStrumpfhose":9528,"ĠursprÃ¼nglich":9529,"akuum":9530,"ĠBoxersh":9531,"ĠOrganizer":9532,"ĠBademantel":9533,"ĠZutaten":9534,"ĠTeleskop":9535,"ĠElektronik":9536,"ĠBambus":9537,"oween":9538,"agellack":9539,"60":9540,"EG":9541,"Hil":9542,"Karte":9543,"Ok":9544,"Play":9545,"Uhr":9546,"bÃ¼cher":9547,"dam":9548,"fragen":9549,"gige":9550,"hte":9551,"kal":9552,"kappen":9553,"mungs":9554,"ofen":9555,"ressen":9556,"rÃ¼ckt":9557,"trÃ¤ger":9558,"ual":9559,"usche":9560,"watch":9561,"Ãĸ":9562,"Ġ>":9563,"eidig":9564,"ĠsaÃŁ":9565,"Ġsauer":9566,"Ġglaub":9567,"Ġwichtige":9568,"asert":9569,"Ġmilch":9570,"Ã¼fter":9571,"ehalter":9572,"Ġeint":9573,"Ġeinsch":9574,"Ġeingehalten":9575,"Ġku":9576,"ĠPen":9577,"ĠPÃ¼nktlich":9578,"atratze":9579,"ĠLein":9580,"ĠHÃ¼bsche":9581,"ĠHÃ¼ndin":9582,"rolle":9583,"ĠMei":9584,"ĠEw":9585,"ĠEffekte":9586,"ĠTrau":9587,"Ġangeliefert":9588,"Ġangetan":9589,"gest":9590,"ĠWM":9591,"ĠWickel":9592,"ochte":9593,"ĠpÃ¼nktliche":9594,"ĠScheine":9595,"ĠSchaut":9596,"Ġverdreht":9597,"eitigen":9598,"reisp":9599,"ĠNÃ¼tz":9600,"ĠName":9601,"Ġbeispielsweise":9602,"ĠRose":9603,"ĠRelativ":9604,"ilitÃ¤t":9605,"ĠVergrÃ¶ÃŁ":9606,"ĠStÃ¤be":9607,"anzÃ¶s":9608,"ĠUN":9609,"ĠEins":9610,"ika":9611,"Ġ--":9612,"ĠHandlich":9613,"ĠHandschuhen":9614,"Ġvorm":9615,"haltet":9616,"ĠJu":9617,"eiler":9618,"Ġentsor":9619,"egment":9620,"ĠIndukt":9621,"ssensor":9622,"kea":9623,"sstark":9624,"ĠKlick":9625,"Ġweiterer":9626,"ettchen":9627,"artige":9628,"Ġdefekte":9629,"Ġherr":9630,"Ġherstellen":9631,"ĠReflekt":9632,"ĠZeitraum":9633,"rÃ¤ge":9634,"ĠNachhinein":9635,"Ġmeinerseits":9636,"ĠAuslauf":9637,"ĠVersuchen":9638,"ĠKindergarten":9639,"ĠBlin":9640,"ĠLeuchtet":9641,"Ġkonstru":9642,"Ġschwimmen":9643,"Ã¼tteln":9644,"Ġeinwandfreie":9645,"ĠVorhÃ¤nge":9646,"wiegend":9647,"remium":9648,"ĠDeckkraft":9649,"Ġende":9650,"lock":9651,"vorhang":9652,"wenig":9653,"ĠÃľbertragung":9654,"uchtig":9655,"ĠUmschlag":9656,"Ġirrit":9657,"ĠDelle":9658,"ĠKnall":9659,"samkeit":9660,"ĠTex":9661,"ĠKleben":9662,"ĠFernglas":9663,"Ġhellen":9664,"Ġausser":9665,"ĠPfannen":9666,"ritten":9667,"ĠBenutzen":9668,"Ġordentliches":9669,"Ġflop":9670,"ĠbenÃ¶tigen":9671,"ĠTischdecke":9672,"Stabil":9673,"Ġgleicher":9674,"ĠBerÃ¼hrung":9675,"ruhe":9676,"Ġbekannten":9677,"Ġbekannte":9678,"ĠbezÃ¼glich":9679,"ĠSonnenein":9680,"Ġangeschaut":9681,"ordert":9682,"buchse":9683,"handschuhe":9684,"Ġgrosse":9685,"ĠGegenteil":9686,"ĠSchlafsack":9687,"lebnis":9688,"ĠNetzwerk":9689,"fÃ¤higkeit":9690,"zÃ¼glich":9691,"ĠThermo":9692,"ĠFleck":9693,"ĠKarne":9694,"Ġvergil":9695,"ĠSorte":9696,"Ġstrap":9697,"ĠKleiderbÃ¼gel":9698,"Ġgesamten":9699,"ĠBÃ¤sse":9700,"ĠGerÃ¤uschpegel":9701,"ĠPriv":9702,"ĠTiefe":9703,"ĠKontra":9704,"ĠLenkrad":9705,"frist":9706,"stÃ¤ndige":9707,"ĠschlÃ¤ft":9708,"ĠOutdoor":9709,"lehne":9710,"Ġnachvollziehen":9711,"spannung":9712,"Stecker":9713,"Ġschleifen":9714,"ĠKilo":9715,"ĠRetoure":9716,"ĠLupe":9717,"ĠToiletten":9718,"ĠWartezeit":9719,"ĠDosierung":9720,"Ġaussprechen":9721,"Ġrechnen":9722,"ĠPinzette":9723,"ĠBikini":9724,"Ġzusammenk":9725,"ĠTesa":9726,"Ġpenet":9727,"ĠOffice":9728,"ĠInsekten":9729,"ĠInhaltsstoffe":9730,"ĠLetztendlich":9731,"ĠTeddy":9732,"ĠannÃ¤hernd":9733,"EM":9734,"Em":9735,"Fern":9736,"FÃ¤llt":9737,"Karten":9738,"MS":9739,"Musste":9740,"Sterne":9741,"Te":9742,"baut":9743,"blech":9744,"dar":9745,"fung":9746,"haube":9747,"ka":9748,"kern":9749,"lange":9750,"lÃ¶ffel":9751,"nder":9752,"nÃ¤chst":9753,"red":9754,"trotz":9755,"eien":9756,"eiert":9757,"iept":9758,"Ġapp":9759,"stich":9760,"ĠgrÃ¼":9761,"Ġgilt":9762,"Ġmar":9763,"Ġno":9764,"ĠSÃ¤ckchen":9765,"ĠunschÃ¶ne":9766,"ĠbrÃ¼":9767,"Ġblass":9768,"Ġzier":9769,"Ġzahl":9770,"Ġkat":9771,"Ġfit":9772,"Ġfarben":9773,"Ġfraglich":9774,"ĠApfel":9775,"Ġveg":9776,"Ġvibr":9777,"aug":9778,"Ã¶se":9779,"elen":9780,"Ġli":9781,"ĠlÃ¤nge":9782,"achrichtig":9783,"ĠBull":9784,"abwicklung":9785,"ĠFun":9786,"ĠFakt":9787,"rocken":9788,"ĠMer":9789,"ĠEUR":9790,"ĠEmail":9791,"ĠTeich":9792,"Ġang":9793,"Ġanhand":9794,"ĠWend":9795,"ĠWanne":9796,"Ġgedreht":9797,"Ġaufkleben":9798,"Ġtritt":9799,"Ġbeden":9800,"Ġdazug":9801,"Ġdazwischen":9802,"ĠNet":9803,"ĠNagellack":9804,"ioniert":9805,"sender":9806,"ĠOs":9807,"Ġallgemeinen":9808,"riesen":9809,"lag":9810,"ush":9811,"zubauen":9812,"weichen":9813,"ĠProduktion":9814,"ĠÃ¼bermÃ¤ÃŁig":9815,"spir":9816,"Ġpassten":9817,"ĠSpar":9818,"ĠErinner":9819,"Ġ22":9820,"ĠentÃ¤uscht":9821,"ĠChr":9822,"mitter":9823,"ĠBest":9824,"ĠBezÃ¼ge":9825,"ĠAbweich":9826,"ausbeute":9827,"Ġspitzen":9828,"Ġspiele":9829,"Ġspiegelt":9830,"Schle":9831,"Ġbescheiden":9832,"adio":9833,"Ġ48":9834,"wecker":9835,"ĠhierfÃ¼r":9836,"lÃ¤uf":9837,"lÃ¤gt":9838,"ĠBuchse":9839,"brauen":9840,".......":9841,"Ġgesichert":9842,"eigenschaften":9843,"ĠSchultern":9844,"ĠKaufe":9845,"ĠLeuten":9846,"ĠBeschwerden":9847,"Ġpassendes":9848,"Ġpraktischen":9849,"Ġschwache":9850,"etzung":9851,"wogen":9852,"Ġsicheren":9853,"drÃ¼ck":9854,"Ġlege":9855,"eichter":9856,"eichern":9857,"ĠHerzen":9858,"Ġbedarf":9859,"Ġwelchem":9860,"Ġgedruckt":9861,"ĠUmgang":9862,"ood":9863,"ĠEmpfehle":9864,"Ġschlimmer":9865,"ĠTeelicht":9866,"Ġsteuern":9867,"ĠVerkauf":9868,"Ġbesondere":9869,"Ġdirekten":9870,"ateg":9871,"Ġproblematisch":9872,"ĠSchlicht":9873,"anders":9874,"renzt":9875,"Ġheiss":9876,"Ġorg":9877,"ĠFahren":9878,"Ġlesenswert":9879,"ĠMensch":9880,"Ġflackern":9881,"Ġartikel":9882,"ĠðŁĺħ":9883,"ĠðŁĺį":9884,"ĠTonne":9885,"ĠAuÃŁer":9886,"Stoff":9887,"geholt":9888,"ĠKapsel":9889,"Ġabgegeben":9890,"Ġerfolgreich":9891,"ruppe":9892,"ĠWerkzeuge":9893,"Ġbetrieben":9894,"Ġbetreiben":9895,"ĠFris":9896,"ĠÃĸffnungen":9897,"Ġbezeichnen":9898,"ĠGegenstÃ¤nde":9899,"ĠInteresse":9900,"ĠKontaktaufnahme":9901,"holt":9902,"Ġzeitnah":9903,"ĠDarauf":9904,"ĠDarstellung":9905,"ĠLaufwerk":9906,"Ġentsprechenden":9907,"ĠHandgelenke":9908,"Ġunversehr":9909,"Ã¤mpfen":9910,"ĠMacbook":9911,"Ġmoder":9912,"ĠWeniger":9913,"ĠRechtsch":9914,"ĠPaste":9915,"ĠHoffentlich":9916,"ĠWhite":9917,"ĠhÃ¶chstens":9918,"ĠPlastiktÃ¼te":9919,"ĠglÃ¤nzend":9920,"ĠWorte":9921,"mÃ¶gen":9922,"ĠDirndl":9923,"Ã¤mmen":9924,"ĠBlutdruck":9925,"ĠerhÃ¶ht":9926,"Ġnachvollzieh":9927,"ĠVogel":9928,"ĠGlÃ¼hbirnen":9929,"Design":9930,"Ġerinnert":9931,"Ġrealistisch":9932,"Ġbereut":9933,"Ġdreckig":9934,"ĠLightning":9935,"ĠGesprÃ¤ch":9936,"ĠHilfsmittel":9937,"ĠMÃ¼nzfach":9938,"ĠVanille":9939,"ĠKlamotten":9940,"ĠSaugnÃ¤pfe":9941,"ĠSonneneinstrahlung":9942,"ĠdazugehÃ¶r":9943,"Brau":9944,"Lan":9945,"Lampe":9946,"NE":9947,"Prima":9948,"Prom":9949,"dichte":9950,"hÃ¤ngt":9951,"luft":9952,"system":9953,"tchen":9954,"tage":9955,"tÃ¼cher":9956,"taschen":9957,"wÃ¼rde":9958,"zelt":9959,"stauglich":9960,"Ġgrav":9961,"ĠgÃ¤ng":9962,"Ġgummi":9963,"Ġmechan":9964,"Ġmiser":9965,"anc":9966,"ĠSeil":9967,"ĠSym":9968,"Ġiphone":9969,"Ã¤ppchen":9970,"Ġhielten":9971,"ichts":9972,"Ġeinnehmen":9973,"Ġeingelegt":9974,"Ġeinkaufen":9975,"Ġzahlt":9976,"Ġzuschneiden":9977,"Ġnichtmal":9978,"ĠschÃ¤":9979,"ĠGB":9980,"ĠGabel":9981,"ĠGard":9982,"ĠBon":9983,"ĠLassen":9984,"ĠLÃ¤ngen":9985,"ĠLink":9986,"ĠMachen":9987,"ĠMate":9988,"ĠTool":9989,"ĠWin":9990,"ĠWob":9991,"ĠWahrscheinlich":9992,"Ġerzeugt":9993,"Ġindem":9994,"Ġposition":9995,"Ġaufbewahr":9996,"Ġteile":9997,"Ġtags":9998,"andlung":9999,"ĠNix":10000,"ĠNoppen":10001,"ĠNahrung":10002,"Ġrunden":10003,"ĠRosen":10004,"ĠZwie":10005,"ĠVerg":10006,"ĠVerarbeitet":10007,"ĠVerschenken":10008,"ĠVermutlich":10009,"Ġstreiten":10010,"ĠProbe":10011,"ĠStinkt":10012,"ĠStreu":10013,"ĠStadt":10014,"ĠdemnÃ¤chst":10015,"edback":10016,"entasche":10017,"Ġabschalten":10018,"Ġabbekommen":10019,"Ġabschneiden":10020,"laut":10021,"weist":10022,"weicht":10023,"Ġschnelles":10024,"feuchter":10025,"ĠProduktions":10026,"Ġokey":10027,"Ġvorteil":10028,"halme":10029,"otter":10030,"Ġgenannten":10031,"Ġgelingt":10032,"ĠInvest":10033,"Ġgefragt":10034,"ĠAuft":10035,"ĠlÃ¤st":10036,"Ġdrucken":10037,"artiges":10038,"Ġdezen":10039,"Schuhe":10040,"Ġheran":10041,"bricht":10042,"ĠMatratzen":10043,"ĠBoot":10044,"lies":10045,"lieben":10046,"liebt":10047,"ĠAusreichend":10048,"laubt":10049,"Ġbrauchten":10050,"dliche":10051,"mente":10052,"Ġeinzur":10053,"ummt":10054,"Ġbesp":10055,"onee":10056,"Ġsicherer":10057,"dringlich":10058,"Ġabsolutes":10059,"ĠgrÃ¶ÃŁeres":10060,"lob":10061,"loser":10062,"formen":10063,"aka":10064,"obwohl":10065,"ĠOption":10066,"ĠweiÃŁer":10067,"ĠNachttisch":10068,"rink":10069,"Ġverbiegt":10070,"izierter":10071,"Ġschlanke":10072,"ĠSchwimmen":10073,"ĠOhrstÃ¶psel":10074,"ĠBretter":10075,"Ġpreiswerter":10076,"Ġgestunken":10077,"ĠDruckqualitÃ¤t":10078,"ĠDruckknÃ¶pfe":10079,"ĠLuftblasen":10080,"ĠLiefertermin":10081,"ĠHaftung":10082,"ĠEntweder":10083,"ĠPferd":10084,"âĢĺ":10085,"ĠGummir":10086,"ĠGummist":10087,"stoffe":10088,"Ġrobustes":10089,"ĠMankos":10090,"Ġwackeln":10091,"ĠLager":10092,"Ġdunkl":10093,"ĠPuls":10094,"ĠKaputt":10095,"sprache":10096,"Ġabgest":10097,"ĠHausschuhe":10098,"oppeln":10099,"wirkungen":10100,"Ġeingegangen":10101,"Ġaufzubringen":10102,"sichtigt":10103,"Ġangeschafft":10104,"ĠGrÃ¼ÃŁe":10105,"ĠGrÃ¶ÃŁenangabe":10106,"scheidet":10107,"ĠLÃ¼ft":10108,"Ġwasserfest":10109,"Ġcooles":10110,"ĠRasur":10111,"ustiges":10112,"ðŁĳįðŁı»":10113,"ĠÃ¤uÃŁere":10114,"ĠVorteile":10115,"ĠzweckmÃ¤ÃŁig":10116,"ĠWeste":10117,"Ġstraff":10118,"ĠFÃ¼ller":10119,"ĠLinie":10120,"ĠProgramme":10121,"Ġlese":10122,"ĠFreien":10123,"ĠKugelschreiber":10124,"Ġeinzigste":10125,"ĠLogite":10126,"Ġunzur":10127,"ĠErsatzteile":10128,"wohnt":10129,"!!!!!!!!!!!!!!!!":10130,"Ã¤ssig":10131,"Ġvorgesehenen":10132,"ĠKlemme":10133,"lehnen":10134,"Ã¤tteisen":10135,"Geschmacklich":10136,"Ġgeboten":10137,"Ġgebohrt":10138,"ĠSchlÃ¤uche":10139,"ĠStimme":10140,"Ġtragbar":10141,"ĠVerzÃ¶":10142,"Ġtrainieren":10143,"ĠBeanstandung":10144,"ĠEtiketten":10145,"ĠherkÃ¶mmlichen":10146,"ĠScharniere":10147,"ĠKaffeemaschine":10148,"Ġbetrachtet":10149,"ĠbeigefÃ¼gten":10150,"Ġschrecklich":10151,"ĠzerstÃ¶rt":10152,"ĠExemplar":10153,"ĠEspresso":10154,"ĠKokos":10155,"ĠgefÃ¤hrlich":10156,"ĠBeurteilung":10157,"ĠOrdner":10158,"Ġentsorgt":10159,"ĠWobei":10160,"Besser":10161,"De":10162,"GroÃŁ":10163,"Gibt":10164,"KopfhÃ¶rer":10165,"LA":10166,"Teil":10167,"ZunÃ¤chst":10168,"dÃ¼n":10169,"fett":10170,"hung":10171,"kein":10172,"kelt":10173,"kanne":10174,"loch":10175,"muss":10176,"plastik":10177,"swerte":10178,"top":10179,"wÃ¤hlen":10180,"zwei":10181,"Ã©":10182,"Ġdur":10183,"Ġdehn":10184,"Ġsu":10185,"ĠsÃ¼":10186,"Ġsynchron":10187,"Ġwischen":10188,"Ġmatte":10189,"Ġmochte":10190,"inte":10191,"ansonsten":10192,"Ã¤ter":10193,"arzt":10194,"ĠhÃ¶rbar":10195,"techn":10196,"Ġfolgt":10197,"igment":10198,"ĠPfe":10199,"Ġschutz":10200,"etui":10201,"schte":10202,"Ġleg":10203,"ĠGramm":10204,"ĠGoogle":10205,"acher":10206,"ĠBem":10207,"ĠKenn":10208,"ĠKosmet":10209,"ĠFas":10210,"ĠFÃ¶n":10211,"ĠFische":10212,"ĠLab":10213,"ĠLekt":10214,"ĠHappy":10215,"ĠMust":10216,"ĠTatt":10217,"ĠTube":10218,"reiche":10219,"gegangen":10220,"ĠWissen":10221,"ĠWaff":10222,"mmen":10223,"Ġgepackt":10224,"ĠergÃ¤n":10225,"Ġinter":10226,"ĠSchalt":10227,"Ġversteckt":10228,"Ġmithalten":10229,"Ġaufnehmen":10230,"steuerung":10231,"ĠIST":10232,"ĠNudeln":10233,"Ġrunde":10234,"auflage":10235,"ĠZauber":10236,"acker":10237,"Ġdemnach":10238,"ĠAnlass":10239,"ĠAnsich":10240,"olgen":10241,"reckt":10242,"Ġabgef":10243,"Ġabgenommen":10244,"ĠEinhorn":10245,"zuempfehlen":10246,"Ġschonmal":10247,"zell":10248,"ĠSpl":10249,"gelung":10250,"Ġvorkommen":10251,"haltlich":10252,"Ã¶rder":10253,"bler":10254,"packte":10255,"ĠCar":10256,"ĠAbbruch":10257,"Ġ32":10258,"ĠgroÃŁem":10259,"ĠWassert":10260,"sstudio":10261,"ĠKlima":10262,"Ġgewohn":10263,"Ġgewachsen":10264,"astelt":10265,"ĠRede":10266,"ungsmittel":10267,"plung":10268,"ĠzurÃ¼ckzu":10269,"ĠGelegenheit":10270,"ĠStell":10271,"quelle":10272,"Ġkurzes":10273,"ĠAusgang":10274,"Ġlangsamer":10275,"ĠKabeln":10276,"ĠberÃ¼ck":10277,"Ġoptische":10278,"umme":10279,"Ġbilliges":10280,"Ġnormalem":10281,"ĠÃľberschrift":10282,"ĠGewÃ¶hn":10283,"ĠGewÃ¼rz":10284,"ĠAudi":10285,"ĠAnleitungen":10286,"ĠFlip":10287,"arfum":10288,"ĠSchnick":10289,"ĠSchnÃ¤ppchen":10290,"ippe":10291,"ĠÃ¼berraschen":10292,"ĠKombi":10293,"Ġbemerk":10294,"ĠSitzflÃ¤che":10295,"ĠðŁĳįðŁĳįðŁĳį":10296,"ĠDenke":10297,"ĠbetrÃ¤gt":10298,"Ġbeklagen":10299,"Ġzerlegen":10300,"ĠÃ¶l":10301,"armin":10302,"ĠHilfrei":10303,"ĠÃĦnder":10304,"ĠAugenbrauen":10305,"ĠSchlÃ¼sselbund":10306,"glÃ¼ck":10307,"ĠÃ¶fteren":10308,"ĠGruÃŁ":10309,"Ġschlechtere":10310,"fehlen":10311,"ĠRezepten":10312,"ĠFestplatten":10313,"ĠSchlechter":10314,"Ġ150":10315,"ĠgrÃ¼nen":10316,"ĠKamin":10317,"ĠKomment":10318,"ibilitÃ¤t":10319,"Ġglauben":10320,"ĠAnders":10321,"ĠAnderen":10322,"ĠMÃ¼lleimer":10323,"Ġbewertet":10324,"ĠAngenehmer":10325,"ĠHauptsache":10326,"ĠWellen":10327,"ĠÃ¤lteren":10328,"gutes":10329,"Ġlustiges":10330,"ĠVerbesserungs":10331,"ĠFalsch":10332,"ĠIPad":10333,"Ġsimp":10334,"ĠTageslicht":10335,"jÃ¤hrigen":10336,"ĠWhisk":10337,"vertreib":10338,"Ġbeiliegende":10339,"ĠFerse":10340,"Ġbeinhaltet":10341,"Ġident":10342,"ĠHeimwerker":10343,"Ġreduziert":10344,"Ġeignen":10345,"ĠKameras":10346,"Ġgetrennt":10347,"ĠFavorit":10348,"Ġkorrigieren":10349,"Ġsperrig":10350,"ĠDiffuser":10351,"Ġgrell":10352,"ĠHardware":10353,"Ġgekauften":10354,"Ġstets":10355,"ĠBuggy":10356,"ĠHalloween":10357,"ĠPortmonee":10358,"Ġvergilbt":10359,"Ġunversehrt":10360,"ĠtagsÃ¼ber":10361,"Bl":10362,"Gel":10363,"Gek":10364,"Lei":10365,"Lade":10366,"Nun":10367,"OR":10368,"brochen":10369,"bÃ¤ndern":10370,"case":10371,"eo":10372,"fast":10373,"izen":10374,"jen":10375,"jedoch":10376,"kennt":10377,"karre":10378,"nommen":10379,"oos":10380,"pistole":10381,"ruf":10382,"rungen":10383,"toll":10384,"vol":10385,"vant":10386,"wÃ¤hlt":10387,"zufrieden":10388,"chst":10389,"erien":10390,"enov":10391,"Ġdecken":10392,"Ġsitz":10393,"Ġstern":10394,"stÃ¼tze":10395,"Ġmen":10396,"Ġmark":10397,"Ġmisst":10398,"Ġmake":10399,"Ġmetall":10400,"Ã¼ht":10401,"ehin":10402,"ĠSSD":10403,"utet":10404,"Ġblas":10405,"arren":10406,"Ġzeigte":10407,"Ġaussen":10408,"Ġfanden":10409,"ĠAlt":10410,"ĠAdr":10411,"aucht":10412,"ĠParfum":10413,"elbe":10414,"schwarz":10415,"ĠBlÃ¤":10416,"ĠKabell":10417,"rock":10418,"ĠMB":10419,"ĠMand":10420,"ĠMÃ¼hle":10421,"ĠEp":10422,"Ġank":10423,"Ġaneinander":10424,"Ġangesetzt":10425,"ĠgefÃ¼t":10426,"anner":10427,"ĠSchwie":10428,"Ġverglichen":10429,"ĠaufhÃ¶ren":10430,"ĠIkea":10431,"ĠaushÃ¤lt":10432,"Ġauswaschen":10433,"Ġbearbeitet":10434,"ĠNass":10435,"hrer":10436,"ĠDiesen":10437,"ĠZettel":10438,"ĠVersp":10439,"Ġstr":10440,"ĠstÃ¤nd":10441,"ĠOne":10442,"ĠSteht":10443,"Ġnachzu":10444,"lendet":10445,"Ġabt":10446,"Ġmehrer":10447,"iefern":10448,"ĠQualit":10449,"hnehin":10450,"leiche":10451,"zustand":10452,"ĠÃ¼bers":10453,"ĠGutschrift":10454,"ecke":10455,"gelenk":10456,"verl":10457,"verschluÃŁ":10458,"ĠCrem":10459,"lasche":10460,"Ġgeliebt":10461,"ĠIns":10462,"Ġgefressen":10463,"werfen":10464,"ĠUns":10465,"immert":10466,"Ġ400":10467,"stellte":10468,"Ġunterhalten":10469,"Ġcase":10470,"Ġverarbeitetes":10471,"ĠZeitvertreib":10472,"ĠGelenk":10473,"schiedet":10474,"ĠNachrichten":10475,"Ġfesthalten":10476,"ustr":10477,"ĠgehÃ¶ren":10478,"ĠselbstverstÃ¤ndlich":10479,"ĠBeschreibungen":10480,"ics":10481,"klemmt":10482,"ĠVorher":10483,"ummis":10484,"stÃ¤nden":10485,"boter":10486,"Ġreibt":10487,"Ġzusammenge":10488,"ĠHerr":10489,"Ġdickes":10490,"Ġbehau":10491,"ĠOriginale":10492,"ĠOriginalen":10493,"Ġprobleme":10494,"ĠBrenn":10495,"gematte":10496,"ĠFlur":10497,"ĠLieferant":10498,"probiert":10499,"ĠDurchschnitt":10500,"druckt":10501,"Ġarm":10502,"ĠðŁĺĢ":10503,"Ġgebunden":10504,"ĠMaÃŁen":10505,"ĠTischplatte":10506,"Ġ75":10507,"ĠGesund":10508,"Ġgespeichert":10509,"kohol":10510,"ĠTablett":10511,"Ġfrischen":10512,"ĠKartons":10513,"Ġuhr":10514,"Ġhinteren":10515,"Ġleichtem":10516,"ĠRouter":10517,"ĠRoboter":10518,"hemd":10519,"ĠgÃ¼nstigeren":10520,"Ġblinken":10521,"Ġgrossen":10522,"saugen":10523,"ĠBallon":10524,"Ġtrockene":10525,"ĠCDs":10526,"ĠKork":10527,"ĠKordel":10528,"griffe":10529,"ĠSpÃ¼lmaschinen":10530,"ĠÃ¤uÃŁeren":10531,"iderstand":10532,"enkten":10533,"Ġchemischen":10534,"ĠÃĦrger":10535,"ĠunverstÃ¤ndlich":10536,"ĠSorge":10537,"Ġzerbrech":10538,"ĠNochmal":10539,"ratzer":10540,"ĠÃ¼bertroffen":10541,"ĠSteinchen":10542,"Ġverdammt":10543,"schnitte":10544,"ĠSteckdosenleiste":10545,"ĠElektro":10546,"Ġkriegen":10547,"wÃ¤rmer":10548,"schraube":10549,"ĠEbenfalls":10550,"ĠStrecken":10551,"ĠLiebling":10552,"Ġverschmerzen":10553,"figur":10554,"sicherung":10555,"schaltuhr":10556,"ĠExtrem":10557,"ĠKontakte":10558,"Ġtypisch":10559,"ĠTorten":10560,"weiteren":10561,"weiterung":10562,"ĠLiquid":10563,"Ġausgeschaltet":10564,"ĠRÃ¤umen":10565,"Ġgeplant":10566,"stÃ¤ndnis":10567,"ĠOutfit":10568,"Ġausgeblichen":10569,"nesium":10570,"ĠGewissens":10571,"Ġbestimmten":10572,"ĠausbaufÃ¤hig":10573,"ĠIrgendwie":10574,"Ġbedienbar":10575,"Ġverblasst":10576,"ĠKrimi":10577,"ĠVerÃ¤nderung":10578,"Ġblasenfrei":10579,"Ġalternative":10580,"Ġ*****":10581,"Ġblickdicht":10582,"ĠJedenfalls":10583,"ĠGrÃ¼ÃŁen":10584,"ĠPflanze":10585,"Ġkontrollieren":10586,"Ġbeobachten":10587,"ĠBÃ¼chlein":10588,"ĠunÃ¼bersichtlich":10589,"ĠhÃ¤ndeln":10590,"Ġangepriesen":10591,"quetscht":10592,"ĠverspÃ¤tet":10593,"ĠBoxershorts":10594,"mungsaktiv":10595,"ĠVergrÃ¶ÃŁerung":10596,"ĠLogitech":10597,"Ġbemerkbar":10598,"))":10599,"Al":10600,"Adapter":10601,"Ch":10602,"Ging":10603,"GÃ¼nstig":10604,"ID":10605,"IR":10606,"Ie":10607,"Kurz":10608,"Mon":10609,"Mehr":10610,"Plastik":10611,"akku":10612,"bur":10613,"cara":10614,"effekt":10615,"gurte":10616,"kappe":10617,"kraut":10618,"nummer":10619,"pasta":10620,"res":10621,"su":10622,"uller":10623,"Ġsh":10624,"ĠsÃ¤mtliche":10625,"Ġmobil":10626,"Ã¼llt":10627,"Ġnull":10628,"ĠSupi":10629,"ĠSinne":10630,"Ġuniver":10631,"Ġbuch":10632,"Ġbaby":10633,"ĠbÃ¼geln":10634,"arent":10635,"ĠhÃ¤llt":10636,"Ġharten":10637,"Ġeinra":10638,"Ġeinlegen":10639,"ĠkÃ¼hlen":10640,"Ġfas":10641,"Ġfesseln":10642,"Ġvllt":10643,"ĠDo":10644,"ĠDÃ¼se":10645,"ĠPon":10646,"Ġscheu":10647,"Ġschiebt":10648,"schÃ¤um":10649,"Ġlager":10650,"ĠGlieder":10651,"ĠGarmin":10652,"ĠButton":10653,"abweisen":10654,"ĠKisten":10655,"ĠKÃ¼hlt":10656,"ĠFor":10657,"ĠFalle":10658,"ĠFummel":10659,"irme":10660,"ĠHerd":10661,"ĠEck":10662,"orien":10663,"ĠWaden":10664,"ĠWischer":10665,"ĠWÃ¤hrend":10666,"ĠermÃ¶":10667,"ĠSchaft":10668,"Ġverschieben":10669,"Ġverbeult":10670,"Ġaufw":10671,"Ġauffallen":10672,"Ġaufliegt":10673,"Ġteilen":10674,"andi":10675,"ĠVW":10676,"Ġausgeht":10677,"Ġbeachtet":10678,"Ġrate":10679,"ildern":10680,"Ġjetz":10681,"ĠjÃ¼nger":10682,"rate":10683,"ĠVerbrauch":10684,"ĠVergangen":10685,"ĠVerschluÃŁ":10686,"sende":10687,"ĠStich":10688,"Ġnachhelfen":10689,"Ġabwaschen":10690,"Ġabspielen":10691,"ĠEinschalten":10692,"laken":10693,"zubekommen":10694,"ĠGutschein":10695,"sparen":10696,"angel":10697,"ĠSprÃ¼":10698,"ĠErde":10699,"beg":10700,"ĠGerichte":10701,"ĠJan":10702,"ĠBestellen":10703,"ĠgekÃ¼rzt":10704,"Ã¤rm":10705,"Ġdurchgelesen":10706,"werg":10707,"werde":10708,"werten":10709,"Ġregeln":10710,"ĠSowohl":10711,"Ġliebl":10712,"Ġspitz":10713,"Ġgewiss":10714,"estern":10715,"ettes":10716,"Ġbeschreibung":10717,"Ġ41":10718,"Ġ46":10719,"Ġhierzu":10720,"ungszweck":10721,"Ġco":10722,"digung":10723,"platzt":10724,"Ġperfekten":10725,"ĠzurÃ¼ckgeben":10726,"ĠHandyhalterung":10727,"Ġhinweg":10728,"Ġhinbekommen":10729,"ĠAusfl":10730,"ĠSternchen":10731,"Ġbereitet":10732,"ĠLichtfarbe":10733,"ĠLichtausbeute":10734,"Ġunsicher":10735,"Ġeinzigen":10736,"ĠVorrat":10737,"ĠAkkuleistung":10738,"ĠDisco":10739,"vorrichtung":10740,"Ġsitze":10741,"Ġzusammenzubauen":10742,"wender":10743,"obile":10744,"ĠPersÃ¶n":10745,"Ã¶tigen":10746,"ĠÃľbersicht":10747,"Ġschlichte":10748,"ĠTeam":10749,"ĠKlebt":10750,"Ġschicker":10751,"ĠEinfacher":10752,"Ġknall":10753,"ĠmÃ¶glichst":10754,"ĠFlu":10755,"Ġaussah":10756,"ĠArmbandes":10757,"Ġversandt":10758,"Ġneutr":10759,"ĠSchraubenzieher":10760,"ĠMontageanleitung":10761,"ĠBenachrichtig":10762,"Ġausgegangen":10763,"ĠRadfahren":10764,"ĠStiften":10765,"voller":10766,"ĠsÃ¼ÃŁes":10767,"Ġanzuziehen":10768,"Ġangebr":10769,"ĠMuskel":10770,"flusst":10771,"ĠStandby":10772,"setzer":10773,"ĠUrteil":10774,"ĠheiÃŁe":10775,"grÃ¶ÃŁen":10776,"Ġinteressanter":10777,"ĠSolider":10778,"ĠTablets":10779,"ĠLeiter":10780,"Ġarbeite":10781,"Ġtrockenen":10782,"Ġfeiner":10783,"Ġquer":10784,"Ġ2016":10785,"Unter":10786,"pres":10787,"umente":10788,"Ã¶lbt":10789,"ĠTests":10790,"ĠPatrone":10791,"ĠZahnbÃ¼rsten":10792,"ĠKÃ¼hlung":10793,"Ġbelast":10794,"Wasser":10795,"ĠMÃ¤del":10796,"ĠSchickes":10797,"ĠReisefÃ¼hrer":10798,"Ġergonom":10799,"Ġbevorzu":10800,"ĠSensoren":10801,"ĠFusseln":10802,"Ġtransportiert":10803,"zumachen":10804,"ĠFeuerwehr":10805,"Ġgeschmeckt":10806,"Ġgeschmeidig":10807,"ï¸ıâŃĲ":10808,"wÃ¤rts":10809,"Ġintegrierte":10810,"ĠunterstÃ¼tzen":10811,"Ġausgereift":10812,"ĠAbstriche":10813,"Ġaktiviert":10814,"Ġreklamieren":10815,"ĠaufgehÃ¤ngt":10816,"ĠPeeling":10817,"Ġnahm":10818,"Handy":10819,"ĠHÃ¼fte":10820,"ĠausfÃ¼hrlich":10821,"ĠKleinkinder":10822,"messung":10823,"messungen":10824,"ĠIsolier":10825,"sproblem":10826,"Heute":10827,"igital":10828,"Ġgeknickt":10829,"ĠTransmitter":10830,"ĠZiffernblatt":10831,"schÃ¤mt":10832,"Ġbeeindruckt":10833,"Ġerleichtert":10834,"intensiv":10835,"ĠmerkwÃ¼rdig":10836,"Ġbeigelegten":10837,"Ġmittleren":10838,"Ġdetailliert":10839,"ĠalltÃ¤glichen":10840,"ĠFitnessstudio":10841,"wiedergabe":10842,"Ġverabschiedet":10843,"ĠLattenrost":10844,"ĠWMF":10845,"reisprech":10846,"Ġkonstruiert":10847,"ĠKarneval":10848,"ĠgrÃ¼ne":10849,"ĠProduktionsfehler":10850,"ĠInvestition":10851,"Ġeinzurichten":10852,"ĠLÃ¼ftungs":10853,"ĠWhisky":10854,"Gekauft":10855,"ĠVergangenheit":10856,":-)":10857,"Br":10858,"Laut":10859,"Montage":10860,"Son":10861,"Vielen":10862,"Wei":10863,"Ziemlich":10864,"bzw":10865,"crem":10866,"fie":10867,"fert":10868,"gÃ¤ngen":10869,"glicht":10870,"ih":10871,"kreis":10872,"kinder":10873,"letzt":10874,"meine":10875,"messen":10876,"matten":10877,"szeit":10878,"welle":10879,"xl":10880,"yg":10881,"zgl":10882,"eizt":10883,"Ġdein":10884,"stre":10885,"stiegen":10886,"stropfen":10887,"ĠmÃ¤":10888,"Ã¼gt":10889,"Ã¼ftet":10890,"Ġnem":10891,"ĠST":10892,"ĠSAT":10893,"Ġungleich":10894,"Ã¤ckt":10895,"utage":10896,"Ġbaut":10897,"Ġeindruck":10898,"Ġzugleich":10899,"ĠzuverlÃ¤ss":10900,"ĠzukÃ¼n":10901,"ĠPil":10902,"ĠPed":10903,"ĠPla":10904,"ĠPremium":10905,"Ã¶ÃŁt":10906,"Ġschuld":10907,"Ġlachen":10908,"ĠGeil":10909,"ĠBrÃ¤":10910,"ĠBecken":10911,"abbel":10912,"ĠKg":10913,"ĠKit":10914,"urn":10915,"ĠLehr":10916,"ĠLow":10917,"roll":10918,"rocknen":10919,"ĠMobil":10920,"ĠTat":10921,"ĠTrÃ¤n":10922,"ĠWild":10923,"ĠWeite":10924,"Ġersatz":10925,"ĠSchwar":10926,"Ġohnehin":10927,"Ġverlei":10928,"ĠverfÃ¼gt":10929,"Ġvermittelt":10930,"ssystem":10931,"Ġaufgebracht":10932,"Ġhabt":10933,"Ġsichere":10934,"senten":10935,"isation":10936,"Ġetliche":10937,"ĠAnsatz":10938,"oler":10939,"olge":10940,"edit":10941,"ĠUtens":10942,"Diesen":10943,"feste":10944,"ĠÃ¼berw":10945,"Ġ->":10946,"Ġekl":10947,"ĠSpir":10948,"ftige":10949,"Ġvoraus":10950,"Ġvorgegeben":10951,"Ġleisten":10952,"rÃ¶selt":10953,"halber":10954,"Ġumget":10955,"Ġumsehen":10956,"ĠJungen":10957,"versorgung":10958,"Ġentf":10959,"Ġentwickelt":10960,"ĠStereo":10961,"otograf":10962,"mittag":10963,"rid":10964,"Ġ37":10965,"Ġgele":10966,"Ġgelblich":10967,"ĠArtik":10968,"ĠArmen":10969,"Ã¤rte":10970,"Ġgefaltet":10971,"Ġdurchs":10972,"ĠAllgemein":10973,"ĠAufbringen":10974,"gebo":10975,"utzutage":10976,"ĠspÃ¼len":10977,"ĠKleint":10978,"ĠgewÃ¤hr":10979,"Schaut":10980,"ĠbeschlÃ¤gt":10981,"ragende":10982,"brennen":10983,"ĠFarbwechsel":10984,"ĠFarbauswahl":10985,"enkissen":10986,"Ġangewendet":10987,"eigentlich":10988,"ĠWerden":10989,"Ġbeschriebenen":10990,"ĠKinderhÃ¤nde":10991,"ĠBlÃ¶":10992,"ĠBlÃ¼ten":10993,"Ġkonzentr":10994,"etzte":10995,"Ġgemein":10996,"Ġgemeldet":10997,"Ġeinziger":10998,"ĠNapf":10999,"ĠAkkuschrauber":11000,"ĠUnterteil":11001,"load":11002,"Ġerfr":11003,"klebe":11004,"ĠPunkten":11005,"ĠverlÃ¤nger":11006,"Ġproblemlose":11007,"ĠLiegen":11008,"ĠÃĸse":11009,"ĠMod":11010,"Ġglitz":11011,"ĠFahrer":11012,"ĠHaltung":11013,"ĠSchneide":11014,"ippel":11015,"ĠHÃ¤ngematte":11016,"ĠKindheit":11017,"Ġdaraufhin":11018,"ĠTouren":11019,"ĠanzuschlieÃŁen":11020,"ĠSchmetter":11021,"Ġvermuten":11022,"Ġfrische":11023,"ĠDankeschÃ¶n":11024,"Ġerhielt":11025,"ruktur":11026,"ĠtÃ¤glicher":11027,"ĠvertrÃ¤glich":11028,"ĠGummizug":11029,"ĠAnfrage":11030,"Ġbreiten":11031,"ĠFehlermeldung":11032,"Ġangeschrieben":11033,"ĠHÃ¶schen":11034,"Ġidee":11035,"ĠSolides":11036,"ĠblÃ¤ttert":11037,"Meiner":11038,"handel":11039,"ĠHinweise":11040,"ĠWunderbar":11041,"ĠBegeistert":11042,"ĠMasken":11043,"ĠPanzerglasfolie":11044,"wechseln":11045,"werkzeug":11046,"Ġusb":11047,"ĠGenauigkeit":11048,"ĠWeihnachtsbaum":11049,"Ġplatzieren":11050,"ĠStraÃŁen":11051,"ĠErfindung":11052,"Ġgrauen":11053,"ĠDuschvorhang":11054,"ĠAngenehmes":11055,"ĠauÃŁergewÃ¶hn":11056,"ĠFlÃ¤schchen":11057,"Ġverschwinden":11058,"ĠFeedback":11059,"Ġauszuprobieren":11060,"reinigung":11061,"ĠBraucht":11062,"ĠMessung":11063,"ĠBewegungssensor":11064,"Ġtauglich":11065,"ĠSandalen":11066,"ĠMakita":11067,"ĠKurze":11068,"elsÃ¼b":11069,"ĠInformation":11070,"ĠElektr":11071,"Ġelektron":11072,"ĠâŃĲ":11073,"Ġverschmiert":11074,"Ġkratzig":11075,"ĠDrogerie":11076,"ĠEinkaufs":11077,"ĠRezession":11078,"ĠLockenstab":11079,"Ġaufgetragen":11080,"Ġnachbestellen":11081,"Ġelektrische":11082,"ĠWÃ¼nsche":11083,"Ġrasieren":11084,"Ġkeinesfalls":11085,"Ġsportlich":11086,"ĠBeanstandungen":11087,"ĠGlÃ¼hbirne":11088,"ĠSchlieÃŁen":11089,"party":11090,"ĠBits":11091,"Ġlogisch":11092,"Ġgreift":11093,"Ġdosieren":11094,"ĠParkett":11095,"ĠBenutzer":11096,"ĠZufall":11097,"ĠPalette":11098,"ĠwÃ¤rmstens":11099,"ĠHorror":11100,"Ġfantastisch":11101,"ĠVerschleiÃŁ":11102,"Ġprogrammieren":11103,"ĠLaminat":11104,"ĠProtagonisten":11105,"ĠOberschenkel":11106,"ĠoberflÃ¤chlich":11107,"ĠPreissegment":11108,"ĠLeinwand":11109,"ĠOsram":11110,"ategorie":11111,"ĠPfeffer":11112,"ĠgefÃ¼ttert":11113,"ĠSchwieger":11114,"ĠermÃ¶glicht":11115,"%.":11116,"AZ":11117,"Hose":11118,"Kn":11119,"Kle":11120,"Komm":11121,"LE":11122,"Nacht":11123,"Sitz":11124,"UF":11125,"Vie":11126,"af":11127,"ain":11128,"bten":11129,"braun":11130,"danke":11131,"dessen":11132,"dÃ¼se":11133,"hetisch":11134,"ian":11135,"ime":11136,"kalender":11137,"kleid":11138,"mÃ¼":11139,"mir":11140,"oter":11141,"ockt":11142,"rant":11143,"sitz":11144,"trakt":11145,"wurf":11146,"ye":11147,"zeiger":11148,"zÃ¼gig":11149,"erblatt":11150,"Ġdram":11151,"Ġdisplay":11152,"Ġsur":11153,"Ġster":11154,"Ġacht":11155,"Ġwochen":11156,"esp":11157,"aner":11158,"Ã¼s":11159,"Ã¼chern":11160,"Ġnennen":11161,"ĠSne":11162,"ĠSÃ¤u":11163,"Ġungesch":11164,"Ġble":11165,"Ġharm":11166,"Ġzerd":11167,"Ġkoch":11168,"Ġkraft":11169,"Ġkippen":11170,"Ġkratzen":11171,"onic":11172,"Ġfle":11173,"Ġfing":11174,"Ġfahre":11175,"ĠfÃ¤rben":11176,"ity":11177,"ĠAc":11178,"ĠAbt":11179,"ĠApr":11180,"ĠAktion":11181,"ĠAPP":11182,"Ġzuzu":11183,"ĠDingen":11184,"ĠDock":11185,"ĠPrin":11186,"Ã¶sen":11187,"Ã¶tet":11188,"Ġschuhe":11189,"Ġlandet":11190,"ĠGE":11191,"ĠGang":11192,"achter":11193,"ĠBag":11194,"ĠKa":11195,"ĠKass":11196,"ĠKalt":11197,"ĠKino":11198,"ĠKaka":11199,"ĠFÃ¤chern":11200,"ĠLage":11201,"ĠLob":11202,"ĠLÃ¤tzchen":11203,"ĠHan":11204,"ĠMehl":11205,"ĠThr":11206,"Ġanlegen":11207,"ordnung":11208,"ĠWes":11209,"ĠWem":11210,"ĠWow":11211,"ĠWolf":11212,"Ġsound":11213,"ĠSchie":11214,"ĠSchÃ¤":11215,"ĠSchicht":11216,"ĠScharf":11217,"ĠSchatten":11218,"ĠSchieber":11219,"Ġof":11220,"Ġverein":11221,"Ġverkleben":11222,"Ġaufsetzen":11223,"Ġtage":11224,"ĠVolle":11225,"ĠVÃ¶llig":11226,"ĠVakuum":11227,"Ġausgesprochen":11228,"Ġbefrei":11229,"ĠNein":11230,"aufel":11231,"ĠZunÃ¤chst":11232,"ierungen":11233,"ĠstÃ¼ck":11234,"ĠProm":11235,"ĠOffen":11236,"ĠAnal":11237,"ĠAnziehen":11238,"ĠAnmerk":11239,"anzerglas":11240,"warm":11241,"iven":11242,"ĠProduktf":11243,"spannen":11244,"Ġwerd":11245,"ĠSpigen":11246,"Ġ27":11247,"Ġ28":11248,"fÃ¼m":11249,"fÃ¼gen":11250,"agnet":11251,"ĠgerÃ¤u":11252,"ĠBester":11253,"ĠBeule":11254,"ĠAbhilfe":11255,"netz":11256,"Ġ34":11257,"Ġgeleistet":11258,"ĠGekauft":11259,"Ġgefesselt":11260,"ĠleichtgÃ¤ngig":11261,"kete":11262,"schloss":11263,"ĠKlemmen":11264,"Ġgewalt":11265,"Ġgewollt":11266,"Ġbeschwert":11267,"Ġgeschul":11268,"Ġgeschraubt":11269,"ĠzurÃ¼ckgesendet":11270,"ĠGelb":11271,"rÃ¤gen":11272,"rÃ¤hte":11273,"ĠFilament":11274,"ĠBlack":11275,"ĠschwÃ¤ch":11276,"ico":11277,"ĠPlug":11278,"Ġbegrenzt":11279,"kling":11280,"ĠFunktions":11281,"Ġbesitzen":11282,"ĠVersandt":11283,"erve":11284,"Ġreiben":11285,"ĠStoffes":11286,"Ġbleibe":11287,"ĠweiÃŁes":11288,"Ġdickere":11289,"ĠDefekte":11290,"izieren":11291,"ĠTees":11292,"Ġverlangt":11293,"ĠEinfaches":11294,"ranst":11295,"Ġirgendwas":11296,"mÃ¤ÃŁigen":11297,"ĠMagnesium":11298,"Allerdings":11299,"Ġempfand":11300,"ĠGlÃ¤tteisen":11301,"ĠFlÃ¼gel":11302,"diese":11303,"Ġversorgt":11304,"ritte":11305,"ftigung":11306,"ĠAussetzer":11307,"ĠTour":11308,"Waren":11309,"Ġbemerken":11310,"Ġgleitet":11311,"Ġnerven":11312,"schlaggeben":11313,"Ġbiegsam":11314,"ĠSitzkissen":11315,"Ġaufgeblasen":11316,"ĠwÃ¤rmer":11317,"ĠKapitel":11318,"ĠFingerspitzen":11319,"Ġabgedeckt":11320,"ĠWindeln":11321,"wird":11322,"wirken":11323,"Ġvertrauen":11324,"ĠbetÃ¤tigen":11325,"ĠGehÃ¶r":11326,"ĠFrische":11327,"ĠGewichts":11328,"Ġendet":11329,"ĠungewÃ¶hn":11330,"ĠReinigungst":11331,"ĠInnenfutter":11332,"Ġexterne":11333,"ĠGlÃ¤sern":11334,"Ġreagieren":11335,"ĠSaugnapf":11336,"ĠImmerhin":11337,"Ġverwendete":11338,"ĠhÃ¶here":11339,"Ġwechselt":11340,"ĠFitbit":11341,"ĠKraftaufwand":11342,"ĠBÃ¼geleisen":11343,"ĠNÃ¤chte":11344,"Ã¤chstes":11345,"ĠBehandlung":11346,"Ġeinseitig":11347,"gespielt":11348,"ĠKommode":11349,"Kleine":11350,"Ġnebeneinander":11351,"ĠAlltags":11352,"pdates":11353,"ĠCharge":11354,"Ġbewerte":11355,"Ġnutzlos":11356,"Bestellt":11357,"aterne":11358,"Geruch":11359,"Ġfeuchten":11360,"ĠBriefumschlag":11361,"ĠVerlust":11362,"ĠKleiderschrank":11363,"ĠAnbietern":11364,"ĠSex":11365,"ĠWetterstation":11366,"ehnlich":11367,"ĠWiederhol":11368,"ĠPakete":11369,"ĠPresse":11370,"Ġerstaunt":11371,"ĠProfis":11372,"ĠSchaukel":11373,"Ġbeanspr":11374,"Ġumgestiegen":11375,"Ġkontaktieren":11376,"Ġfehlerhaft":11377,"ĠvernÃ¼nftigen":11378,"ĠHalogen":11379,"ĠTreppen":11380,"Ġbeweglich":11381,"sÃ¤cke":11382,"Ġretourn":11383,"ĠShaker":11384,"ĠGrafikkarte":11385,"muscheln":11386,"Ġfettig":11387,"ĠLeggins":11388,"ĠLangzeittest":11389,"mutung":11390,"Ġstimmig":11391,"ĠEtikett":11392,"ĠWelpen":11393,"ĠHolzt":11394,"ĠMechanismus":11395,"Ġerzielt":11396,"Ġerzielen":11397,"ĠKohle":11398,"Ġernst":11399,"ĠANC":11400,"ĠHaustÃ¼r":11401,"ĠFestival":11402,"Ġkulant":11403,"Ġanbieten":11404,"ĠSortiment":11405,"Ġsanft":11406,"ĠAccessoire":11407,"Ġbeeinflusst":11408,"ĠDrittel":11409,"ĠDownload":11410,"ĠEwigkeit":11411,"ĠTexte":11412,"Ġnachvollziehbar":11413,"Ġankamen":11414,"ĠMÃ¤dels":11415,"Ġumgetauscht":11416,".!":11417,"38":11418,"Ber":11419,"Ha":11420,"Halten":11421,"Lange":11422,"Muss":11423,"Nette":11424,"Optik":11425,"Ray":11426,"TV":11427,"Total":11428,"Voll":11429,"Zwei":11430,"agel":11431,"bal":11432,"fassen":11433,"gÃ¼nstige":11434,"let":11435,"mÃ¤ssig":11436,"oom":11437,"rung":11438,"rÃ¼ck":11439,"zange":11440,"erne":11441,"ene":11442,"Ġdienen":11443,"Ġdauern":11444,"Ġsw":11445,"Ġsenk":11446,"unten":11447,"Ġalltag":11448,"steiger":11449,"stufen":11450,"einchen":11451,"Ġwachsen":11452,"ĠmÃ¤n":11453,"Ġner":11454,"Ġnet":11455,"Ġnassen":11456,"ĠSÃ¤":11457,"ĠSumme":11458,"Ġunstabil":11459,"Ġunklar":11460,"Ã¤us":11461,"Ġhak":11462,"Ġhundert":11463,"Ġeinrichten":11464,"Ġzart":11465,"Ġzauber":11466,"Ġkopf":11467,"teller":11468,"ĠfÃ¤nde":11469,"igh":11470,"ĠAV":11471,"Ġzubereitet":11472,"ĠDick":11473,"augt":11474,"ĠPrÃ¤":11475,"ĠPrÃ¤sent":11476,"Ã¶gert":11477,"Ġschenken":11478,"schaden":11479,"ĠGame":11480,"ĠBi":11481,"ĠBie":11482,"ĠBrÃ¶":11483,"ĠKrie":11484,"ĠKrÃ¼":11485,"ĠKunde":11486,"ĠKrallen":11487,"ĠFo":11488,"ĠFrÃ¤":11489,"ĠFix":11490,"ĠFreisprech":11491,"ĠLÃ¶t":11492,"ĠLite":11493,"ĠHar":11494,"ĠTransp":11495,"ĠTaster":11496,"ĠTinte":11497,"dest":11498,"orten":11499,"ĠWolle":11500,"ĠWeder":11501,"ĠgeprÃ¼ft":11502,"ĠprÃ¼":11503,"ĠScheint":11504,"ĠSchienen":11505,"ĠSchalen":11506,"ĠSchiene":11507,"ĠSchimmel":11508,"Ġverbauen":11509,"Ġverlegt":11510,"Ġaufziehen":11511,"Ġaufeinander":11512,"ĠauffÃ¤ll":11513,"Ġton":11514,"ĠtrÃ¼":11515,"Ġausgesetzt":11516,"lekt":11517,"ĠNice":11518,"ĠRem":11519,"aufnahmen":11520,"rainer":11521,"ĠZaun":11522,"Ã¤ndigen":11523,"senk":11524,"ĠOver":11525,"ĠStill":11526,"ĠAnschluÃŁ":11527,"Ġabmachen":11528,"Ġmeinte":11529,"Ġsuperschnell":11530,"opt":11531,"ikan":11532,"Ġwiederver":11533,"gerne":11534,"ĠÃ¼bersch":11535,"ĠSpur":11536,"ĠErg":11537,"ĠErleich":11538,"ĠErhalt":11539,"ĠzufÃ¤llig":11540,"Ġzufriedenstellen":11541,"Ġumt":11542,"Ġentschlossen":11543,"otor":11544,"Ġgerutscht":11545,"Ġwirkliche":11546,"ĠBefestigen":11547,"ĠBefriedigend":11548,"ĠAbschluss":11549,"ĠAbnehmen":11550,"ĠAbbild":11551,"ĠFÃ¼rs":11552,"Ġgelbe":11553,"ausfall":11554,"ĠOrange":11555,"ĠGefr":11556,"ĠInst":11557,"igere":11558,"Ġgeform":11559,"Ġdurcheinander":11560,"ĠUnkraut":11561,"ĠAufhÃ¤ngen":11562,"ĠAufladung":11563,"ĠlÃ¤d":11564,"Ġspeichern":11565,"Ġgeworfen":11566,"adel":11567,"ĠReste":11568,"Ġcreme":11569,"Ġwoanders":11570,"hÃ¤ltnisse":11571,"Ġperfektes":11572,"gesucht":11573,"ĠDesweiteren":11574,"ĠBogen":11575,"rÃ¤ume":11576,"richtet":11577,"Ġneug":11578,"ĠWirk":11579,"ĠAusschalten":11580,"ĠVersuche":11581,"Ġrichtiges":11582,"Ġbereue":11583,"icer":11584,"Ġgemischt":11585,"Ġbeglei":11586,"ĠRÃ¼ckstÃ¤nde":11587,"sprech":11588,"ĠMalen":11589,"ĠPlastikverpackung":11590,"hafter":11591,"ĠStoffe":11592,"Anleitung":11593,"Ġfunktionierten":11594,"Ġrausnehmen":11595,"uchtung":11596,"ĠKrone":11597,"ĠKredit":11598,"ĠGeruchs":11599,"ipper":11600,"Ã¶ffner":11601,"Ġwegschm":11602,"Ġinso":11603,"Ġschluss":11604,"Guten":11605,"Ġbesonderen":11606,"Ġschickes":11607,"ĠOhrhÃ¶rer":11608,"ĠpreisgÃ¼nstig":11609,"Ġgestalten":11610,"ĠDruckknopf":11611,"ĠSchlitz":11612,"Verbindung":11613,"ĠLadevorgang":11614,"ĠLuftpolster":11615,"Ġempfinden":11616,"ĠSohnes":11617,"Ġheftig":11618,"ĠKleinigkeit":11619,"ĠEntfernen":11620,"erkleid":11621,"ĠArmbanduhr":11622,"ĠpersÃ¶nlichen":11623,"ĠausgewÃ¤hlt":11624,"Ġflache":11625,"Ġklebe":11626,"ĠLaune":11627,"lÃ¤ssig":11628,"Ġgesprungen":11629,"ĠSoundbar":11630,"ĠPerfektes":11631,"Ġunangenehme":11632,"ĠGenerell":11633,"iegelung":11634,"flÃ¼ss":11635,"Ã¼hrungs":11636,"ĠVerbindungsst":11637,"Ġ99":11638,"ĠSommerkleid":11639,"ĠStandfuÃŁ":11640,"ĠZusammenfassung":11641,"schnack":11642,"antelung":11643,"ĠWohnwagen":11644,"ĠWohnmobil":11645,"ĠPunkteabzug":11646,"ischerweise":11647,"ĠEmpfind":11648,"ĠStrick":11649,"Ġstartet":11650,"ĠLaptops":11651,"ĠKofferraum":11652,"probe":11653,"Ġfeines":11654,"ĠWeiteren":11655,"ĠwÃ¼rd":11656,"Ġsahen":11657,"ĠnÃ¤hen":11658,"ĠKlettverschlÃ¼sse":11659,"ĠPositive":11660,"jektive":11661,"Ġgelungenes":11662,"Ġdoppelte":11663,"ĠStrahl":11664,"richen":11665,"ĠDeutsche":11666,"klapp":11667,"ĠWege":11668,"ĠMÃ¼s":11669,"Ġinteressantes":11670,"ĠSekundenkleber":11671,"ĠAuÃŁenbereich":11672,"gebraucht":11673,"ĠShirts":11674,"Ġ180":11675,"ĠKleidungsst":11676,"ĠLackierung":11677,"ordnet":11678,"ĠHigh":11679,"Ġzuvorkommend":11680,"ĠSchuld":11681,"raining":11682,"Ġgrus":11683,"wohnte":11684,"ĠkrÃ¤ftige":11685,"macher":11686,"ĠDirekt":11687,"pusten":11688,"Ġbedenkenlos":11689,"Ġquietschen":11690,"wechslungs":11691,"ĠBaumwoll":11692,"normalen":11693,"--------------------------------":11694,"Ġklassischen":11695,"ĠKopplung":11696,"ĠJahreszeit":11697,"automatik":11698,"Modus":11699,"ĠverstÃ¤rkt":11700,"ĠEinstellmÃ¶glichkeiten":11701,"forderung":11702,"ĠfÃ¼hlte":11703,"ĠSurface":11704,"Ġeinsatzbereit":11705,"ĠErklÃ¤rung":11706,"ĠGitarre":11707,"Ġbeschriftet":11708,"ungsvermÃ¶gen":11709,"ĠSchnorchel":11710,"ĠspÃ¤testens":11711,"Ġerweitern":11712,"ĠbefÃ¼rchte":11713,"Ġklebrig":11714,"Ġirgendwelche":11715,"Ġinnere":11716,"ĠVerfÃ¤rbungen":11717,"Ġspannender":11718,"Ġaufbewahrt":11719,"Ġdehnbar":11720,"ĠJanuar":11721,"Ġbelastbar":11722,"Ġgeschuldet":11723,"++":11724,"25":11725,"AC":11726,"Ah":11727,"Effekt":11728,"KT":11729,"Mal":11730,"OL":11731,"Rob":11732,"USB":11733,"ahe":11734,"brech":11735,"dungen":11736,"ege":11737,"faser":11738,"guss":11739,"glaub":11740,"hurt":11741,"kul":11742,"kanten":11743,"mi":11744,"masch":11745,"nst":11746,"natÃ¼rlich":11747,"position":11748,"passung":11749,"rick":11750,"typ":11751,"wann":11752,"Ġ???":11753,"cheln":11754,"Ġser":11755,"Ġas":11756,"stung":11757,"stisch":11758,"stark":11759,"Ġwe":11760,"Ã¼chter":11761,"ĠnÃ¶tige":11762,"ĠSein":11763,"ĠSir":11764,"Ġunzu":11765,"ĠunglÃ¼ck":11766,"Ã¤d":11767,"utsch":11768,"Ġbacken":11769,"Ġbunte":11770,"Ġzeichnen":11771,"Ġfach":11772,"itschig":11773,"itÃ¤ten":11774,"ĠAst":11775,"ĠAug":11776,"ehren":11777,"aubt":11778,"ckig":11779,"ĠPix":11780,"atsch":11781,"eless":11782,"schÃ¤r":11783,"schreiben":11784,"ĠGÃ¼r":11785,"ĠGast":11786,"ĠGimm":11787,"ĠGrillen":11788,"ĠBT":11789,"ĠBaut":11790,"ĠKun":11791,"ĠKÃ¼h":11792,"ĠKontrolle":11793,"ĠFack":11794,"ĠFeier":11795,"ĠFokus":11796,"ĠLAN":11797,"ĠLaser":11798,"ĠLappen":11799,"ĠLeichter":11800,"ĠHmm":11801,"ĠHue":11802,"rohr":11803,"ĠMiss":11804,"ĠEar":11805,"Ġanfang":11806,"Ġangesehen":11807,"gepÃ¤ck":11808,"orte":11809,"ĠWol":11810,"ĠWeck":11811,"ĠWill":11812,"ĠWlan":11813,"ĠWiderstand":11814,"Ġdenk":11815,"ĠgefÃ¼hrt":11816,"Ġverp":11817,"Ġverstecken":11818,"Ġverlassen":11819,"Ġaufgesch":11820,"Ġaufbewahren":11821,"ĠIpad":11822,"Ġtreten":11823,"Ġwieviel":11824,"Ġreine":11825,"Ġbeigelegt":11826,"ĠReicht":11827,"serscheinungen":11828,"rall":11829,"ĠVerstÃ¤ndnis":11830,"amik":11831,"isha":11832,"umenk":11833,"ackert":11834,"ĠSteinen":11835,"Ġallerg":11836,"ream":11837,"Ġabwischen":11838,"ĠUS":11839,"ĠUpdates":11840,"ĠEinlagen":11841,"ĠEinsÃ¤tze":11842,"malen":11843,"ikal":11844,"ĠÃ¼berstehen":11845,"ĠÃ¼bersteht":11846,"ĠÃ¼berprÃ¼":11847,"ĠÃ¼berflÃ¼ssig":11848,"spreis":11849,"sport":11850,"sprodukt":11851,"Ġwerfen":11852,"ĠSpan":11853,"halm":11854,"fÃ¼hlen":11855,"ucksack":11856,"ĠJedes":11857,"verstellung":11858,"Ġentschied":11859,"ĠCom":11860,"mitt":11861,"Ġgenannt":11862,"ĠBestell":11863,"ĠOrigin":11864,"ĠGep":11865,"Ã¤ren":11866,"Ã¤rten":11867,"ĠIng":11868,"ĠInzwischen":11869,"Ġgefahren":11870,"schlos":11871,"Ġerwart":11872,"gebr":11873,"Ġweiterzuempfehlen":11874,"Ġhinstellen":11875,"Ġtest":11876,"ĠBose":11877,"Ġvollsten":11878,"laube":11879,"Ġkomischen":11880,"Ġsonstige":11881,"ĠgrÃ¶ÃŁten":11882,"roboter":11883,"ĠMeinem":11884,"Ã¼tchen":11885,"ziehe":11886,"Ġoptischen":11887,"ĠUntert":11888,"ĠgrÃ¶ÃŁerer":11889,"Ġzusammenbau":11890,"obel":11891,"unterlage":11892,"ĠÃľberzug":11893,"gefasst":11894,"ĠhandelsÃ¼b":11895,"Ã¶ffnung":11896,"ĠTesten":11897,"ĠOriginalverpackung":11898,"Ġklarer":11899,"ĠDruckstellen":11900,"Ġempfangen":11901,"ĠLautstÃ¤r":11902,"Ġverstopft":11903,"Ġzwingend":11904,"Ġgetrocknet":11905,"Ġoptimalen":11906,"ĠSchneiden":11907,"ĠSchnuller":11908,"schliessen":11909,"rÃ¤nken":11910,"ĠKonsole":11911,"Ġgebastelt":11912,"lÃ¶ser":11913,"ĠLaken":11914,"idas":11915,"ĠSmartwatch":11916,"lÃ¤sslich":11917,"ĠZufriedenstellend":11918,"ĠPerfekter":11919,"ĠGroÃŁes":11920,"ĠRezensenten":11921,"Ġletzter":11922,"Ġplan":11923,"flix":11924,"ĠtÃ¤gliche":11925,"stÃ¤ndigkeit":11926,"ĠDame":11927,"Ġeingesteckt":11928,"weiligen":11929,"ĠSpritz":11930,"ĠNÃ¤hmaschine":11931,"Ġoffenbar":11932,"Ġideale":11933,"Ġprobiere":11934,"otent":11935,"ĠNebel":11936,"ĠNeffen":11937,"ĠHinsicht":11938,"ĠMittelmaÃŁ":11939,"ĠMascara":11940,"ĠBesserung":11941,"Ġhave":11942,"ĠBetriebs":11943,"Ġerschrocken":11944,"shaube":11945,"ĠDarÃ¼ber":11946,"ĠDruckerpatronen":11947,"ĠRÃ¼ckenschmerzen":11948,"ĠRÃ¼ckenlehne":11949,"ðŁĳįðŁı¼":11950,"ĠZahnpasta":11951,"ĠQuad":11952,"Ġbrauchbare":11953,"ĠFehlern":11954,"ĠRollos":11955,"ĠverstÃ¤ndliche":11956,"Spannend":11957,"Ġklappert":11958,"ĠNotizen":11959,"Ġautomatische":11960,"strahler":11961,"ĠBadeanzug":11962,"Ġkuschel":11963,"ĠspÃ¼ren":11964,"ĠSee":11965,"produkten":11966,"sspiel":11967,"ĠBetr":11968,"ĠFake":11969,"ĠPassend":11970,"ĠKlingelt":11971,"ĠGestaltung":11972,"ĠClips":11973,"Ġmerken":11974,"Ġdekorieren":11975,"Ġdeutscher":11976,"astrophal":11977,"heimlich":11978,"ĠMelo":11979,"Ġintegriert":11980,"verteilung":11981,"ĠStarter":11982,"Ġaktivieren":11983,"Ġsilberne":11984,"Ġluftig":11985,"ĠAnwendungs":11986,"Ġgeplatzt":11987,"ĠSzene":11988,"Ġzugesagt":11989,"Ġzugesandt":11990,"ĠSlim":11991,"linsen":11992,"ĠKleinkind":11993,"ĠNutzer":11994,"ĠDoppelpack":11995,"ĠStÃ¶rungen":11996,"ĠKrÃ¤uter":11997,"vielleicht":11998,"splatte":11999,"ĠToilette":12000,"ĠanfÃ¤nglichen":12001,"ĠFlamme":12002,"ĠOnline":12003,"Ġsubjektiv":12004,"ĠStarker":12005,"____":12006,"Ġletztes":12007,"ĠTapete":12008,"Ġtransparen":12009,"Ġschmutzig":12010,"ĠBasis":12011,"ĠFassungsvermÃ¶gen":12012,"Lieferzeit":12013,"ĠMulti":12014,"Ġabgerundet":12015,"Ġdimmbar":12016,"ĠSituationen":12017,"ĠbrÃ¤uchte":12018,"ĠMfg":12019,"ĠGleitgel":12020,"Ġpower":12021,"ĠReissverschluss":12022,"ĠGeneration":12023,"Ġentsorgen":12024,"Player":12025,"ĠBlinker":12026,"ĠbrÃ¼chig":12027,"ĠRechtschreib":12028,"Prompte":12029,"ĠgÃ¤ngigen":12030,"ĠWassertank":12031,"ĠHilfreich":12032,"abweisend":12033,"ĠungleichmÃ¤ÃŁig":12034,"ĠSchmetterlinge":12035,"Vielleicht":12036,"Ġinsofern":12037,"ĠMÃ¼sli":12038,"-,":12039,"42":12040,"Batterien":12041,"Druck":12042,"ET":12043,"Her":12044,"Hoch":12045,"To":12046,"allt":12047,"ep":12048,"fliegen":12049,"fleisch":12050,"het":12051,"kind":12052,"kÃ¼hl":12053,"liefern":12054,"mon":12055,"mung":12056,"po":12057,"seiten":12058,"sgemÃ¤ÃŁ":12059,"ws":12060,"wel":12061,"zes":12062,"Ġ<":12063,"Ġ^^":12064,"Ġding":12065,"Ġdato":12066,"Ġsage":12067,"Ġseiten":12068,"Ġsmart":12069,"iep":12070,"ieÃŁt":12071,"stem":12072,"stoÃŁ":12073,"stufe":12074,"stÃ¤bchen":12075,"Ġgrund":12076,"ĠgrÃ¶sse":12077,"esh":12078,"Ġnummer":12079,"Ġnetten":12080,"ĠSy":12081,"ĠSing":12082,"ĠSaun":12083,"Ġuneben":12084,"Ġunscharf":12085,"Ġunheimlich":12086,"Ġblieben":12087,"Ġbzgl":12088,"arme":12089,"Ġeingelaufen":12090,"Ġzun":12091,"Ġkipp":12092,"ĠkopfhÃ¶rer":12093,"ĠkÃ¤mmen":12094,"Ġaugen":12095,"Ġfor":12096,"Ġfragen":12097,"ĠAkzept":12098,"Ġzust":12099,"Ġzuck":12100,"Ġvol":12101,"ĠDimm":12102,"berry":12103,"ĠPink":12104,"ĠPause":12105,"ĠPaÃŁt":12106,"Ġscho":12107,"Ġschei":12108,"ĠlÃ¤ng":12109,"ĠGre":12110,"ĠGolf":12111,"ĠKaum":12112,"ĠKreativ":12113,"ĠFair":12114,"ĠLast":12115,"ĠLasche":12116,"ĠHÃ¤":12117,"roller":12118,"ĠMach":12119,"ĠEqu":12120,"ĠEventuell":12121,"ĠTinten":12122,"Ġanhalten":12123,"Ġanstelle":12124,"geeignet":12125,"orad":12126,"oretisch":12127,"ĠWald":12128,"ÃŁend":12129,"Ġgepf":12130,"ertif":12131,"Ġps":12132,"Ġoff":12133,"Ġverliebt":12134,"Ġaufgemacht":12135,"Ġaufdringlich":12136,"ĠtrÃ¤ge":12137,"Ġausgehen":12138,"Ġausgehalten":12139,"ĠauswÃ¤hlen":12140,"Ġbeantwortet":12141,"ĠNO":12142,"ĠNeig":12143,"ĠNÃ¤chstes":12144,"Ġbeids":12145,"hrazit":12146,"ĠZieht":12147,"ĠVergnÃ¼gen":12148,"ĠVerhÃ¤ltnisse":12149,"Ġstreifen":12150,"Ġstufen":12151,"ĠProzess":12152,"ĠStÃ¼rze":12153,"ĠAnlauf":12154,"iertes":12155,"ufel":12156,"anzÃ¼nder":12157,"ola":12158,"rekte":12159,"enteil":12160,"Ġabk":12161,"Ġweiten":12162,"ĠEinsetzen":12163,"ĠEinrichten":12164,"ops":12165,"Ġwiederholt":12166,"ĠÃ¼bereinander":12167,"ĠÃ¼berwiegend":12168,"Ġoke":12169,"ĠHandgriff":12170,"geleicht":12171,"erding":12172,"Ġvorab":12173,"Ġleiert":12174,"rÃ¶h":12175,"beet":12176,"fÃ¼hle":12177,"fÃ¼ÃŁe":12178,"Ã¶rm":12179,"Ġumso":12180,"ĠJacken":12181,"ĠJump":12182,"verb":12183,"Ġentwickeln":12184,"othe":12185,"otrotz":12186,"Ġgerichtet":12187,"ĠCa":12188,"ĠCle":12189,"ĠCarb":12190,"ĠCre":12191,"wertiger":12192,"iente":12193,"ĠAbdrÃ¼cke":12194,"ĠAbmessungen":12195,"ĠAbsenk":12196,"Ġgelandet":12197,"ĠgroÃŁzÃ¼gig":12198,"ĠGeeignet":12199,"ĠGebraucht":12200,"abelle":12201,"ĠdurchhÃ¤lt":12202,"ĠdurchgÃ¤ngig":12203,"ĠSock":12204,"ĠSofort":12205,"ĠsprÃ¶":12206,"Ġspass":12207,"Ġspannt":12208,"eigten":12209,"ĠGerÃ¤ts":12210,"Ġzweiter":12211,"bringt":12212,"Ġcrem":12213,"Ġdarstellen":12214,"plus":12215,"plittert":12216,"ĠZeitschaltuhr":12217,"richter":12218,"ĠWireless":12219,"liegend":12220,"Ġkurzfristig":12221,"Ġvollem":12222,"ĠAusnahme":12223,"ĠAuslieferung":12224,"Einwandfrei":12225,"ĠmÃ¶chten":12226,"ĠselbststÃ¤ndig":12227,"ĠKopfkissen":12228,"ĠPlat":12229,"Ġeinzus":12230,"ĠVorbereitung":12231,"ĠUnterleg":12232,"eichnet":12233,"Ġreich":12234,"Ansonsten":12235,"ĠChin":12236,"geflÃ¤":12237,"ĠFreue":12238,"ĠDeo":12239,"ĠDez":12240,"Ġhellblau":12241,"Ġschlamp":12242,"Ġsteck":12243,"schub":12244,"sofern":12245,"ĠLieb":12246,"Ġschmerzen":12247,"Ġweichem":12248,"Ġsolches":12249,"ĠLuftfe":12250,"Ġrostet":12251,"leistet":12252,"Ġheutzutage":12253,"Ġoftmals":12254,"ĠFehlende":12255,"Ġoptimale":12256,"ĠEinsatzzweck":12257,"ĠSchneider":12258,"rÃ¤nkte":12259,"ĠOberweite":12260,"ĠbeschÃ¤dig":12261,"affee":12262,"Ġverschoben":12263,"ERT":12264,"lÃ¶st":12265,"elevant":12266,"Ġbemalen":12267,"Ġnaht":12268,"ardose":12269,"Ġvorhandene":12270,"Ġbiegt":12271,"ĠKapu":12272,"Ġplatt":12273,"ĠTrack":12274,"ĠKartenfÃ¤cher":12275,"Ġhinterher":12276,"ĠvertrÃ¤gt":12277,"ĠCode":12278,"Ġbekann":12279,"ĠFuÃŁball":12280,"ĠwÃ¼nscht":12281,"ĠStandfestigkeit":12282,"setzten":12283,"ĠZusammenbauen":12284,"ĠerwÃ¤r":12285,"ĠTrocknen":12286,"schneidet":12287,"ĠÃĦste":12288,"ĠSamstag":12289,"ĠSpannbett":12290,"Ġteures":12291,"Ġliebevoll":12292,"ĠInnenraum":12293,"ĠNeffe":12294,"ĠDauerbetrieb":12295,"ĠDauereinsatz":12296,"ĠSchlafanzug":12297,"produkte":12298,"ĠKÃ¶rbchen":12299,"ntag":12300,"Ġxxx":12301,"Arm":12302,"ĠSerum":12303,"ĠBadeh":12304,"ĠSaugkraft":12305,"ĠGarn":12306,"ĠBeding":12307,"ĠBesseres":12308,"Ġstellenweise":12309,"ĠFirmen":12310,"hermometer":12311,"ohlensÃ¤":12312,"zÃ¼gen":12313,"ĠKritikpunkte":12314,"ĠNichtsdest":12315,"ĠKÃ¶rpergrÃ¶ÃŁe":12316,"Ġdraussen":12317,"Ġabzuwarten":12318,"Ġleuchtend":12319,"ĠnÃ¼tzliches":12320,"ĠunverschÃ¤mt":12321,"Ġeingebaute":12322,"ĠMuttern":12323,"Ġ:-).":12324,"ĠSchnecken":12325,"ĠLinse":12326,"ĠGesamteindruck":12327,"ĠSÃ¼ÃŁes":12328,"ĠKÃ¤stchen":12329,"ĠBackofen":12330,"ĠNiedlich":12331,"ĠReserve":12332,"ĠSchoko":12333,"WunderschÃ¶ne":12334,"probleme":12335,"Ġvergleichbares":12336,"ĠMaul":12337,"ĠSammler":12338,"Ġattrakt":12339,"Ġwinz":12340,"ĠerhÃ¶hen":12341,"onenten":12342,"Ġmeldet":12343,"ĠFingerabdrucksensor":12344,"mutstropfen":12345,"Ġliebsten":12346,"ĠKÃ¶nnten":12347,"Ġlustige":12348,"ĠHyg":12349,"Ġgoldenen":12350,"Ġunflex":12351,"oberflÃ¤che":12352,"Ġsortiert":12353,"Ġanzeigen":12354,"Ġklingelt":12355,"ĠStudi":12356,"ĠertrÃ¤glich":12357,"Ġwichtigen":12358,"ĠdurchgefÃ¼hrt":12359,"Solide":12360,"ĠBÃ¶den":12361,"ĠKollegen":12362,"verkehr":12363,"ĠUniversal":12364,"ĠVerwendungszweck":12365,"ĠWÃ¤rmflasche":12366,"ĠÃľberraschend":12367,"Hilft":12368,"ĠChrist":12369,"Schlechte":12370,"Ġmiserabel":12371,"ĠBonus":12372,"Ġsimple":12373,"Ġzerbrechlich":12374,"Ġfaszin":12375,"ĠTrÃ¤nen":12376,"ĠArtikeln":12377,"Ġdramatisch":12378,"Ġblechern":12379,"ĠThriller":12380,"ĠprÃ¼fen":12381,"ĠAugust":12382,"ĠÃ¼berprÃ¼fen":12383,"ĠGepÃ¤ckt":12384,"\"-":12385,"Dank":12386,"Display":12387,"Farben":12388,"Kon":12389,"Kinder":12390,"LICH":12391,"Nettes":12392,"Phone":12393,"Paket":12394,"SÃ¼ÃŁ":12395,"afel":12396,"beine":12397,"billig":12398,"cs":12399,"corn":12400,"guter":12401,"grÃ¶sse":12402,"gÃ¼nstiger":12403,"imente":12404,"ks":12405,"meln":12406,"mpol":12407,"montage":12408,"nern":12409,"oc":12410,"obe":12411,"oster":12412,"ps":12413,"paar":12414,"sÃ¤ge":12415,"vis":12416,"wunder":12417,"âĻ":12418,"Ġ).":12419,"eichend":12420,"Ġsupi":12421,"iehen":12422,"iepen":12423,"iegeln":12424,"Ġag":12425,"strom":12426,"einmal":12427,"einstellungen":12428,"einrichtung":12429,"ĠgÃ¤n":12430,"Ġwandern":12431,"Ġmild":12432,"Ġmix":12433,"inchen":12434,"ano":12435,"ĠSucht":12436,"Ġisst":12437,"Ġholz":12438,"Ġhyg":12439,"Ġeinf":12440,"Ġeinfallen":12441,"Ġeinschlafen":12442,"Ġzehn":12443,"Ġkocht":12444,"oniert":12445,"telefon":12446,"unger":12447,"Ġfolie":12448,"ĠAM":12449,"ĠAben":12450,"ĠAtem":12451,"ĠDin":12452,"ĠDAN":12453,"ĠPs":12454,"Ġschu":12455,"Ġschlagen":12456,"elemente":12457,"ets":12458,"schicht":12459,"schild":12460,"Ġlanden":12461,"ĠGL":12462,"ĠGrÃ¶":12463,"ĠBan":12464,"ĠBÃ¤n":12465,"ĠBÃ¼n":12466,"ĠBacken":12467,"ĠBrill":12468,"ĠBud":12469,"ĠBleibt":12470,"ablen":12471,"ĠKragen":12472,"ĠFalt":12473,"ĠFirm":12474,"irl":12475,"irca":12476,"ĠLay":12477,"ĠHÃ¤uschen":12478,"ĠMagen":12479,"ĠMine":12480,"ĠMTB":12481,"ĠEhr":12482,"Ġangem":12483,"reiches":12484,"Ġerwer":12485,"Ġpack":12486,"ĠSchÃ¼sseln":12487,"Ġaufmachen":12488,"Ġhabs":12489,"Ġausgesucht":12490,"Ġbearbeiten":12491,"Ġbezieht":12492,"Ġdaheim":12493,"Ġsichern":12494,"leeren":12495,"legung":12496,"ĠNah":12497,"ĠNull":12498,"ĠRenn":12499,"ĠRed":12500,"lley":12501,"pfanne":12502,"Ġjunge":12503,"lsen":12504,"ĠZer":12505,"ĠZeich":12506,"ĠZahl":12507,"ĠZÃ¤hn":12508,"ĠZunge":12509,"amster":12510,"Ġklagen":12511,"Ġstab":12512,"Ġstolz":12513,"ackelt":12514,"ĠOma":12515,"ĠStat":12516,"ĠStÃ¶rt":12517,"ĠStÃ¤bchen":12518,"ĠAnschlag":12519,"regen":12520,"Ġvoneinander":12521,"entfern":12522,"Ġabru":12523,"ĠabhÃ¤ngig":12524,"lafen":12525,"optik":12526,"opapier":12527,"iko":12528,"ĠÃ¼bersetzt":12529,"Ġganzes":12530,"eistern":12531,"ĠSpot":12532,"ĠErweiterung":12533,"Ġvorsicht":12534,"Ġvorgebo":12535,"ĠLieferungen":12536,"Ġleiden":12537,"bestellung":12538,"Ġumstellen":12539,"Ġumsetzen":12540,"ĠCas":12541,"ĠCur":12542,"ĠCor":12543,"wertigen":12544,"ĠBestellungen":12545,"ausschnitt":12546,"ierende":12547,"Ġkeinster":12548,"ĠArten":12549,"ĠGeschmÃ¤":12550,"Ġregen":12551,"Ġreflekt":12552,"ĠUnbedingt":12553,"ĠAufschrift":12554,"Ġspont":12555,"Ġsporad":12556,"arbeiter":12557,"ĠTopper":12558,"stellbaren":12559,"ĠZuverlÃ¤ss":12560,"ĠGelenke":12561,"ĠNachfol":12562,"ĠAusdruck":12563,"ĠAusprobieren":12564,"Ġeigenes":12565,"Ġlangw":12566,"Ã¤chsh":12567,"ĠberÃ¼hrt":12568,"wendbar":12569,"ĠselbstÃ¤ndig":12570,"ĠBeschenkten":12571,"Ġschwitzen":12572,"Superschnelle":12573,"ĠPlÃ¼":12574,"ĠSongs":12575,"Ġoptim":12576,"Ġgemeint":12577,"Ġbegann":12578,"Ġbegeistern":12579,"ĠVorred":12580,"stÃ¤nge":12581,"ĠRÃ¼cksende":12582,"dreh":12583,"ĠUnterhosen":12584,"Ġleeren":12585,"Ġengen":12586,"ĠFilms":12587,"ĠSpieler":12588,"ĠdÃ¼nnem":12589,"ĠKranken":12590,"Ġerfreu":12591,"Ġwertiger":12592,"Ġwertiges":12593,"ooter":12594,"ĠKnochen":12595,"ĠwarmweiÃŁ":12596,"Ġknicken":12597,"ostÃ¼m":12598,"Ġgestaltete":12599,"ĠSchlaufen":12600,"ĠSchlieren":12601,"ĠLadezeit":12602,"Ġvorherige":12603,"okia":12604,"dies":12605,"Ġausgewogen":12606,"geteilt":12607,"ĠMetern":12608,"ĠOberseite":12609,"Ġ;-/":12610,"ĠBandes":12611,"ĠKanÃ¤":12612,"Ġwacklig":12613,"ĠLav":12614,"lÃ¤sse":12615,"Ġherausgefunden":12616,"ĠXS":12617,"Ġfressen":12618,"Ġfrisst":12619,"ĠfranzÃ¶s":12620,"ĠTrampol":12621,"Ġwunderbares":12622,"Ġult":12623,"Ġerwachsen":12624,"ĠTrommel":12625,"ĠTrolley":12626,"Ġmeiste":12627,"Ġbezwei":12628,"ĠSonnenlicht":12629,"passend":12630,"ĠNÃ¤hten":12631,"ekanne":12632,"Ġungewohnt":12633,"funktionen":12634,"Ġoffene":12635,"Ġschlechteste":12636,"ĠStrich":12637,"ĠTemperaturanzeige":12638,"ĠInnenleben":12639,"unkelt":12640,"Ġedler":12641,"Ġarbeit":12642,"ĠNov":12643,"ĠNetzstecker":12644,"Ġhammer":12645,"ĠzusÃ¤tzliches":12646,"Ġauto":12647,"Ġkostenlose":12648,"Ġintensive":12649,"Ġakzeptiert":12650,"ĠQuali":12651,"ĠFehlanzeige":12652,"Ġloslegen":12653,"Ġzerknittert":12654,"ĠWirklichkeit":12655,"ĠKaraffe":12656,"ĠEleg":12657,"ĠSchwÃ¤che":12658,"ĠPlaymobil":12659,"ĠSorry":12660,"ĠauÃŁerhalb":12661,"phon":12662,"Ġeingebauten":12663,"Ġvergleichsweise":12664,"ietten":12665,"ĠMessbecher":12666,"Ġkaufempfehlung":12667,"ĠBeschÃ¤ftigung":12668,"Ġspringen":12669,"ĠEnttÃ¤uschend":12670,"ĠLustige":12671,"mosph":12672,"ĠBeton":12673,"ĠHobel":12674,"zufÃ¼gen":12675,"mpath":12676,"Ġausgetrocknet":12677,"Ġverschlungen":12678,"ĠWechseln":12679,"ĠSeitdem":12680,"Ġverschmutzt":12681,"Ġgeschlossenen":12682,"kleiner":12683,"kleinern":12684,"Ġtypischen":12685,"Ġregulieren":12686,"ĠðŁĳİ":12687,"Ġbraune":12688,"ĠðŁ¤Ķ":12689,"salat":12690,"ĠDichtungs":12691,"randung":12692,"ĠTreppe":12693,"Ġaufgetreten":12694,"LÃ¤uft":12695,"Ġbeinahe":12696,"grÃ¼nden":12697,"Ġvordere":12698,"Ġworan":12699,"ĠPopcorn":12700,"ĠVerbindungen":12701,"Ġerinnern":12702,"ĠRacl":12703,"Ġbestimmte":12704,"Ġwirkungs":12705,"Ġwirksam":12706,"Ġpflegen":12707,"ĠRÃ¶hr":12708,"ĠBalsam":12709,"Ġprofessionell":12710,"Ġlackiert":12711,"ĠZwischendurch":12712,"Ġtransparent":12713,"Ġjegliche":12714,"ĠUltra":12715,"ĠnachtrÃ¤glich":12716,"ĠStyle":12717,"weifeln":12718,"ĠHerausforderung":12719,"ĠLiebesgeschichte":12720,"Ġsagte":12721,"ĠSEHR":12722,"Ġheutigen":12723,"Ideal":12724,"Ġknifflig":12725,"ĠFeature":12726,"ĠSauerei":12727,"ĠverhÃ¤ltnismÃ¤ÃŁig":12728,"Ġâĺº":12729,"asertuch":12730,"Ġmilchig":12731,"ĠUND":12732,"ĠKnaller":12733,"ĠWendungen":12734,"Ġunzureichend":12735,"ĠLektÃ¼re":12736,"ĠSchnickschnack":12737,"ĠKabellÃ¤nge":12738,"ĠstÃ¤ndige":12739,"ĠGesundheit":12740,"schÃ¤umer":12741,"Ġlagern":12742,"Ġergonomisch":12743,"ĠKleinteile":12744,"ĠgewÃ¤hrleistet":12745,"ĠSneaker":12746,"ĠKakao":12747,"klingel":12748,"Ġumtauschen":12749,"Ġneugierig":12750,"glaublich":12751,"ĠMelodie":12752,"ĠRechtschreibfehler":12753,"Ġschlampig":12754,"ĠKapuze":12755,"ĠNichtsdestotrotz":12756,"ĠGepÃ¤cktrÃ¤ger":12757,"!?":12758,"):":12759,"Auss":12760,"Achtung":12761,"ADE":12762,"CD":12763,"Fi":12764,"Fans":12765,"Ir":12766,"Jetzt":12767,"Kom":12768,"Kamera":12769,"Note":12770,"Ohne":12771,"PÃ¼nktliche":12772,"RA":12773,"Tastatur":12774,"Taste":12775,"WÃ¤re":12776,"Zwar":12777,"Zigar":12778,"bre":12779,"bliche":12780,"bÃ¤lle":12781,"display":12782,"ebe":12783,"fone":12784,"folg":12785,"gin":12786,"gra":12787,"gÃ¼lt":12788,"gummis":12789,"kuchen":12790,"kiste":12791,"mass":12792,"niss":12793,"rier":12794,"swerter":12795,"wurde":12796,"wÃ¤nde":12797,"yb":12798,"yson":12799,"era":12800,"erin":12801,"eiche":12802,"Ġdolle":12803,"Ġdimmen":12804,"Ġdetail":12805,"Ġdisk":12806,"uni":12807,"unz":12808,"Ġachtet":12809,"stÃ¼":12810,"einschlÃ¼sse":12811,"Ġgo":12812,"Ġglob":12813,"Ġwa":12814,"Ġwuchtig":12815,"asste":12816,"Ġmau":12817,"Ġmischen":12818,"Ġmies":12819,"llustr":12820,"Ġnatur":12821,"Ġnasse":12822,"Ġnice":12823,"Ġneigt":12824,"ehnen":12825,"ĠSÃ¼":12826,"ĠSah":12827,"utung":12828,"Ġbas":12829,"ĠbrÃ¶":12830,"arke":12831,"Ġhapp":12832,"Ġeingef":12833,"Ġeinander":12834,"ĠeinfÃ¼llen":12835,"Ġzocken":12836,"Ġkunden":12837,"ĠkÃ¤lter":12838,"ĠkÃ¤mpfen":12839,"Ġfassen":12840,"ĠAp":12841,"Ġzubereiten":12842,"Ġzuletzt":12843,"augen":12844,"auÃŁer":12845,"ĠPfer":12846,"ĠPoren":12847,"ĠPistole":12848,"ĠPuma":12849,"atschen":12850,"Ã¶ten":12851,"Ġschrau":12852,"Ġschaden":12853,"Ã¼rste":12854,"Ġlernt":12855,"ĠGin":12856,"ĠGips":12857,"ĠBI":12858,"ĠBase":12859,"abhÃ¤ngig":12860,"ĠKir":12861,"ĠKalk":12862,"ĠFand":12863,"ĠLÃ¤rm":12864,"ĠMem":12865,"ĠMÃ¤rchen":12866,"ĠTaufe":12867,"ĠTurm":12868,"Ġanliegt":12869,"reif":12870,"reiÃŁt":12871,"neben":12872,"ĠWal":12873,"oche":12874,"Ġgezw":12875,"Ġerspart":12876,"Ġincl":12877,"Ġaufbau":12878,"Ġaufpasst":12879,"Ġaufblasen":12880,"Ġaufweist":12881,"Ġaufgebraucht":12882,"ĠIt":12883,"ĠtÃ¼r":12884,"ĠtÃ¤uschen":12885,"Ã¤tung":12886,"Ã¤tzt":12887,"Ġbeklebt":12888,"Ġdam":12889,"leuchtung":12890,"ĠNik":12891,"ĠNimmt":12892,"ĠNÃ¼sse":12893,"ĠNippel":12894,"ĠNokia":12895,"Ġrand":12896,"perren":12897,"aufbau":12898,"aufkleber":12899,"Ġwirft":12900,"Ġjust":12901,"Ġjog":12902,"ĠZipp":12903,"ĠVersender":12904,"amper":12905,"Ġkleid":12906,"Ġstick":12907,"Ġnachgeliefert":12908,"ĠAnim":12909,"reste":12910,"reff":12911,"Ġabst":12912,"Ġabdecken":12913,"Ġabgelaufen":12914,"ĠschÃ¶nem":12915,"achtung":12916,"fache":12917,"Ã¼nscht":12918,"gere":12919,"ĠÃ¼berarbeitet":12920,"ĠÃ¼berprÃ¼ft":12921,"angem":12922,"zension":12923,"Ġ110":12924,"ĠSpardose":12925,"ĠHandbuch":12926,"Ġvorzu":12927,"Ġvorerst":12928,"Ġ23":12929,"Ġ250":12930,"ends":12931,"ucks":12932,"block":12933,"verhalten":12934,"Ġbinden":12935,"Ġgerettet":12936,"ĠClo":12937,"ĠBearbeitung":12938,"ĠAbschalten":12939,"laschen":12940,"ĠGefallen":12941,"ĠGepÃ¤ck":12942,"ĠGestÃ¤nge":12943,"Ġdurchgehalten":12944,"offel":12945,"ĠSod":12946,"ĠSowas":12947,"gebunden":12948,"gebnisse":12949,"arty":12950,"Ġdeko":12951,"brand":12952,"brunnen":12953,"ungskabel":12954,"ungsmÃ¶glichkeiten":12955,"ĠZuviel":12956,"raktik":12957,"ĠHandytasche":12958,"ammelt":12959,"Ġhinge":12960,"Ġhinwegs":12961,"ĠNachdenken":12962,"ĠSteuer":12963,"lernen":12964,"essor":12965,"Ġfestzustellen":12966,"ĠWasserdruck":12967,"ĠKabelbruch":12968,"wendige":12969,"laster":12970,"ĠArtikels":12971,"ĠReibe":12972,"ĠReihen":12973,"alterung":12974,"ervt":12975,"ervice":12976,"ĠUnternehmen":12977,"nitte":12978,"nitter":12979,"Ã¤ufe":12980,"Ġbedruck":12981,"ĠÃľberzeugt":12982,"ĠNachts":12983,"Ġerfreut":12984,"ĠKnoten":12985,"ĠlÃ¶s":12986,"ĠWieso":12987,"soft":12988,"ransen":12989,"ĠBrat":12990,"Ġknack":12991,"ĠLied":12992,"Ġsolider":12993,"Ġsolala":12994,"ĠLadebuchse":12995,"ĠLuftbe":12996,"Ġdeutlicher":12997,"Ġheben":12998,"ĠmÃ¶glichen":12999,"Ġaussuchen":13000,"ĠHahn":13001,"Ġversagt":13002,"Ġsauberer":13003,"Preisleistung":13004,"beim":13005,"schÃ¶ner":13006,"fahrer":13007,"ĠMain":13008,"Ersatz":13009,"ErfÃ¼llen":13010,"Warum":13011,"ĠbemÃ¼ht":13012,"Ġherausnehmen":13013,"Ġloben":13014,"ĠTrafo":13015,"Ġhintere":13016,"ĠwÃ¼nsche":13017,"zusp":13018,"deswegen":13019,"ĠFritz":13020,"ĠTÃ¼re":13021,"ĠHochwertiges":13022,"ĠSprung":13023,"ĠPraktischer":13024,"ĠStabiler":13025,"ĠSolala":13026,"ĠPinseln":13027,"Ġschlechtem":13028,"ĠSpannungs":13029,"ĠGegenstand":13030,"ĠStress":13031,"ĠdÃ¼rften":13032,"ĠUrlaubs":13033,"ĠLeise":13034,"Ġjemals":13035,"ĠHinsehen":13036,"ĠBadesch":13037,"Ġwasserdichte":13038,"biegen":13039,"hode":13040,"ĠGarder":13041,"ĠMikrowelle":13042,"Ġanfassen":13043,"Ġrundherum":13044,"Ġ......":13045,"schmuck":13046,"ĠstÃ¶rte":13047,"ĠIhrer":13048,"ĠZweite":13049,"Klang":13050,"Ġsichtbare":13051,"Ġnebenbei":13052,"ĠThermost":13053,"ĠMÃ¤ppchen":13054,"Ġzerkn":13055,"Ġeinzubauen":13056,"ĠFernseh":13057,"Bestellung":13058,"Ġangeschlossenen":13059,"freude":13060,"Ã¤mpft":13061,"Werde":13062,"Ġverzichtet":13063,"Ġtiefe":13064,"Ġschlichtes":13065,"ĠunnatÃ¼rlich":13066,"ĠSchriftzug":13067,"Ġtaugen":13068,"ĠBrotdose":13069,"ildert":13070,"ĠBetracht":13071,"ĠgrÃ¶ss":13072,"ĠordnungsgemÃ¤ÃŁ":13073,"ĠStrecke":13074,"ĠEiweiÃŁ":13075,"ĠResult":13076,"ĠJogging":13077,"Ġintegrierten":13078,"Ġunbeschadet":13079,"Ġspezielle":13080,"Ġumgek":13081,"ĠFersen":13082,"ĠKeramik":13083,"Ġ360":13084,"ĠVerbesserungsp":13085,"ĠSchwachpunkt":13086,"Ġfusseln":13087,"ĠAquar":13088,"Ġbenutzbar":13089,"renzwertig":13090,"ĠWichtigste":13091,"Ã¤ttchen":13092,"Ġsammeln":13093,"ĠBastler":13094,"ĠStimmung":13095,"ĠVerdam":13096,"ĠStylisch":13097,"ĠSchablonen":13098,"ĠReisverschluss":13099,"ĠScharnier":13100,"Ġantwor":13101,"ĠbeigefÃ¼gte":13102,"ĠBrems":13103,"helfer":13104,"ĠBillige":13105,"Ġsortieren":13106,"ĠTÃ¶pfchen":13107,"ĠMikrofaser":13108,"Ġbissl":13109,"ĠstÃ¤rkeren":13110,"ĠkÃ¼hler":13111,"ĠFrÃ¼hl":13112,"ĠRauchen":13113,"ĠLÃ¶sungen":13114,"ĠschÃ¤rfer":13115,"Ġstundenlang":13116,"Passform":13117,"ĠKalorien":13118,"ĠRichtungen":13119,"ĠÃĦhnliches":13120,"ĠDÃ¼fte":13121,"ĠTomaten":13122,"ĠKabelbinder":13123,"Ġirritiert":13124,"ĠPrivat":13125,"Fernbedienung":13126,"ĠDaraufhin":13127,"ĠNahrungser":13128,"ĠVerzÃ¶gerung":13129,"ĠWaffeln":13130,"jenigen":13131,"Ġblasser":13132,"ĠAdresse":13133,"burger":13134,"ĠFummelei":13135,"andios":13136,"ĠDiscounter":13137,"ï¸ıâŃĲï¸ıâŃĲ":13138,"Ġgemeinsam":13139,"ĠApril":13140,"ĠDocking":13141,"Ġgewaltig":13142,"ĠGehÃ¶rschutz":13143,"ĠWiederholungen":13144,"Ġalltagstauglich":13145,"ĠAbbildungen":13146,"ĠGefrier":13147,"Ġgeformt":13148,"ĠwegschmeiÃŁen":13149,"ĠDezember":13150,"Ã¤chshaus":13151,"ĠRaclette":13152,"Irgend":13153,"Ġhinwegsehen":13154,"!).":13155,".:":13156,"18":13157,"Billig":13158,"CK":13159,"Dem":13160,"Dam":13161,"Kap":13162,"LED":13163,"PU":13164,"Prinzipiell":13165,"Recht":13166,"SCH":13167,"Saug":13168,"Trage":13169,"aet":13170,"bs":13171,"bem":13172,"ble":13173,"besen":13174,"button":13175,"duft":13176,"draht":13177,"flex":13178,"fans":13179,"flocken":13180,"hÃ¤tte":13181,"ibler":13182,"kannt":13183,"kÃ¶pfe":13184,"lige":13185,"mangel":13186,"nÃ¤ck":13187,"nadeln":13188,"pin":13189,"rang":13190,"tauglich":13191,"vide":13192,"viele":13193,"way":13194,"wetter":13195,"xy":13196,"Ġeck":13197,"Ġreisen":13198,"įâĻ":13199,"Ŀ¤":13200,"enen":13201,"enten":13202,"Ġsl":13203,"Ġsm":13204,"Ġsal":13205,"start":13206,"einheit":13207,"Ġginge":13208,"Ġwach":13209,"Ġwetter":13210,"ĠmÃ¼ÃŁ":13211,"iness":13212,"inform":13213,"anfÃ¤nger":13214,"Ã¼pfen":13215,"Ã¼hler":13216,"ĠnÃ¼tzt":13217,"ehentlich":13218,"ĠSO":13219,"ĠSÃ¶":13220,"ĠSle":13221,"ĠSub":13222,"Ġunpassend":13223,"Ã¤mmer":13224,"Ã¤schchen":13225,"Ġbunten":13226,"arl":13227,"arge":13228,"artet":13229,"Ġunde":13230,"Ġhu":13231,"Ġhaus":13232,"ĠzÃ¤hlen":13233,"Ġkamm":13234,"Ġkant":13235,"Ġkette":13236,"onne":13237,"Ġfau":13238,"Ġfort":13239,"Ġfotograf":13240,"ĠfrÃ¶h":13241,"alent":13242,"ittel":13243,"ĠAlo":13244,"ĠALL":13245,"ĠDE":13246,"ĠDimmer":13247,"ĠDarm":13248,"ĠPi":13249,"ĠPick":13250,"ĠPip":13251,"ĠPhone":13252,"ĠPrÃ¤z":13253,"ĠPickel":13254,"ĠschÃ¤tze":13255,"ĠschÃ¼tteln":13256,"schÃ¼t":13257,"Ġlenken":13258,"ĠGlo":13259,"ĠBesen":13260,"ĠBunt":13261,"ĠKL":13262,"ĠKreis":13263,"ĠKatz":13264,"ĠKÃ¤r":13265,"ĠKul":13266,"ĠKocher":13267,"ĠFu":13268,"ĠFull":13269,"ĠFugen":13270,"urst":13271,"ĠLumen":13272,"ĠHatten":13273,"ĠMF":13274,"ĠMie":13275,"ĠMil":13276,"ĠMom":13277,"ĠMessen":13278,"ĠMaschinen":13279,"ĠEssig":13280,"ĠTatsÃ¤chlich":13281,"Ġanschalten":13282,"ĠanstÃ¤ndig":13283,"Ġanzeigt":13284,"reibe":13285,"ĠWeit":13286,"ĠWatte":13287,"ĠWalk":13288,"ĠWÃ¤nde":13289,"ĠfÃ¼rchter":13290,"Ġgeantwortet":13291,"Ġergeben":13292,"Ġerstellen":13293,"Ġpor":13294,"ĠprÃ¤sent":13295,"Ġprinzipiell":13296,"ĠverschÃ¶n":13297,"ĠvergrÃ¶ÃŁ":13298,"Ġmiteinander":13299,"ĠIKE":13300,"Ġtv":13301,"Ġtraum":13302,"Ġwiege":13303,"ĠVin":13304,"ĠVolt":13305,"Ġausschlaggeben":13306,"leger":13307,"ĠNu":13308,"ĠNack":13309,"ĠRis":13310,"ildete":13311,"Ġjahren":13312,"racker":13313,"ĠZwerg":13314,"ĠVerstell":13315,"ĠVerwende":13316,"isierung":13317,"ĠstÃ¤ndigen":13318,"ĠStrip":13319,"ĠStoÃŁ":13320,"Ġnacharbeiten":13321,"Ġnachdenken":13322,"Ġnachhaltig":13323,"Ġnachbessern":13324,"ĠAnschlieÃŁen":13325,"ĠAnbindung":13326,"olben":13327,"Ġabgeht":13328,"Ġabbrechen":13329,"Ġabgeholt":13330,"ommes":13331,"ĠUneben":13332,"Ġmeinung":13333,"ĠEinle":13334,"...,":13335,"lager":13336,"Ã¼nf":13337,"ikationen":13338,"ĠProduktbild":13339,"spitze":13340,"Ġ(!)":13341,"Ã¤ltnis":13342,"ĠSpazier":13343,"ĠHandgepÃ¤ck":13344,"Ġvorkommt":13345,"bestellt":13346,"bequem":13347,"ĠJuni":13348,"verschlÃ¼ssen":13349,"Ġanderweit":13350,"egal":13351,"Ġgenervt":13352,"ĠBefÃ¼r":13353,"rissen":13354,"ĠAbziehen":13355,"ĠAbgesehen":13356,"ĠAbfluss":13357,"Ġgelang":13358,"Ġgelernt":13359,"ausatz":13360,"ĠGefÃ¼hle":13361,"abellos":13362,"kegel":13363,"Ġerwartete":13364,"Ġbesserer":13365,"ĠUni":13366,"ĠDavon":13367,"zugehen":13368,"Schick":13369,"Ġbeschenkte":13370,"ads":13371,"Ġgeschliffen":13372,"Ã¤user":13373,"ĠRec":13374,"Ġunterhalb":13375,"Ġunterbringen":13376,"ungsgefahr":13377,"Ġcirca":13378,"Ġwozu":13379,"ĠEngel":13380,"pekt":13381,"Ġhinsichtlich":13382,"ĠwÃ¤scht":13383,"ĠBeides":13384,"ĠNachricht":13385,"Ġ:-/":13386,"liebe":13387,"ĠAusfÃ¼hr":13388,"Einige":13389,"ĠBildes":13390,"Ġreinpasst":13391,"Ġberaten":13392,"ĠLichterk":13393,"dlichen":13394,"Ġpassender":13395,"ĠKopfschmerzen":13396,"ĠKopfhaut":13397,"ĠPlatt":13398,"ĠSong":13399,"ĠSonder":13400,"anteil":13401,"ĠReiset":13402,"ĠVorne":13403,"wies":13404,"ĠFunktional":13405,"ĠRÃ¼cklicht":13406,"imo":13407,"ĠDisk":13408,"formance":13409,"ĠSpielraum":13410,"ĠArmlehnen":13411,"ĠChrom":13412,"ĠUmzug":13413,"ĠUmbau":13414,"ĠFrequenz":13415,"ools":13416,"ĠKno":13417,"ĠlÃ¶sten":13418,"ĠGewÃ¼rze":13419,"Ġverletzt":13420,"ĠGlases":13421,"ĠOhrmuscheln":13422,"ĠDruckbild":13423,"Ġirgendein":13424,"sichtigen":13425,"ĠVerbinden":13426,"beding":13427,"bedarf":13428,"Ġglatter":13429,"ĠFernsehen":13430,"ĠHaarb":13431,"ĠAdidas":13432,"ĠPfeife":13433,"âĢįâĻ":13434,"Ġversaut":13435,"Ġausgegeben":13436,"ĠSchnallen":13437,"ĠAufbauen":13438,"ĠMetal":13439,"ĠbeschÃ¤digen":13440,"Ġmontage":13441,"ĠBislang":13442,"ĠLagerung":13443,"ĠÃ¶ffnete":13444,"nahm":13445,"Sticks":13446,"ĠXbox":13447,"Ġschliessen":13448,"ĠWandhalterung":13449,"ĠhÃ¶he":13450,"ĠhÃ¶hen":13451,"ĠFotoal":13452,"Ġqm":13453,"sprÃ¼hen":13454,"ĠServietten":13455,"Ġfrischer":13456,"ĠTrag":13457,"ĠTragetasche":13458,"Ġwahre":13459,"rub":13460,"flÃ¼gel":13461,"oppelt":13462,"Ġvertrau":13463,"uchtete":13464,"ĠStandort":13465,"ĠTragegurt":13466,"ĠKeiner":13467,"ĠSporttasche":13468,"ĠZusammenstellung":13469,"ĠKlebekraft":13470,"ĠVielfalt":13471,"Ġeingearbeitet":13472,"eimt":13473,"ĠaufzuhÃ¤ngen":13474,"CHT":13475,"Ġkompakte":13476,"Ġverfehlt":13477,"ĠLÃ¤dt":13478,"ĠbewÃ¤hrt":13479,"waage":13480,"Ġblitz":13481,"Ġblinkt":13482,"Ġgrobe":13483,"dimension":13484,"ĠRieker":13485,"ctor":13486,"ĠFestigkeit":13487,"Ġaktual":13488,"ĠBessere":13489,"ĠWeiterempfehlen":13490,"ĠMehrfach":13491,"Ġmusst":13492,"ĠBÃ¼gelbrett":13493,"Ġfreien":13494,"ĠBohren":13495,"ĠLeichtes":13496,"ĠInternetradio":13497,"Ġ!!!!!":13498,"ĠHosentrÃ¤ger":13499,"ĠbemÃ¤ngelt":13500,"ĠNegatives":13501,"ĠwunderschÃ¶ner":13502,"Ġdoppels":13503,"ĠStraÃŁe":13504,"ĠWertigkeit":13505,"Ġgraue":13506,"ĠAnderes":13507,"ĠSekunde":13508,"ĠPaare":13509,"ĠPorts":13510,"Bequem":13511,"Ã¤mpfer":13512,"ĠzerbrÃ¶selt":13513,"Ġschlapp":13514,"ĠMinuspunkte":13515,"ĠMÃ¼sste":13516,"ĠVerletz":13517,"leser":13518,"ĠTrinken":13519,"Ġdunkeln":13520,"Ġgeniale":13521,"Ġruhigen":13522,"Generell":13523,"ĠEisk":13524,"schnittliche":13525,"ĠProgrammierung":13526,"Ġ160":13527,"ĠPav":13528,"ĠFeuchtigkeits":13529,"Ġgelegentliche":13530,"ĠKurbel":13531,"Ġleistungs":13532,"Problem":13533,"ĠBÃ¼geln":13534,"ĠSki":13535,"ĠSkala":13536,"Ġduschen":13537,"Ġtechnische":13538,"ĠKÃ¤se":13539,"ziehung":13540,"schneller":13541,"ĠTiefgang":13542,"ĠDementsprechend":13543,"Ġprompte":13544,"besitzer":13545,"ods":13546,"odien":13547,"ĠJoghurt":13548,"ĠFrontkamera":13549,"ĠTorte":13550,"ĠNavig":13551,"Ġvorgesehene":13552,"ĠEdition":13553,"Ġschwierige":13554,"Ġfehlerfrei":13555,"fÃ¼llte":13556,"Ġentspannt":13557,"Ġentspannen":13558,"ĠRobustheit":13559,"ĠHalb":13560,"Ġinformiert":13561,"ðŁĺĬ":13562,"ossil":13563,"ĠZifferblatt":13564,"ĠSchlechtes":13565,"Ġ=)":13566,"ĠMedia":13567,"Ġverbrennt":13568,"ĠRezeptbuch":13569,"antworten":13570,"Ġmelden":13571,"ĠShake":13572,"Ġpflegt":13573,"Ġpflegeleicht":13574,"Ġreduzieren":13575,"ĠOrdentliche":13576,"ĠRav":13577,"ĠSprachqualitÃ¤t":13578,"ĠMechanik":13579,"ĠVerstauen":13580,"ĠTurn":13581,"Ġmagnetisch":13582,"Ġzugeklebt":13583,"ĠFavoriten":13584,
[...]
